'<pad>_'
'<EOS>_'
'the_'
', _'
'to_'
'._'
'. _'
'and_'
'of_'
'you_'
'or_'
'your_'
'a_'
'in_'
'tap_'
'on_'
'-_'
'for_'
' . _'
'/_'
'is_'
''_'
'with_'
'this_'
's_'
'any_'
':_'
'by_'
' (_'
'that_'
'app_'
'_'
'1_'
': _'
'from_'
'settings_'
'it_'
'use_'
'then_'
'not_'
'if_'
'0_'
'be_'
'as_'
'2_'
'all_'
',_'
') _'
'will_'
'open_'
'an_'
')_'
'at_'
'screen_'
'are_'
'select_'
'phone_'
'3_'
'license_'
'can_'
'i_'
'account_'
'up_'
' - _'
'have_'
'more_'
'new_'
'may_'
'other_'
'add_'
'android_'
'google_'
't_'
'4_'
' & _'
'work_'
'no_'
'terms_'
'device_'
'5_'
'my_'
'!_'
'(_'
'software_'
'button_'
'home_'
'sign_'
'com_'
'data_'
'information_'
'want_'
'when_'
'click_'
'choose_'
'such_'
'?_'
'we_'
' "_'
'do_'
'see_'
'00_'
'search_'
'iphone_'
'location_'
'time_'
'name_'
'email_'
'get_'
'" _'
'under_'
'list_'
'6_'
'right_'
'share_'
'one_'
'now_'
'next_'
'set_'
'top_'
'10_'
'free_'
'us_'
'enter_'
'$_'
'menu_'
'facebook_'
'conditions_'
'off_'
'7_'
'apps_'
'icon_'
'about_'
'shall_'
'service_'
'copyright_'
'application_'
'number_'
'go_'
'only_'
'8_'
'image_'
'including_'
'version_'
'code_'
'find_'
'password_'
'source_'
'our_'
'but_'
'9_'
'using_'
'privacy_'
'like_'
' , _'
'without_'
'play_'
'save_'
'turn_'
'works_'
'make_'
' > _'
' ._'
'2017_'
'services_'
'following_'
'; _'
'start_'
'step_'
'\u_'
'text_'
'e_'
'out_'
'mobile_'
'how_'
'file_'
'12_'
'which_'
'access_'
'create_'
'user_'
'view_'
'send_'
'agreement_'
'show_'
'download_'
'contact_'
'form_'
'notifications_'
'change_'
'"_'
'available_'
'derivative_'
'please_'
'what_'
're_'
'its_'
' _'
'me_'
'log_'
'back_'
'down_'
'@_'
'don_'
'agree_'
'day_'
'- _'
'profile_'
'd_'
'left_'
'call_'
'provided_'
'+_'
'message_'
'• _'
'de_'
'titled_'
'notice_'
'has_'
'11_'
'continue_'
'help_'
'content_'
'check_'
'store_'
'photos_'
'bottom_'
'am_'
'video_'
'contacts_'
'address_'
'ok_'
'’_'
'so_'
'done_'
'30_'
'also_'
'll_'
'first_'
'apple_'
'delete_'
'gmail_'
'bluetooth_'
'party_'
'h_'
'./_'
'rights_'
'm_'
'edit_'
'third_'
'just_'
'each_'
'was_'
'news_'
'their_'
'mode_'
'options_'
'photo_'
'n_'
'must_'
'type_'
'messages_'
'policy_'
'network_'
'2016_'
'there_'
'id_'
'support_'
'page_'
'devices_'
'these_'
'language_'
'15_'
'card_'
'date_'
'y_'
'c_'
'info_'
'here_'
'san_'
'after_'
'cancel_'
'%_'
'display_'
'o_'
'within_'
'need_'
'connect_'
'clear_'
'into_'
'.  _'
'watch_'
'otherwise_'
'licensed_'
'general_'
'scroll_'
'through_'
'liability_'
'20_'
'people_'
'pm_'
'control_'
'damages_'
'://_'
'enable_'
'notification_'
'follow_'
'13_'
'used_'
'files_'
'copy_'
' / _'
'friends_'
'some_'
'where_'
'them_'
'contributor_'
'music_'
'! _'
'limited_'
'computer_'
'licensor_'
'allow_'
'option_'
'14_'
'remove_'
'hold_'
'take_'
'messaging_'
'history_'
'update_'
'who_'
'once_'
'test_'
'default_'
'beam_'
'login_'
' '_'
'part_'
'ago_'
'sound_'
'entity_'
'they_'
'99_'
'days_'
'gps_'
'install_'
'should_'
'swipe_'
'read_'
'product_'
'personal_'
'switch_'
'r_'
'17_'
'mean_'
'www_'
'fi_'
'order_'
'press_'
'browser_'
'security_'
'tablet_'
'francisco_'
'above_'
'section_'
'16_'
'wi_'
'notices_'
'he_'
'* _'
'law_'
'would_'
'been_'
'°_'
'own_'
'b_'
'additional_'
'welcome_'
'touch_'
'system_'
'whether_'
'way_'
'corner_'
'warranties_'
'weather_'
'map_'
'details_'
'english_'
'warranty_'
'united_'
'? _'
'' _'
'current_'
'apply_'
'50_'
'last_'
'non_'
'). _'
'today_'
'required_'
'ipad_'
'legal_'
'applicable_'
'18_'
'provide_'
'know_'
'live_'
'bar_'
'note_'
'backup_'
'users_'
'), _'
'eigen_'
'before_'
'end_'
'below_'
'again_'
'his_'
'receive_'
'http_'
'favorites_'
'camera_'
'25_'
'program_'
'link_'
'does_'
'full_'
'over_'
'alerts_'
'sure_'
'21_'
'automatically_'
'skip_'
'folder_'
'states_'
'voice_'
'god_'
'patent_'
'business_'
'tv_'
'online_'
've_'
'rate_'
'lock_'
'reset_'
'purpose_'
'always_'
'src_'
'made_'
'either_'
'x_'
'la_'
'box_'
'event_'
'web_'
'contribution_'
'while_'
'already_'
'en_'
'subject_'
'distribute_'
'minutes_'
'different_'
'ca_'
'storage_'
'fake_'
'% _'
' $_'
'19_'
'distribution_'
'auto_'
'24_'
'videos_'
'those_'
'object_'
'..._'
'library_'
'tab_'
'connection_'
'appear_'
'company_'
'color_'
'22_'
'icloud_'
'products_'
'size_'
'public_'
'sync_'
'move_'
'most_'
'calls_'
'keep_'
'implied_'
'confirm_'
'limitation_'
'best_'
'place_'
'owner_'
'even_'
'accept_'
'same_'
'audio_'
'mail_'
'between_'
'appears_'
' : _'
'items_'
'based_'
'permission_'
'l_'
'connected_'
'until_'
'started_'
'media_'
'later_'
'f_'
'except_'
'u_'
'let_'
'saved_'
'person_'
'maps_'
'than_'
'include_'
'complete_'
'loss_'
'good_'
'documentation_'
'website_'
'city_'
'advanced_'
'price_'
'try_'
'love_'
'hours_'
'state_'
'features_'
';_'
'key_'
'g_'
'learn_'
'28_'
'group_'
'29_'
'modifications_'
' #_'
'  _'
'two_'
'23_'
'special_'
'payment_'
'feedback_'
'action_'
'buy_'
'game_'
'results_'
'family_'
'express_'
'via_'
'center_'
'chat_'
'accounts_'
'unless_'
'purposes_'
'added_'
'life_'
'close_'
'another_'
'27_'
'country_'
'manage_'
'book_'
'means_'
'give_'
'power_'
'#_'
'pay_'
'ads_'
'three_'
'internet_'
'recent_'
'baby_'
'notes_'
'direct_'
'post_'
'ing_'
'min_'
'mar_'
'drag_'
'transfer_'
'stop_'
'favorite_'
'world_'
'sms_'
'level_'
'apache_'
'setting_'
'selected_'
'register_'
'offer_'
'forgot_'
'100_'
'site_'
'questions_'
'mi_'
'line_'
'+ _'
'ios_'
'team_'
'area_'
'es_'
'updates_'
'track_'
'dec_'
'kind_'
'keyboard_'
'status_'
'every_'
'long_'
'picture_'
'behalf_'
')._'
'writing_'
'points_'
'daily_'
'preferences_'
'item_'
'26_'
'coinbase_'
'property_'
'feb_'
'background_'
'window_'
'modify_'
'attribution_'
'licenses_'
'charge_'
'look_'
'car_'
'changes_'
'games_'
'," _'
'liable_'
'chrome_'
'thereof_'
'near_'
'instructions_'
'green_'
'pro_'
'particular_'
'individual_'
'000_'
'mac_'
'permissions_'
'local_'
'40_'
'specific_'
'sent_'
'written_'
'plan_'
'usage_'
'original_'
'p_'
'latest_'
'el_'
'steps_'
'import_'
'found_'
'song_'
'verify_'
'parties_'
'apr_'
'launch_'
'field_'
' “_'
'record_'
'ed_'
'…_'
'restore_'
'01_'
'arising_'
'activity_'
'laws_'
'light_'
'cpp_'
'org_'
'numbers_'
'times_'
'return_'
'names_'
'unknown_'
'responsible_'
'pin_'
'exclusive_'
'desired_'
'04_'
'white_'
'title_'
'locations_'
'granted_'
'twitter_'
'inc_'
'02_'
'yes_'
'blue_'
'speed_'
'sell_'
'player_'
'week_'
'applications_'
'theme_'
'against_'
'31_'
'join_'
'03_'
'room_'
'al_'
'volume_'
'fitness_'
'contract_'
'case_'
'able_'
'point_'
'filter_'
'weight_'
'side_'
'high_'
'grant_'
'disclaimer_'
'invite_'
'.	_'
'networks_'
'alert_'
'food_'
'example_'
'word_'
'per_'
'ask_'
'shopping_'
'main_'
'scan_'
'health_'
'yet_'
'years_'
'review_'
'related_'
'materials_'
'block_'
'*_'
'disable_'
'fixed_'
'central_'
'year_'
'browse_'
'toggle_'
'05_'
'period_'
'advertisement_'
'submit_'
'ringtone_'
'quality_'
'calendar_'
'verification_'
'setup_'
'cc_'
'>_'
'k_'
'username_'
'social_'
'copies_'
'premium_'
'comments_'
'customer_'
'ad_'
' | _'
'old_'
'total_'
'well_'
'shop_'
'&_'
'upper_'
'sharing_'
'him_'
'age_'
'method_'
'document_'
'controls_'
'images_'
'custom_'
'report_'
'indirect_'
'submitted_'
'night_'
'recording_'
'quick_'
'many_'
'face_'
'vertifi_'
'member_'
'purchase_'
'books_'
'alarm_'
'offers_'
'export_'
'never_'
'distributed_'
'credit_'
'er_'
'cards_'
'w_'
'plus_'
'nearby_'
'categories_'
'claims_'
'position_'
'brown_'
'real_'
'experience_'
'california_'
'both_'
'usd_'
'request_'
'reproduction_'
'however_'
'shows_'
'permitted_'
'. (_'
'man_'
'communication_'
'album_'
'associated_'
'tapping_'
'deals_'
'her_'
'whole_'
'whatsapp_'
'claim_'
'smart_'
'gallery_'
'45_'
'sounds_'
'sort_'
'friend_'
'hereby_'
'consequential_'
'result_'
'red_'
'others_'
'drive_'
'during_'
'=_'
'slide_'
'damage_'
'widget_'
'agreed_'
'said_'
'push_'
'07_'
'prior_'
'installed_'
'covered_'
'management_'
'around_'
'received_'
'included_'
'black_'
'being_'
'',_'
'provider_'
'process_'
'passcode_'
'itunes_'
'https_'
'06_'
'usb_'
'pick_'
'33_'
'events_'
'least_'
'hide_'
'windows_'
'great_'
' + _'
'double_'
'cause_'
'wish_'
'unlock_'
'few_'
'sam_'
'input_'
'pop_'
'core_'
'st_'
'authorized_'
'article_'
'lists_'
'international_'
'hotel_'
'guide_'
'easy_'
'currency_'
'contributions_'
'cannot_'
'60_'
'hour_'
'better_'
'z_'
'wifi_'
'thanks_'
'money_'
'merchantability_'
'format_'
'necessary_'
'popular_'
'developer_'
'category_'
'apn_'
'places_'
'meet_'
'gift_'
'digital_'
'accessibility_'
'reserved_'
'ready_'
'35_'
'incidental_'
'visit_'
'updated_'
'things_'
'multiple_'
'conversation_'
'upgrade_'
'stories_'
'adjust_'
' _'
'upload_'
'trademarks_'
'very_'
'v_'
'sun_'
'miles_'
'excluding_'
'got_'
'feature_'
'women_'
'includes_'
'offline_'
'john_'
'[_'
'> _'
'say_'
'infringement_'
'tools_'
'comment_'
'child_'
'accepting_'
'sole_'
'sale_'
']_'
'obligations_'
'body_'
'prompted_'
'might_'
'heart_'
'fun_'
'cookies_'
'provides_'
'because_'
'slider_'
'possible_'
'09_'
'downloaded_'
'collect_'
'why_'
'wait_'
'private_'
'month_'
'finger_'
'navigation_'
'delivery_'
'were_'
'finish_'
'reproduce_'
'licensee_'
'activate_'
'server_'
'grants_'
'electronic_'
'much_'
'basis_'
'arrow_'
'active_'
'drop_'
'] _'
'•_'
'trade_'
'remember_'
'km_'
'going_'
'schedule_'
'playing_'
'description_'
'could_'
'featured_'
'cash_'
'415_'
'extent_'
'commercial_'
'cellular_'
'asked_'
'08_'
'tips_'
'tell_'
'had_'
'battery_'
'abbrev_'
'. #	_'
'limit_'
'font_'
'exit_'
'amazon_'
'eula_'
'enabled_'
'care_'
' - (_'
'shared_'
'responsibility_'
'manager_'
'earn_'
'sports_'
'sleep_'
'reading_'
'pc_'
'important_'
'value_'
'turned_'
'she_'
'range_'
'32_'
'zoom_'
'uses_'
'trip_'
'style_'
'sim_'
'automatic_'
'common_'
'workout_'
'words_'
'systems_'
'crowd3116_'
'circle_'
'certain_'
'49_'
'que_'
'making_'
'located_'
'jesus_'
'ii_'
'terminate_'
'performance_'
'begin_'
'standard_'
'jan_'
'assistant_'
'39_'
'single_'
'class_'
'” _'
'previous_'
'match_'
'emergency_'
'generated_'
'worldwide_'
'tracking_'
'small_'
'seconds_'
'intellectual_'
'away_'
'	= 	_'
'won_'
'project_'
'mark_'
'act_'
'still_'
'possibility_'
'os_'
'los_'
'collection_'
'authorship_'
'existing_'
'lost_'
'bank_'
'statement_'
'release_'
'immediately_'
'fee_'
'upon_'
'tort_'
'basic_'
'house_'
'<_'
'َ_'
'unlimited_'
'sections_'
'sat_'
'entire_'
'yourself_'
'too_'
'recipes_'
'mon_'
'exercise_'
'space_'
'question_'
'material_'
'youtube_'
'translation_'
'ng_'
'members_'
'instagram_'
'design_'
'amount_'
'34_'
'station_'
'improve_'
'hand_'
'empty_'
'created_'
'contained_'
'community_'
'accordance_'
'solely_'
'sites_'
'run_'
'explore_'
'error_'
'doesn_'
'distance_'
': <_'
'55_'
'something_'
'radio_'
'ownership_'
'limitations_'
'come_'
'character_'
'cable_'
'balance_'
'44_'
'37_'
'star_'
'recommended_'
'negligence_'
'enjoy_'
' [_'
'further_'
'expressly_'
'bookmarks_'
'36_'
'travel_'
'rs_'
'listed_'
'due_'
'compliance_'
'along_'
'subscription_'
'reviews_'
'print_'
'links_'
'fast_'
'48_'
'advised_'
'traffic_'
'54_'
'rewards_'
'reason_'
'locate_'
'displayed_'
'stated_'
'regarding_'
'radar_'
'nothing_'
'navigate_'
'low_'
'warning_'
'types_'
'medium_'
'market_'
'children_'
'theory_'
'talk_'
'movies_'
'feed_'
'become_'
' – _'
'songs_'
'policies_'
'le_'
'kb_'
'customize_'
'cache_'
'york_'
'running_'
'pages_'
'notify_'
'looking_'
'flight_'
'desktop_'
'."_'
'water_'
'rules_'
'less_'
'leave_'
'herein_'
'reminder_'
'ideas_'
'hi_'
'hello_'
'discover_'
'wallpaper_'
'march_'
'depending_'
'contents_'
'south_'
'restrictions_'
'preferred_'
'ा_'
'modified_'
'versions_'
'selection_'
'second_'
'region_'
'optional_'
'nor_'
'issue_'
'fri_'
'credits_'
'clicking_'
'build_'
'actions_'
'school_'
'perform_'
'hotspot_'
'etc_'
'articles_'
'") _'
'sd_'
'male_'
'languages_'
'appcrawler4_'
'trump_'
'publicly_'
'instead_'
'december_'
'anyone_'
'stay_'
'someone_'
'shortcut_'
'forecast_'
'failure_'
'everything_'
'directly_'
'artist_'
'appropriate_'
'v1_'
'usa_'
'unsupported_'
'simple_'
'continuing_'
'calling_'
'appcrawler6_'
'reply_'
'mms_'
'listen_'
'future_'
'america_'
'500_'
'series_'
'safe_'
'movie_'
'duration_'
'90_'
'59_'
'tickets_'
'statistics_'
'short_'
'lower_'
'correct_'
'american_'
'respective_'
'definition_'
'preview_'
'pass_'
'na_'
'kids_'
'erase_'
'eigen2_'
'configuration_'
' • _'
'units_'
'se_'
'hit_'
'dark_'
'2015_'
'wed_'
'story_'
'signing_'
'signed_'
'put_'
'police_'
'pictures_'
'april_'
'transaction_'
'thu_'
'risk_'
'memory_'
'samsung_'
'respect_'
'registration_'
'reasonable_'
'provision_'
'medical_'
'effect_'
'del_'
'appcrawler5_'
'smartphone_'
'orders_'
'gender_'
'months_'
'manually_'
'cycle_'
'53_'
'royalty_'
'problem_'
'men_'
'goods_'
'changed_'
'websites_'
'league_'
'incorporated_'
'ibm_'
'given_'
'consent_'
'anything_'
'female_'
'fees_'
'co_'
'38_'
'te_'
'office_'
'caused_'
'answer_'
'43_'
'., _'
'recently_'
'downloading_'
'called_'
',' _'
'$ _'
'playlist_'
'hot_'
'finished_'
'fill_'
'dots_'
'clock_'
' '
'makes_'
'42_'
'training_'
'safari_'
'refresh_'
'recommend_'
'past_'
'mb_'
'52_'
'wireless_'
'tue_'
'park_'
'normal_'
'morning_'
'contributors_'
'channel_'
'breach_'
'advertising_'
'write_'
'length_'
'j_'
'grace_'
'did_'
'buttons_'
'retain_'
'ly_'
'christ_'
'bug_'
'birth_'
'41_'
'्_'
'says_'
'para_'
'looks_'
'litigation_'
', "_'
'unit_'
'separate_'
'score_'
'route_'
'none_'
'january_'
'hear_'
'earth_'
'currently_'
'connections_'
'vibrate_'
'valid_'
'thank_'
'temperature_'
'speech_'
'reader_'
'national_'
'lord_'
'load_'
'directions_'
'author_'
'activities_'
'head_'
'final_'
'choice_'
'bring_'
'albums_'
'wallet_'
'understand_'
'trademark_'
'resulting_'
'forward_'
'downloads_'
' — _'
'think_'
'qr_'
'little_'
'filters_'
'cloud_'
'bible_'
'bag_'
'termination_'
'suggestions_'
'simply_'
'recipients_'
'pack_'
'north_'
'max_'
'iii_'
'hrs_'
'documents_'
'browsing_'
'big_'
'applies_'
'searches_'
'purchases_'
'official_'
'fit_'
'70_'
'reports_'
'isn_'
'else_'
'–_'
'street_'
'crawler_'
'allows_'
'46_'
'irrevocable_'
'faq_'
'derived_'
'course_'
'. "_'
'--_'
'whom_'
'posts_'
'inclusion_'
'feel_'
'comply_'
'и_'
'shown_'
'secure_'
'repeat_'
'panel_'
'console_'
'|_'
'taken_'
'table_'
'practice_'
'perpetual_'
'intentionally_'
'india_'
'direction_'
'term_'
'linked_'
'followers_'
'extra_'
'club_'
'airport_'
'accuracy_'
'voicemail_'
'restart_'
'profits_'
'mins_'
'happy_'
'fire_'
'blocked_'
'timer_'
'obtain_'
'maximum_'
'inbox_'
'haven_'
'fix_'
'finder_'
'booking_'
'son_'
'dictionary_'
'." _'
'uninstall_'
'redistribution_'
'protection_'
'modification_'
'laura_'
'government_'
'getting_'
'deleted_'
'deal_'
'binary_'
' -_'
'png_'
'jon_'
'groups_'
'folders_'
'vibration_'
'stored_'
'pertain_'
'losses_'
'development_'
'ِ_'
'un_'
'redistributing_'
'hearing_'
'cm_'
'air_'
'acceptance_'
'really_'
'problems_'
'minute_'
'likes_'
'interface_'
'drawer_'
'connectivity_'
'confirmation_'
'appcrawler2_'
'80_'
'working_'
'translate_'
'technical_'
'sdk_'
'q_'
'needed_'
'licensors_'
'colors_'
'birthday_'
'anonymous_'
'smith_'
'provisions_'
'pressure_'
'manual_'
'forth_'
'con_'
'blood_'
'assume_'
'200_'
'", _'
'url_'
'trial_'
'tip_'
'remain_'
'progress_'
'having_'
'topics_'
'phones_'
'model_'
'gnu_'
'everyone_'
'acknowledge_'
'stream_'
'reverse_'
'remote_'
'large_'
'58_'
'51_'
'wind_'
'super_'
'playback_'
'opens_'
'longer_'
'lee_'
'starting_'
'shipping_'
'reminders_'
'entry_'
'cart_'
'believe_'
'win_'
'tone_'
'net_'
'lines_'
'jurisdiction_'
'goal_'
'friday_'
'countries_'
'cat_'
'appendix_'
'addresses_'
'’ _'
'speak_'
'similar_'
'safety_'
'redistributions_'
'force_'
'dot_'
'ar_'
'across_'
' = _'
'wall_'
'upcoming_'
'road_'
'rain_'
'payments_'
'needs_'
'emoji_'
'effects_'
'chart_'
'characters_'
'beauty_'
'2013_'
'sublicense_'
'paid_'
'marked_'
'issues_'
'gear_'
'da_'
'cross_'
'57_'
'2014_'
'trending_'
'represent_'
'recipe_'
'pause_'
'monday_'
'marks_'
'guest_'
'governing_'
'defined_'
'cell_'
'; (_'
'47_'
'purchased_'
'ny_'
'internal_'
'coupons_'
'art_'
'95_'
'75_'
'3d_'
'® _'
'unicode_'
'prepare_'
'onscreen_'
'fields_'
'father_'
'doing_'
'cost_'
'/ _'
' ("_'
'summary_'
'since_'
'sidebar_'
'recipient_'
'protect_'
'insert_'
'inability_'
'hard_'
'front_'
'flash_'
'ensure_'
'cup_'
'64_'
'zip_'
'stations_'
'programs_'
'moment_'
'intended_'
'function_'
'flights_'
'et_'
'destination_'
'deny_'
'brand_'
'56_'
'.) _'
' :_'
'tool_'
'takes_'
'stores_'
'spam_'
'providers_'
'normally_'
'installation_'
'htc_'
'gmt_'
'contains_'
'chapter_'
'union_'
'players_'
'pattern_'
'episode_'
'together_'
'tax_'
'restaurant_'
'registered_'
'passwords_'
'inside_'
'february_'
'disabled_'
'designated_'
'creating_'
'condition_'
'supported_'
'shares_'
'played_'
'parking_'
'managed_'
'las_'
'displays_'
'customers_'
'anywhere_'
'widgets_'
'tracks_'
'sunday_'
'replace_'
'partners_'
'messenger_'
'llc_'
'installing_'
'indemnify_'
'il_'
'easier_'
'forms_'
'cover_'
'carrier_'
'according_'
'true_'
'train_'
'spanish_'
'soon_'
'rating_'
'prohibited_'
'paste_'
'closed_'
'toolbar_'
'teams_'
'mp3_'
'kitchen_'
'financial_'
'department_'
'dan_'
'combination_'
'budget_'
'target_'
'sending_'
'rent_'
'proprietary_'
'prices_'
'por_'
'perfect_'
'pdf_'
'interruption_'
'focus_'
'bus_'
'bay_'
'timeline_'
'saturday_'
'microsoft_'
'interest_'
'harmless_'
'costs_'
'chicken_'
'charges_'
'caller_'
'accessories_'
'2011_'
'tracker_'
'thursday_'
'logged_'
'king_'
'engine_'
'professional_'
'port_'
'ip_'
'girl_'
'functions_'
'defend_'
'cast_'
', (_'
'" (_'
'origin_'
'exchange_'
'edge_'
'draw_'
'alone_'
'advice_'
'weekly_'
'vehicle_'
'trips_'
'round_'
'older_'
'driving_'
'constitutes_'
'allowed_'
'woman_'
'vs_'
'transactions_'
'self_'
'prevent_'
'notwithstanding_'
'icons_'
'dog_'
'database_'
'carry_'
'airlines_'
'₹_'
'virtual_'
'views_'
'root_'
'ringtones_'
'records_'
'plans_'
'opening_'
'models_'
'middle_'
'lot_'
'interval_'
'initial_'
'incurred_'
'ft_'
'french_'
'forget_'
'tutorial_'
'subscribe_'
'regulations_'
'matter_'
'manner_'
'channels_'
'chan_'
'row_'
'relevant_'
'raphael_'
'openssl_'
'html_'
'frame_'
'fashion_'
'digit_'
'dialog_'
'death_'
'coming_'
'streaming_'
'shoes_'
'relationship_'
'prayer_'
'height_'
'four_'
'earlier_'
'disturb_'
'construed_'
'attach_'
'acts_'
'tu_'
'podcasts_'
'pair_'
'methods_'
'living_'
'episodes_'
'ั_'
'unique_'
'screenshot_'
'sales_'
'oz_'
'mind_'
'injury_'
'enclosed_'
'editor_'
'east_'
'break_'
' +_'
'ups_'
'stops_'
'spot_'
'speaker_'
'sky_'
'quickly_'
'plug_'
'overview_'
'operation_'
'easily_'
'definitions_'
'canada_'
'attached_'
' · _'
'usually_'
'tabs_'
'season_'
'rest_'
'requirements_'
'require_'
'protected_'
'pre_'
'posted_'
'podcast_'
'incoming_'
'hotels_'
'gold_'
'court_'
'client_'
'chromecast_'
'base_'
'alexa_'
'~_'
'yahoo_'
'ring_'
'random_'
'percent_'
'neither_'
'malfunction_'
'external_'
'evening_'
'county_'
'corresponding_'
'brackets_'
'trusted_'
'thing_'
'rooms_'
'powered_'
'launcher_'
'garmin_'
'eye_'
'eur_'
'directory_'
'cut_'
'completed_'
'communications_'
'bound_'
'authentication_'
'typing_'
'showing_'
'saving_'
'sample_'
'reach_'
'publish_'
'pressing_'
'monthly_'
'lowhill_'
'errors_'
'count_'
'bubble_'
'2010_'
'tuesday_'
'technology_'
'starts_'
'requires_'
'platform_'
'ne_'
'ipod_'
'effective_'
'accurate_'
'•  _'
'job_'
'hidden_'
'funny_'
'facetime_'
'completely_'
'assign_'
'tour_'
'sources_'
'playful_'
'phrases_'
'logo_'
'indicated_'
'enough_'
'hope_'
'guarantee_'
'geometer_'
'drink_'
'beep_'
'australia_'
'65_'
'# _'
'क_'
'task_'
'tan_'
'study_'
'requests_'
'regular_'
'ratings_'
'hd_'
'entertainment_'
'developed_'
'answers_'
'    _'
'을_'
'wherever_'
'waiting_'
'specified_'
'recorded_'
'presentation_'
'operating_'
'norwegian_'
'known_'
'index_'
'indemnity_'
'consistent_'
'cases_'
'2004_'
'*  _'
' ‘_'
'west_'
'university_'
'signature_'
'seen_'
'roaming_'
'removed_'
'nfl_'
'faster_'
'controlled_'
'configure_'
'attempt_'
' © _'
'© _'
'warrant_'
'ticket_'
'submission_'
'stars_'
'stage_'
'several_'
'session_'
'sec_'
'sa_'
'remind_'
'prompts_'
'playlists_'
'outside_'
'minimum_'
'met_'
'identification_'
'goodwill_'
'editorial_'
'chats_'
'chance_'
'bit_'
'addition_'
'zone_'
'verse_'
'savings_'
'present_'
'physical_'
'parts_'
'ltd_'
'holders_'
'fresh_'
'demo_'
'cars_'
'breakfast_'
'average_'
'availability_'
'analytics_'
'adding_'
'ْ_'
'ways_'
'violation_'
'useful_'
'stats_'
'shortcuts_'
'resources_'
'released_'
'protocol_'
'outstanding_'
'nice_'
'fully_'
'flickr_'
'explicitly_'
'.._'
'trying_'
'stickers_'
'redeem_'
'pregnancy_'
'package_'
'mph_'
'loading_'
'governed_'
'español_'
'door_'
'coupon_'
'comes_'
'challenge_'
'ben_'
'// _'
'wrong_'
'tag_'
'spirit_'
'restaurants_'
'rates_'
'proceed_'
'personally_'
'nature_'
'major_'
'infringed_'
'galaxy_'
'fixes_'
'eyes_'
'dial_'
'appearance_'
'+ _'
'ُ_'
'viewing_'
'sfo_'
'rotate_'
'representatives_'
'providing_'
'interfaces_'
'informational_'
'improving_'
'fifty_'
'factory_'
'emails_'
'1h_'
'र_'
'trash_'
'stating_'
'prominent_'
'moon_'
'monitor_'
'label_'
'kingdom_'
'interests_'
'institute_'
'increase_'
'gives_'
'flood_'
'favourites_'
'christmas_'
'beginner_'
'airplane_'
'additions_'
'ि_'
'wake_'
'tion_'
'substitute_'
'stock_'
'sets_'
'searching_'
'remaining_'
'readable_'
'ones_'
'microphone_'
'lte_'
'iconcierge_'
'hr_'
'football_'
'emulated_'
'command_'
'appcrawler1_'
'annotations_'
' - $_'
'—_'
'th_'
'suggestion_'
'square_'
'recovery_'
'notified_'
'licensable_'
'lawsuit_'
'land_'
'identify_'
'feet_'
'ever_'
'contain_'
'compose_'
'came_'
'airpods_'
': (_'
'2012_'
'・_'
'walk_'
'texas_'
'strict_'
'severe_'
'sensor_'
'risks_'
'prompt_'
'partner_'
'minecraft_'
'maybe_'
'mailing_'
'lose_'
'instant_'
'hourly_'
'holy_'
'hey_'
'far_'
'exemplary_'
'district_'
'didn_'
'diary_'
'deep_'
'banking_'
'artists_'
'alarms_'
'): _'
'");_'
'various_'
'uk_'
'taking_'
'spotify_'
'relating_'
'personalized_'
'miss_'
'mechanical_'
'higher_'
'finally_'
'federal_'
'entities_'
'developers_'
'capture_'
'bookmark_'
'appcrawler3_'
'acting_'
'symbol_'
'sponsored_'
'skills_'
'shot_'
'secret_'
'science_'
'quiz_'
'naver_'
'matches_'
'marketing_'
'linkedin_'
'led_'
'highlights_'
'helps_'
'hardware_'
'executed_'
'employees_'
'compiled_'
'codes_'
'chinese_'
'ch_'
'ave_'
'affiliates_'
'weeks_'
'visible_'
'tags_'
'scanner_'
'likely_'
'lets_'
'javascript_'
'domain_'
'coins_'
'bind_'
'authors_'
'م_'
'young_'
'viewed_'
'unauthorized_'
'tethering_'
'suggested_'
'sold_'
'scores_'
'santa_'
'reveal_'
'president_'
'negligent_'
'insurance_'
'exercising_'
'endorse_'
'crop_'
'collected_'
'62_'
'ी_'
'}_'
'wear_'
'symptoms_'
'rightholder_'
'pull_'
'properties_'
'portion_'
'obtained_'
'modifying_'
'mod_'
'million_'
'limits_'
'kg_'
'holder_'
'healthy_'
'designed_'
'companies_'
'blog_'
'1989_'
'whatsoever_'
'wednesday_'
'v2_'
'truth_'
'tomorrow_'
'su_'
'receiving_'
'primary_'
'path_'
'owned_'
'mexico_'
'meeting_'
'ma_'
'jobs_'
'ia_'
'expires_'
'disconnect_'
'cal_'
'... _'
' >_'
'ี_'
'द_'
'stoppage_'
'scale_'
'rm_'
'publicdomainpictures_'
'printed_'
'merchant_'
'layout_'
'knowledge_'
'joe_'
'fm_'
'fan_'
'economy_'
'detail_'
'describing_'
'cool_'
'controller_'
'comics_'
'checkout_'
'airdrop_'
'adult_'
'%) _'
'의_'
'turns_'
'subsequently_'
'soft_'
'skype_'
'recover_'
'proxy_'
'profiles_'
'pocket_'
'levels_'
'lbs_'
'identity_'
'half_'
'exercises_'
'ers_'
'entered_'
'eating_'
'discussing_'
'diet_'
'determining_'
'chicago_'
'built_'
'alleging_'
'africa_'
'89_'
'63_'
'‎_'
'vertical_'
'transformation_'
'themes_'
'sea_'
'rock_'
'revisions_'
'recommendations_'
'quotes_'
'organization_'
'necessarily_'
'merely_'
'logs_'
'hz_'
'discretion_'
'debit_'
'corporation_'
'complies_'
'church_'
'calculator_'
'beneficial_'
'barcode_'
'avoid_'
'97_'
', “_'
'뀂_'
'ن_'
'values_'
'six_'
'russian_'
'promotions_'
'often_'
'merge_'
'labs_'
'invitation_'
'granting_'
'frequency_'
'expected_'
'decorating_'
'cake_'
'board_'
'bill_'
'beginning_'
'authority_'
'asserted_'
'ability_'
'88_'
'300_'
'้_'
'promote_'
'ons_'
'measurement_'
'japanese_'
'ie_'
'hair_'
'german_'
'fuel_'
'fingers_'
'filed_'
'conversions_'
'conspicuously_'
'compatible_'
'chord_'
'agents_'
'61_'
'.)_'
' @_'
'ا_'
'split_'
'romance_'
'paypal_'
'missing_'
'minor_'
'letter_'
'grossly_'
'grey_'
'departure_'
'conversations_'
'alongside_'
'\\_'
'". _'
'washington_'
'verbal_'
'town_'
'therefore_'
'sticker_'
'sometimes_'
'selecting_'
'reproducing_'
'previously_'
'posting_'
'picks_'
'paris_'
'nfc_'
'mother_'
'lights_'
'italian_'
'ic_'
'held_'
'gray_'
'gas_'
'garden_'
'français_'
'dr_'
'doctor_'
'dashboard_'
'changing_'
'addendum_'
'91_'
'011000000110_'
'*    _'
'', _'
'이_'
'₱ _'
'न_'
'supersede_'
'suite_'
'studio_'
'siri_'
'separable_'
'reference_'
'orientation_'
'measure_'
'meal_'
'loop_'
'les_'
'james_'
'itself_'
'finding_'
'dream_'
'disclaims_'
'david_'
'counterclaim_'
'classic_'
'champaign_'
'breaking_'
'beta_'
'beautiful_'
'areas_'
'admin_'
'accessed_'
'ac_'
'85_'
'69_'
'에_'
'trains_'
'thumbnail_'
'texts_'
'shutter_'
'shape_'
'satellite_'
'replaced_'
'procurement_'
'multi_'
'locked_'
'li_'
'interested_'
'foundation_'
'engineer_'
'der_'
'deliberate_'
'customary_'
'copying_'
'coffee_'
'calories_'
'border_'
'appropriateness_'
'almost_'
'activation_'
'93_'
' " _'
'ह_'
'   _'
'river_'
'nba_'
'illinois_'
'identifiable_'
'europe_'
'elaborations_'
'drug_'
'di_'
'credentials_'
'contributory_'
'brightness_'
'boy_'
'among_'
'agrees_'
'advertisements_'
'800_'
'66_'
'2009_'
'tray_'
'tests_'
'terminal_'
'taxes_'
'spring_'
'saw_'
'research_'
'orange_'
'hangouts_'
'dress_'
'cute_'
'creation_'
'china_'
'calendars_'
'bed_'
'arabic_'
'alter_'
'。_'
'yang_'
'worry_'
'whose_'
'styles_'
'stuff_'
'servers_'
'response_'
'portrait_'
'pixel_'
'piece_'
'personalize_'
'kevin_'
'holiday_'
'foregoing_'
'five_'
'film_'
'fall_'
'expenses_'
'expense_'
'dual_'
'disney_'
'compare_'
'bad_'
'animals_'
'actual_'
' -> _'
'를_'
'े_'
'स_'
'workouts_'
'ui_'
'trust_'
'sorry_'
'signup_'
'selling_'
'resume_'
'plays_'
'moving_'
'master_'
'listing_'
'lead_'
'graph_'
'global_'
'genesis_'
'explorer_'
'expand_'
'exclusion_'
'equipment_'
'ebay_'
'eat_'
'determine_'
'checked_'
'84_'
'79_'
'77_'
'76_'
'72_'
'wallpapers_'
'storm_'
'sin_'
'restricted_'
'reserves_'
'published_'
'permit_'
'nov_'
'learning_'
'horizontal_'
'gain_'
'fingerprint_'
'ends_'
'education_'
'described_'
'delhi_'
'crash_'
'cookie_'
'commands_'
'combined_'
'brands_'
'bonus_'
'atlanta_'
'123_'
'101_'
'("_'
'ิ_'
'ه_'
'yellow_'
'transit_'
'shake_'
'rise_'
'persons_'
'paragraph_'
'mkl_'
'miscellaneous_'
'magic_'
'lb_'
'itriage_'
'editing_'
'disclaimed_'
'die_'
'detect_'
'delivered_'
'deactivate_'
'cdt_'
'broadcast_'
'avg_'
'assistance_'
'ahead_'
'67_'
'250_'
'yo_'
'ya_'
'ts_'
'trading_'
'topic_'
'resend_'
'preference_'
'libraries_'
'idea_'
'hands_'
'gifts_'
'early_'
'duo_'
'detailed_'
'couple_'
'comic_'
'cc0_'
'caynax_'
'benefits_'
'130_'
'000000000000_'
' ?_'
'่_'
'َ _'
'waters_'
'ted_'
'tech_'
'tasks_'
'sparselu_'
'slow_'
'secondary_'
'refund_'
'referred_'
'ra_'
'projects_'
'precipitation_'
'parents_'
'pain_'
'onto_'
'moves_'
'mood_'
'moments_'
'mid_'
'lo_'
'korean_'
'follows_'
'estimated_'
'entitled_'
'entering_'
'edition_'
'confidential_'
'ce_'
'carefully_'
'bugs_'
'bathroom_'
'aren_'
'agreements_'
'advance_'
'.” _'
'. '
'น_'
'visual_'
'twitcasting_'
'trouble_'
'sport_'
'specifically_'
'ride_'
'restriction_'
'reboot_'
'pairing_'
'ness_'
'mix_'
'memories_'
'illegal_'
'humidity_'
'giving_'
'ga_'
'driver_'
'convey_'
'cities_'
'charts_'
'calculate_'
'bars_'
'bandwidth_'
'78_'
'"), _'
'수_'
'“_'
'ة_'
'vision_'
'transmission_'
'suggest_'
'subscriptions_'
'relax_'
'politics_'
'newest_'
'natural_'
'mo_'
'listening_'
'lesson_'
'innerhtml_'
'indicate_'
'grid_'
'functionality_'
'fox_'
'forwarding_'
'expert_'
'em_'
'electronics_'
'dead_'
'db_'
'collections_'
'ción_'
'attack_'
'archive_'
'animation_'
'alcohol_'
'affect_'
'::_'
'86_'
'3g_'
'150_'
'. [_'
'™ _'
'unlocked_'
'uber_'
'thread_'
'sweet_'
'supports_'
'sunset_'
'reserve_'
'regardless_'
'refine_'
'recorder_'
'pizza_'
'offered_'
'nest_'
'logging_'
'lease_'
'introduction_'
'identifying_'
'goals_'
'forum_'
'favourite_'
'energy_'
'discount_'
'cloudy_'
'bell_'
'asking_'
'ap_'
'accessory_'
'94101_'
'92_'
'82_'
'2000_'
'1000_'
'%)_'
'é_'
'weekend_'
'wants_'
'vocabulary_'
'turning_'
'syncing_'
'skin_'
'sex_'
'saying_'
'portions_'
'paper_'
'ms_'
'mrroccoteam_'
'larger_'
'japan_'
'heaven_'
'headset_'
'greetings_'
'goes_'
'france_'
'fitbit_'
'fat_'
'dropbox_'
'correction_'
'college_'
'checkbox_'
'awesome_'
'attention_'
'airports_'
'adventure_'
'98_'
'"._'
'는_'
'”) _'
'ultimate_'
'talking_'
'republic_'
'reduce_'
'oil_'
'officers_'
'mp4_'
'mission_'
'mile_'
'lg_'
'kid_'
'intl_'
'improved_'
'gesture_'
'disassemble_'
'delay_'
'clips_'
'choices_'
'blank_'
'alternative_'
': $_'
'yyyy_'
'walking_'
'student_'
'signal_'
'returns_'
'pts_'
'patient_'
'motion_'
'membership_'
'maintenance_'
'leather_'
'late_'
'je_'
'israel_'
'enforce_'
'dollar_'
'disclosure_'
'decompile_'
'decline_'
'courts_'
'cold_'
'cheese_'
'barcelona_'
'band_'
'authorization_'
'87_'
'한_'
'ा _'
'ي_'
'whenever_'
'vote_'
'therein_'
'suppliers_'
'staff_'
'speakers_'
'silent_'
'september_'
'sentence_'
'rename_'
'prefer_'
'letters_'
'gpl_'
'gdax_'
'forums_'
'fail_'
'dates_'
'culture_'
'containing_'
'chosen_'
'born_'
'ble_'
'begins_'
'beats_'
'beach_'
'arizona_'
'ah_'
'agent_'
'य_'
'worth_'
'vip_'
'universal_'
'telephone_'
'si_'
'refer_'
'processing_'
'prime_'
'permanently_'
'packs_'
'nt_'
'madrid_'
'keys_'
'issued_'
'im_'
'highlight_'
'genres_'
'funds_'
'florida_'
'entries_'
'conversion_'
'checkmark_'
'charged_'
'96_'
'"). _'
'ल_'
'َّ_'
'а_'
'ó_'
'whatever_'
'vpn_'
'ver_'
'und_'
'unable_'
'took_'
'though_'
'thinking_'
'ta_'
'syntax_'
'slice_'
'saver_'
'representations_'
'representation_'
'regulation_'
'oh_'
'necklace_'
'logout_'
'lite_'
'journey_'
'income_'
'holding_'
'germany_'
'frequently_'
'followed_'
'fc_'
'dispute_'
'connecting_'
'bass_'
'argentina_'
'archives_'
'anytime_'
'81_'
') (_'
'ट_'
'ل_'
'р_'
'yesterday_'
'western_'
'waiver_'
'uncheck_'
'sunrise_'
'statutory_'
'scanning_'
'rule_'
'readings_'
'race_'
'proceeding_'
'mom_'
'milk_'
'mary_'
'licence_'
'java_'
'indian_'
'improvements_'
'imessage_'
'geometry_'
'gb_'
'firefox_'
'executable_'
'examples_'
'earthquake_'
'dolphin_'
'demand_'
'copied_'
'collectively_'
'choosing_'
'building_'
'az_'
'applied_'
'apartment_'
'analysis_'
'afghanistan_'
'94_'
' !_'
'이'
'ी _'
'म_'
'um_'
'straight_'
'routes_'
'receipt_'
'possession_'
'phrase_'
'mute_'
'mm_'
'missed_'
'maring_'
'ka_'
'graphics_'
'garageband_'
'factor_'
'dismiss_'
'detection_'
'conference_'
'concerning_'
'compass_'
'comedy_'
'bread_'
'boxes_'
'billing_'
'beyond_'
'behavior_'
'atm_'
'68_'
' )_'
'wars_'
'war_'
'viewer_'
'vehicles_'
'twice_'
'successful_'
'screens_'
'scene_'
'properly_'
'placed_'
'phantomalert_'
'output_'
'opt_'
'objects_'
'november_'
'mit_'
'meals_'
'loan_'
'lightning_'
'invalid_'
'ifunny_'
'fruit_'
'fans_'
'faith_'
'enables_'
'diego_'
'deemed_'
'consumer_'
'cancellation_'
'arrives_'
'arrive_'
'amazing_'
'accepted_'
'579_'
'1st_'
'，_'
'の'
'ो_'
'®_'
'synchronization_'
'sub_'
'specify_'
'sit_'
'representative_'
'purple_'
'opened_'
'mike_'
'lives_'
'kong_'
'human_'
'horoscope_'
'friendly_'
'fare_'
'division_'
'disclose_'
'clothing_'
'cleverbot_'
'circumstances_'
'catch_'
'campaign_'
'branch_'
'boost_'
'bid_'
'becomes_'
'actually_'
'accessing_'
'] [_'
'':_'
'!)  _'
'、_'
'ye_'
'wave_'
'watching_'
'una_'
'stand_'
'reddit_'
'rated_'
'interactive_'
'instrument_'
'hong_'
'hero_'
'heading_'
'guests_'
'ground_'
'govern_'
'golden_'
'glass_'
'gestures_'
'flag_'
'fine_'
'false_'
'facilities_'
'espn_'
'dinner_'
'courses_'
'context_'
'column_'
'boilerplate_'
'avenue_'
'alternatively_'
'83_'
'400_'
' "[]"_'
'в_'
'{_'
'verses_'
'verified_'
'urbana_'
'unread_'
'tweet_'
'told_'
'successfully_'
'roll_'
'portuguese_'
'pa_'
'oct_'
'mailbox_'
'machine_'
'keypad_'
'juice_'
'hip_'
'guys_'
'gif_'
'fish_'
'est_'
'environment_'
'draft_'
'dos_'
'dish_'
'creative_'
'completeness_'
'clean_'
'ceiling_'
'backups_'
'api_'
'125_'
', -_'
'( _'
' (“_'
'£_'
'¡_'
'went_'
'van_'
'typically_'
'tor_'
'tones_'
'thoughts_'
'suspend_'
'steam_'
'southern_'
'rom_'
'releases_'
'pet_'
'parent_'
'm'
'london_'
'locator_'
'landscape_'
'kit_'
'island_'
'intensity_'
'indicates_'
'happens_'
'furniture_'
'extras_'
'eigen2support_'
'drawing_'
'drama_'
'detected_'
'countdown_'
'chocolate_'
'brought_'
'boot_'
'bookings_'
'blocking_'
'ball_'
'administrator_'
'1998_'
'.. _'
' /_'
' -- _'
' *_'
' ) _'
'์_'
'warnings_'
'wa_'
'viber_'
'undo_'
'thy_'
'string_'
'sensitivity_'
'scheduled_'
'requested_'
'regional_'
'regard_'
'reasons_'
'raise_'
'pan_'
'paired_'
'october_'
'ns_'
'ment_'
'math_'
'loved_'
'ingredients_'
'ice_'
'homes_'
'hindi_'
'fr_'
'feeling_'
'directors_'
'decide_'
'constitute_'
'components_'
'champions_'
'boston_'
'birds_'
'bigoven_'
'backed_'
'audiobooks_'
'appcrawler3116_'
'aid_'
'74_'
'2018_'
'120_'
'त_'
'و_'
'à_'
'verb_'
'vary_'
'va_'
'testing_'
'supporting_'
'solution_'
'routine_'
'rio_'
'repair_'
'promo_'
'priority_'
'phase_'
'pace_'
'oral_'
'operate_'
'occurred_'
'obligation_'
'macleod_'
'host_'
'highest_'
'handle_'
'h'
'golf_'
'girls_'
'forever_'
'fl_'
'deutsch_'
'cream_'
'consult_'
'consider_'
'chapters_'
'cached_'
'bullet_'
'bills_'
'behind_'
'arrival_'
'approved_'
'airplay_'
'afternoon_'
'ab_'
'140_'
'- #_'
'ر_'
'transferable_'
'swiping_'
'stress_'
'snow_'
'reward_'
'replies_'
'remains_'
'presented_'
'presence_'
'pitch_'
'outdoor_'
'nearest_'
'modern_'
'medication_'
'matching_'
'manchester_'
'listings_'
'kinds_'
'johnson_'
'italiano_'
'indonesia_'
'hospital_'
'healthcare_'
'foods_'
'floating_'
'droid_'
'deliver_'
'correctly_'
'como_'
'clipboard_'
'centre_'
'avatar_'
'amber_'
'alaska_'
'agreeing_'
'agencies_'
'abs_'
': "_'
'2007_'
'110_'
'を'
'да_'
'wide_'
'tonight_'
'strong_'
'startup_'
'sparsecore_'
'rotation_'
'retrieve_'
'printer_'
'pleco_'
'owners_'
'outgoing_'
'okay_'
'mumbai_'
'michael_'
'metro_'
'metric_'
'markets_'
'maker_'
'lineups_'
'iv_'
'ipv4_'
'io_'
'identifiers_'
'headphones_'
'guided_'
'fullscreen_'
'faqs_'
'dict_'
'daniel_'
'copyrights_'
'charging_'
'causes_'
'austria_'
'alt_'
'albania_'
'71_'
'155_'
'):_'
'的'
'ِ _'
'yds_'
'xbox_'
'terminated_'
'ten_'
'talkback_'
'summer_'
'sender_'
'remedies_'
'rd_'
'quantity_'
'production_'
'powerful_'
'pink_'
'passes_'
'opinion_'
'noninfringement_'
'moved_'
'meaning_'
'mask_'
'ion_'
'grammar_'
'genre_'
'generate_'
'fills_'
'exception_'
'eng_'
'ds_'
'dry_'
'drinks_'
'decision_'
'dad_'
'cout_'
'considered_'
'communities_'
'colorado_'
'clip_'
'checking_'
'catalog_'
'breast_'
'au_'
'angry_'
'although_'
',  _'
' ..._'
'서비스_'
'ร_'
'े _'
'га_'
'tower_'
'toward_'
'talks_'
'rtt_'
'ro_'
'relationships_'
'profit_'
'pregnant_'
'ovulation_'
'moses_'
'lift_'
'lessons_'
'lens_'
'juan_'
'intermediate_'
'incorrect_'
'header_'
'grocery_'
'flat_'
'fertility_'
'extension_'
'discounts_'
'convert_'
'beat_'
'authorize_'
'activated_'
'2g_'
'00pm_'
' <_'
' . (_'
'합니다_'
'ди_'
'â_'
'ty_'
'turkey_'
'tree_'
'ton_'
'throughout_'
'teacher_'
'synced_'
'supplies_'
'spreadsheet_'
'spend_'
'solutions_'
'soccer_'
'signs_'
'shirt_'
'sauce_'
'quest_'
'proper_'
'pricing_'
'portal_'
'performed_'
'peace_'
'pe_'
'passengers_'
'newsletter_'
'native_'
'nasa_'
'named_'
'muscle_'
'menstrual_'
'islands_'
'injuries_'
'impact_'
'grow_'
'gets_'
'flashlight_'
'ex_'
'eric_'
'doctors_'
'csv_'
'counter_'
'conflict_'
'buying_'
'bird_'
'approval_'
'algeria_'
'agency_'
'adults_'
'486_'
'yours_'
'void_'
'visitors_'
'unenforceable_'
'unblock_'
'thought_'
'technologies_'
'shooting_'
'sheriff_'
'seats_'
'ry_'
'reservation_'
'rental_'
'remedy_'
'recents_'
'rather_'
'quiet_'
'procedures_'
'premier_'
'pray_'
'popup_'
'pixabay_'
'phoenix_'
'overall_'
'oakland_'
'noise_'
'meter_'
'maintain_'
'lucky_'
'listeners_'
'leg_'
'heavy_'
'heavenly_'
'floor_'
'exactly_'
'estate_'
'especially_'
'endl_'
'dutch_'
'docs_'
'directed_'
'defense_'
'couldn_'
'chelsea_'
'capítulo_'
'boots_'
'blocks_'
'bags_'
'aware_'
'amp_'
'achieve_'
': '_'
'73_'
'227_'
'1995_'
' @ _'
' ). _'
'understanding_'
'tim_'
'strings_'
'spiritual_'
'serving_'
'sdcard_'
'reliability_'
'practices_'
'offering_'
'odosoft_'
'más_'
'mirror_'
'macos_'
'legs_'
'legend_'
'laptop_'
'ist_'
'ins_'
'independent_'
'hunting_'
'holidays_'
'ge_'
'gaming_'
'filled_'
'expiration_'
'eight_'
'destroy_'
'depart_'
'defaults_'
'coach_'
'checker_'
'benefit_'
'ba_'
'assist_'
'annual_'
'altitude_'
'2008_'
' > [ _'
'   _'
'경우_'
'가_'
'™_'
'العربية_'
'wine_'
'wheel_'
'warm_'
'upgrades_'
'transmit_'
'ti_'
'tes_'
'symbols_'
'subsidiaries_'
'sessions_'
'sense_'
'seed_'
'roboticode_'
'respond_'
'reporting_'
'relation_'
'quit_'
'positive_'
'opportunity_'
'occur_'
'movement_'
'mostly_'
'mg_'
'md_'
'markup_'
'lemon_'
'legislation_'
'ki_'
'ke_'
'jurisdictions_'
'investment_'
'indicator_'
'imported_'
'housing_'
'ha_'
'guides_'
'feels_'
'fantasy_'
'excellent_'
'exact_'
'ehub_'
'drugs_'
'donate_'
'dialer_'
'dealings_'
'convenience_'
'congratulations_'
'confidentiality_'
'compatibility_'
'communicate_'
'clouds_'
'classes_'
'bbc_'
'asia_'
'aplikasi_'
'affected_'
'aaron_'
'169_'
'128_'
' ( _'
'및_'
'ज_'
'м_'
'×_'
'yards_'
'wanted_'
'uninterrupted_'
'ultra_'
'treatment_'
'silver_'
'seller_'
'screenshots_'
'retry_'
'resolution_'
'resize_'
'reject_'
'pursuant_'
'polish_'
'pending_'
'operators_'
'oculus_'
'obtaining_'
'neck_'
'mini_'
'meditation_'
'lowest_'
'june_'
'jump_'
'indirectly_'
'himself_'
'handling_'
'flip_'
'feeds_'
'failed_'
'expressed_'
'disputes_'
'depends_'
'den_'
'darkness_'
'ct_'
'clause_'
'cameras_'
'businesses_'
'basketball_'
'australian_'
'aug_'
'arsenal_'
'anime_'
'administration_'
'2h_'
'102_'
'(+_'
'']_'
' = ['_'
'_'
'प_'
'ك_'
'ت_'
'virus_'
'tried_'
'transferred_'
'thousands_'
'surveys_'
'supplied_'
'sugar_'
'standings_'
'soul_'
'shamu_'
'selfie_'
'seek_'
'seattle_'
'scope_'
'runs_'
'restrict_'
'recordings_'
'praise_'
'potential_'
'pill_'
'participants_'
'officer_'
'occurs_'
'nike_'
'mental_'
'measures_'
'matters_'
'magazine_'
'labeled_'
'jewelry_'
'jazz_'
'ine_'
'incompetech_'
'hud_'
'heat_'
'happen_'
'guitar_'
'furnished_'
'faces_'
'everyday_'
'epoch_'
'ending_'
'eligible_'
'ear_'
'dining_'
'depth_'
'dc_'
'cube_'
'combat_'
'challenges_'
'cats_'
'bbm_'
'attachments_'
'apk_'
'aosp_'
'anxiety_'
'animations_'
'angeles_'
'abuse_'
'aa_'
'122_'
'1'
' ] > _'
'za_'
'variety_'
'var_'
'tions_'
'survive_'
'students_'
'strength_'
'stolen_'
'ssl_'
'situation_'
'sheets_'
'scrolling_'
'salad_'
'revised_'
'represents_'
'recognize_'
'rail_'
'quot_'
'quite_'
'programming_'
'php_'
'ous_'
'ou_'
'ongoing_'
'ni_'
'mountain_'
'mixed_'
'mentioned_'
'medicine_'
'magazines_'
'labor_'
'ity_'
'heard_'
'gopro_'
'former_'
'entirely_'
'effort_'
'duty_'
'cups_'
'cpr_'
'cook_'
'commute_'
'bạn_'
'beef_'
'banner_'
'august_'
'attractions_'
'attachment_'
'arts_'
'andorra_'
'360_'
'127_'
'108_'
'00am_'
'000001100000_'
'!!_'
'！_'
'로_'
'に'
'ว_'
'zero_'
'winter_'
'webpage_'
'v'
'ur_'
'uploaded_'
'updating_'
'txt_'
'translator_'
'titles_'
'texting_'
'structure_'
'stocks_'
'spread_'
'snap_'
'sides_'
'sensors_'
'reported_'
'regions_'
'pt_'
'prizes_'
'pokemon_'
'pics_'
'onboard_'
'mods_'
'mlb_'
'mine_'
'lu_'
'locally_'
'lie_'
'knot_'
'journal_'
'instantly_'
'inches_'
'imap_'
'heavens_'
'guidance_'
'growth_'
'genius_'
'freedom_'
'flow_'
'fight_'
'fax_'
'falls_'
'england_'
'enforcement_'
'eigenvalues_'
'deletion_'
'defects_'
'cómo_'
'corporate_'
'corp_'
'confirmed_'
'civil_'
'chase_'
'carolina_'
'callers_'
'bp_'
'bottle_'
'blvd_'
'ay_'
'assigned_'
'animal_'
'accompanying_'
':  _'
'8611_'
'3rd_'
'121_'
'.'
'기'
'€¢  _'
'ก_'
'watchlist_'
'visited_'
'unto_'
'transportation_'
'towards_'
'theater_'
'ter_'
'temporarily_'
'switcher_'
'strip_'
'skill_'
'seven_'
'serve_'
'samoa_'
'redistribute_'
'receiver_'
'receipts_'
'ps_'
'probably_'
'pointer_'
'phx_'
'pg_'
'passed_'
'painting_'
'mozilla_'
'mouth_'
'mileage_'
'measurements_'
'lesser_'
'launched_'
'l'
'keyboards_'
'jones_'
'invoice_'
'interesting_'
'indemnification_'
'ies_'
'homepage_'
'hits_'
'harry_'
'happened_'
'generally_'
'ford_'
'facts_'
'exposure_'
'european_'
'essential_'
'enhance_'
'egg_'
'earned_'
'du_'
'dios_'
'dim_'
'des_'
'deposit_'
'debugging_'
'cruise_'
'capacity_'
'brain_'
'booster_'
'bonfire_'
'bomb_'
'bmi_'
'binding_'
'bbi_'
'allstate_'
'aids_'
'ai_'
'2005_'
'13459890909_'
'105_'
' %_'
'있습니다_'
'₹ _'
'ท_'
'ं_'
'ب_'
'е_'
'á_'
'¿_'
'yelp_'
'traditional_'
'thou_'
't'
'survey_'
'starred_'
'slideshow_'
'sleeping_'
'showers_'
'shoulder_'
'serious_'
'seo_'
'seat_'
'richard_'
'retail_'
'rapid_'
'promptly_'
'preset_'
'pinch_'
'pets_'
'openvpn_'
'nutrition_'
'nickname_'
'mass_'
'loops_'
'liked_'
'lighting_'
'korea_'
'intel_'
'inch_'
'improvement_'
'hint_'
'headlines_'
'guardian_'
'greater_'
'gifs_'
'gate_'
'fair_'
'exported_'
'exclusions_'
'diamond_'
'dallas_'
'cryptsoft_'
'crazy_'
'craft_'
'contribute_'
'computers_'
'colored_'
'chose_'
'career_'
'butter_'
'blacklist_'
'battle_'
'basics_'
'automation_'
'authenticate_'
'appointment_'
'adapter_'
'acquired_'
'365_'
'109_'
'104_'
')(_'
' …_'
'다_'
'•  _'
'wood_'
'wedding_'
'visibility_'
'util_'
'traveler_'
'translations_'
'till_'
'tablets_'
'subscriber_'
'strictly_'
'stadium_'
'snooze_'
'snapchat_'
'singapore_'
'sing_'
'significant_'
'ship_'
'separately_'
'senior_'
'sears_'
'scripts_'
'returned_'
'reservations_'
'replacement_'
'recognition_'
'percentage_'
'partial_'
'pane_'
'pad_'
'pacific_'
'operator_'
'operations_'
'omissions_'
'myself_'
'mirroring_'
'manufacturer_'
'leader_'
'knots_'
'kan_'
'july_'
'ini_'
'individuals_'
'hp_'
'houston_'
'hill_'
'hereunder_'
'hamburger_'
'georgia_'
'finance_'
'fails_'
'factors_'
'equal_'
'efforts_'
'echo_'
'disease_'
'diagnostic_'
'devil_'
'develop_'
'deleting_'
'def_'
'coverage_'
'cookbook_'
'colombia_'
'cleveland_'
'christian_'
'checks_'
'buyer_'
'brief_'
'bridge_'
'breathing_'
'blas_'
'bath_'
'b'
'authorities_'
'angola_'
'acquisition_'
'accessible_'
'1999_'
') - _'
'	_'
'보'
'я_'
'бор_'
'ón_'
'voiceover_'
'virgin_'
'violate_'
'tornado_'
'template_'
'tells_'
'teach_'
'sunny_'
'suit_'
'substantial_'
'stick_'
'statue_'
'slides_'
'sf_'
'seeking_'
'russia_'
'rich_'
'relief_'
'regularly_'
'quizzes_'
'purchasing_'
'printing_'
'previews_'
'pretty_'
'prep_'
'platforms_'
'planning_'
'parental_'
'muscles_'
'misuse_'
'military_'
'lots_'
'lgpl_'
'killed_'
'jun_'
'joining_'
'initiate_'
'informed_'
'hunter_'
'huge_'
'highway_'
'gone_'
'ghost_'
'gave_'
'foreign_'
'firmware_'
'feeding_'
'fa_'
'extensions_'
'evil_'
'eu_'
'estimate_'
'enjoyment_'
'encourage_'
'eclipse_'
'directories_'
'deluxe_'
'das_'
'cs_'
'cooking_'
'conveying_'
'continues_'
'complex_'
'closer_'
'canvas_'
'beneath_'
'bend_'
'ban_'
'attorneys_'
'ation_'
'atau_'
'arise_'
'arena_'
'arbitration_'
'allah_'
'aed_'
'5h_'
'4k_'
'2006_'
'은_'
'고_'
'ส_'
'yu_'
'wishes_'
'weapon_'
'waves_'
'valley_'
'truck_'
'transfers_'
'ting_'
'tin_'
'thee_'
'talent_'
'ss_'
'spoken_'
'savior_'
'samuel_'
'role_'
'recharge_'
'raw_'
'promotion_'
'professionals_'
'precise_'
'pencil_'
'pen_'
'pasta_'
'parameters_'
'paint_'
'organized_'
'noticias_'
'networking_'
'locker_'
'lifetime_'
'licensing_'
'lend_'
'keeping_'
'jose_'
'jeramy_'
'italy_'
'ipv6_'
'intro_'
'illinoisnet_'
'identified_'
'household_'
'hearts_'
'harmful_'
'harm_'
'gathered_'
'forest_'
'fly_'
'fade_'
'fact_'
'expanse_'
'exclusively_'
'ears_'
'dropdown_'
'dew_'
'designs_'
'demos_'
'd8_'
'cricket_'
'continuous_'
'consideration_'
'conduct_'
'cancer_'
'br_'
'bmw_'
'bears_'
'alabama_'
'aj_'
'4g_'
'2nd_'
'260_'
'1d_'
'195_'
' |_'
' [ _'
' :)_'
' --- _'
'할_'
'당사는_'
'★ _'
'च_'
'من_'
'د_'
'wishlist_'
'wife_'
'vr_'
'vegetables_'
'validity_'
'untuk_'
'tty_'
'transmitted_'
'toolkit_'
'thumbnails_'
'supply_'
'standing_'
'solid_'
'seeing_'
'securely_'
'secrets_'
'sar_'
'reorder_'
'removal_'
'religion_'
'produce_'
'outlook_'
'operated_'
'nights_'
'neighborhood_'
'nearly_'
'nd_'
'matt_'
'lunch_'
'liga_'
'leaving_'
'k'
'joined_'
'jet_'
'initializing_'
'ings_'
'imei_'
'highly_'
'ham_'
'extreme_'
'excluded_'
'erased_'
'donald_'
'discussions_'
'disclaimers_'
'difference_'
'diagnosis_'
'desire_'
'describe_'
'denver_'
'criteria_'
'creator_'
'colour_'
'chords_'
'chile_'
'certificate_'
'cease_'
'capital_'
'calm_'
'calculation_'
'brazil_'
'biblia_'
'appointments_'
'americanista_'
'ak_'
'ace_'
'`_'
'< _'
'94102_'
'180_'
'174_'
'145_'
'115_'
'05p_'
'-- _'
',” _'
' &_'
'大'
'ุ_'
'া_'
'ع_'
'ы_'
'xx_'
'vivo_'
'vi_'
've'
'trsf_'
'triple_'
'tries_'
'transport_'
'tile_'
'tic_'
'thus_'
'thai_'
'synonyms_'
'switches_'
'sw_'
'surface_'
'supplement_'
'success_'
'spots_'
'spotlight_'
'specialist_'
'soundbible_'
'smoking_'
'situations_'
'sins_'
'shift_'
'shadow_'
'served_'
'sep_'
'sensitive_'
'saint_'
'relative_'
'registering_'
'ratio_'
'queue_'
'pulse_'
'prayers_'
'paul_'
'ocean_'
'ncaa_'
'msg_'
'mouse_'
'montuno_'
'manga_'
'makeup_'
'loves_'
'legally_'
'leagues_'
'layer_'
'layanan_'
'latin_'
'largest_'
'ketenagakerjaan_'
'ja_'
'iron_'
'ir_'
'ions_'
'infringe_'
'incognito_'
'hundreds_'
'hop_'
'highlighted_'
'gsm_'
'glasses_'
'flooding_'
'extended_'
'extend_'
'exclude_'
'exceed_'
'exam_'
'equivalent_'
'eq_'
'ent_'
'employer_'
'eggs_'
'ee_'
'eastern_'
'earthquakes_'
'donation_'
'dock_'
'delays_'
'dance_'
'd9_'
'copyrighted_'
'bundle_'
'bsd_'
'bpm_'
'bpjs_'
'beside_'
'beer_'
'ate_'
'asks_'
'arkansas_'
'anti_'
'allowing_'
'advertisers_'
'adapt_'
'accent_'
'212_'
'1990_'
'170_'
'126_'
'(-_'
'"<<_'
' >>_'
'  '
'하는_'
'시'
'도_'
'一'
'ни_'
'бир_'
'đ'
'wash_'
'visa_'
'tweets_'
'treaties_'
'transparency_'
'therapy_'
'testamento_'
'tcp_'
'suitable_'
'subscribers_'
'stopped_'
'stone_'
'squeeze_'
'speaking_'
'sorted_'
'sobre_'
'slot_'
'sizes_'
'shuffle_'
'sheet_'
'shed_'
'separated_'
'scott_'
's'
'rush_'
'rhythm_'
'refreshing_'
'r'
'q'
'publication_'
'português_'
'pickup_'
'participating_'
'offensive_'
'medications_'
'malaysia_'
'ls_'
'loud_'
'loaded_'
'liabilities_'
'koenig_'
'knee_'
'kick_'
'keyword_'
'keynote_'
'incomplete_'
'ignore_'
'identifier_'
'hǎo_'
'ho_'
'hints_'
'greeting_'
'gateway_'
'executive_'
'euro_'
'enhanced_'
'engage_'
'edits_'
'dynamic_'
'dvd_'
'drafts_'
'domestic_'
'digits_'
'deselect_'
'depression_'
'degrees_'
'daughter_'
'databases_'
'd'
'của_'
'currencies_'
'contractual_'
'connects_'
'clearly_'
'ciudad_'
'charger_'
'casino_'
'carplay_'
'cafe_'
'buzz_'
'british_'
'bedroom_'
'becoming_'
'banana_'
'award_'
'automated_'
'alive_'
'alex_'
'affairs_'
'achievements_'
'absolutely_'
'999_'
'310_'
'255_'
'2019_'
'149_'
'/?_'
' €_'
' ($_'
'_'
'지_'
'が'
'”), _'
'ح_'
'vie_'
'unspecified_'
'ung_'
'trailer_'
'tiny_'
'soup_'
'soundcloud_'
'smooth_'
'shaped_'
'sends_'
'safely_'
'ranking_'
'rank_'
'pp_'
'postal_'
'periodically_'
'patents_'
'northern_'
'mummy_'
'module_'
'modes_'
'moderate_'
'mateo_'
'logos_'
'lady_'
'jo_'
'interview_'
'interfere_'
'interaction_'
'gen_'
'fusion_'
'figure_'
'fifth_'
'ffff_'
'fetal_'
'exceptions_'
'drinking_'
'diagnostics_'
'define_'
'cycles_'
'corrected_'
'continued_'
'consumption_'
'configured_'
'coast_'
'ch'
'caption_'
'buddy_'
'brings_'
'autofill_'
'assets_'
'approve_'
'appeared_'
'ant_'
'airline_'
'abc_'
'911_'
'888_'
'6pm_'
'3'
'2002_'
'1m_'
'184_'
'160_'
'_'
'지'
'또는_'
'€_'
'ช_'
'على_'
'й_'
'б_'
'©_'
' (_'
'winning_'
'whitelist_'
'wanna_'
'violates_'
'victoria_'
'v4_'
'utm_'
'tutorials_'
'tts_'
'treat_'
'toys_'
'tiles_'
'threats_'
'th'
'temporary_'
'taps_'
'subsequent_'
'storms_'
'specials_'
'sorting_'
'smaller_'
'scripture_'
'ri_'
'reg_'
'recurring_'
'ran_'
'queen_'
'protecting_'
'princess_'
'pollfish_'
'planned_'
'personalization_'
'patterns_'
'passenger_'
'ndo_'
'mystery_'
'mx_'
'motor_'
'monitoring_'
'mistakes_'
'med_'
'lifestyle_'
'lies_'
'ler_'
'lace_'
'labels_'
'kept_'
'invoices_'
'interior_'
'indicating_'
'incompatible_'
'inaccurate_'
'honey_'
'helpful_'
'guy_'
'guaranteed_'
'garage_'
'forgotten_'
'filtering_'
'extract_'
'enrollment_'
'engineering_'
'displaying_'
'discussion_'
'difficult_'
'died_'
'destinations_'
'dengan_'
'delaware_'
'degree_'
'covers_'
'connecticut_'
'concerns_'
'commons_'
'bowl_'
'bixby_'
'berlin_'
'badges_'
'badge_'
'autoplay_'
'aud_'
'arm_'
'arch_'
'acceleration_'
'94103_'
'199_'
'1988_'
'192_'
'146_'
'119_'
'111_'
'.		_'
'", "_'
'! (_'
' // _'
'_'
'中文_'
'ี่_'
'الله_'
'нинг_'
'на_'
'ка_'
'yoga_'
'wizard_'
'weapons_'
'wcdma_'
'waze_'
'volte_'
'viruses_'
'ut_'
'uefa_'
'tours_'
'titan_'
'timeout_'
'theft_'
'thailand_'
'taylor_'
'swedish_'
'supersedes_'
'squat_'
'sony_'
'slowly_'
'shots_'
'schedules_'
'scary_'
'roster_'
'rings_'
'restoring_'
'resembles_'
'reps_'
'represented_'
'rentals_'
'quote_'
'promise_'
'principles_'
'positions_'
'outfit_'
'nurse_'
'newer_'
'n'
'movements_'
'mmsc_'
'ml_'
'marketplace_'
'marker_'
'limiting_'
'leaves_'
'laser_'
'ko_'
'kindle_'
'jonnalagadda_'
'joint_'
'jeans_'
'inform_'
'ik_'
'hyderabad_'
'hybrid_'
'harish_'
'hall_'
'gun_'
'guidelines_'
'frames_'
'finds_'
'fighting_'
'fertile_'
'favor_'
'ey_'
'experiment_'
'expect_'
'exams_'
'establish_'
'ess_'
'equalizer_'
'environmental_'
'electronically_'
'dont_'
'dj_'
'disabling_'
'decrease_'
'decisions_'
'dating_'
'comfortable_'
'combine_'
'collects_'
'cnn_'
'cloudpath_'
'clinic_'
'cd_'
'carriers_'
'calorie_'
'brasil_'
'billion_'
'aspect_'
'arms_'
'approach_'
'amounts_'
'alphabet_'
'allure_'
'aim_'
'accident_'
'7202_'
'700_'
'.”_'
'..#....#..\\_'
'('
'") ;_'
'! '
'  _'
'아'
'好'
'「_'
'”). _'
'ก'
'ُ _'
'ف_'
'у_'
'с_'
'по_'
'от_'
'афанди_'
'° | _'
'worship_'
'worked_'
'wearing_'
'você_'
'visitor_'
'versículos_'
'tx_'
'tropical_'
'tos_'
'tops_'
'subreddit_'
'stereo_'
'static_'
'statements_'
'stack_'
'spending_'
'specialty_'
'southwest_'
'somewhere_'
'shapes_'
'seems_'
'scenes_'
'scanned_'
'saves_'
's20_'
'rooted_'
'rob_'
'resolve_'
'replay_'
'refers_'
'prove_'
'primera_'
'portfolio_'
'pops_'
'personalise_'
'peer_'
'overlay_'
'ors_'
'orlando_'
'organizations_'
'optimize_'
'ol_'
'nuclear_'
'nokia_'
'millions_'
'merchandise_'
'meat_'
'mcpe_'
'loyalty_'
'looked_'
'ling_'
'legends_'
'knew_'
'keeps_'
'ipados_'
'instance_'
'inspired_'
'industry_'
'increases_'
'hosted_'
'helping_'
'grab_'
'getelementbyid_'
'geo_'
'fishing_'
'facing_'
'explicit_'
'exhibit_'
'era_'
'elevation_'
'easter_'
'duplicate_'
'dogs_'
'dispatch_'
'dev_'
'desires_'
'departments_'
'dataviz_'
'danish_'
'dangerous_'
'contractions_'
'consequences_'
'composer_'
'component_'
'columbia_'
'cny_'
'closing_'
'chatting_'
'carrot_'
'calibrate_'
'butt_'
'bsl_'
'bright_'
'bike_'
'association_'
'answered_'
'anonymously_'
'accompanied_'
'abide_'
': [_'
'350_'
'223_'
'202_'
'1997_'
'116_'
'106_'
'011000000000_'
'); _'
' £_'
'？_'
'전'
'일'
'으로_'
'부'
'日本語_'
'… _'
'ด_'
'ु_'
'श_'
'ь_'
'®, _'
'ze_'
'wipe_'
'wikipedia_'
'wapenc_'
'walls_'
'votes_'
'unlawful_'
'une_'
'tập_'
'tote_'
'toddler_'
'surprise_'
'sufficient_'
'subway_'
'sitting_'
'silence_'
'sh_'
'sexual_'
'settlement_'
'selections_'
's3_'
'rey_'
'res_'
'rely_'
'reload_'
'refuse_'
'referral_'
'reached_'
'py_'
'produced_'
'proceedings_'
'prev_'
'predictions_'
'prank_'
'planner_'
'pinterest_'
'oak_'
'nyc_'
'null_'
'netflix_'
'nations_'
'mutual_'
'mandatory_'
'magnetic_'
'layers_'
'latitude_'
'kill_'
'ketentuan_'
'j'
'ive_'
'intervals_'
'insulin_'
'inactive_'
'hiit_'
'hat_'
'harbor_'
'growing_'
'graphic_'
'gov_'
'funded_'
'fruits_'
'frequent_'
'fraud_'
'fp_'
'feelings_'
'featuring_'
'ez_'
'experiences_'
'established_'
'encryption_'
'discovery_'
'discard_'
'definitely_'
'decided_'
'dealer_'
'czech_'
'crime_'
'convenient_'
'construction_'
'clothes_'
'closure_'
'clinical_'
'chromebook_'
'chris_'
'chances_'
'championship_'
'bruno_'
'brother_'
'bounce_'
'bigger_'
'belgium_'
'assignment_'
'assessment_'
'asian_'
'arrivals_'
'ara_'
'appliances_'
'apis_'
'antigua_'
'anda_'
'aggregate_'
'affiliated_'
'advantage_'
'adam_'
'absolute_'
'\u\u_'
'?" _'
': _'
': '
'96kbps_'
'6s_'
'3h_'
'340_'
'270_'
'201_'
'1996_'
'132_'
'131_'
'01o_'
'. “_'
'.  "_'
', '
'($_'
''. _'
'")._'
'_'
'하기_'
'정보_'
'사'
'면_'
'로그인_'
'가'
'」_'
'في_'
'الم'
'йўқ_'
'  _'
'xem_'
'winner_'
'vous_'
'vegas_'
'unsubscribe_'
'trim_'
'tr'
'todos_'
'tea_'
'streams_'
'sparse_'
'spain_'
'sons_'
'smile_'
'się_'
'seriously_'
'santander_'
'salary_'
'ron_'
'revenue_'
'requirement_'
'reliable_'
'receives_'
'rear_'
'python_'
'punch_'
'publicity_'
'prize_'
'prince_'
'presets_'
'prepared_'
'prankdial_'
'pound_'
'planet_'
'picker_'
'pic_'
'photographs_'
'palace_'
'pada_'
'originally_'
'nw_'
'noaa_'
'newly_'
'netherlands_'
'msn_'
'mr_'
'metal_'
'markers_'
'mailboxes_'
'magnitude_'
'lyrics_'
'lookup_'
'lane_'
'knows_'
'knowing_'
'jr_'
'jack_'
'involved_'
'invited_'
'introducing_'
'institution_'
'ink_'
'ie'
'ide_'
'ics_'
'ian_'
'i'
'hurt_'
'happening_'
'handles_'
'greyed_'
'gbp_'
'formatting_'
'feat_'
'familiar_'
'expressions_'
'enquiry_'
'emojis_'
'electric_'
'ee'
'ebook_'
'drivers_'
'discuss_'
'diabetes_'
'defect_'
'contractors_'
'confidence_'
'ck_'
'checklist_'
'caught_'
'carrying_'
'booked_'
'bio_'
'bensound_'
'baltimore_'
'bahasa_'
'babies_'
'assistivetouch_'
'apparel_'
'animated_'
'anguilla_'
'ana_'
']._'
'900_'
'5'
'2m_'
'2k_'
'257_'
'249_'
'24'
'1º_'
'1638_'
'133_'
'. - _'
'+)_'
'_'
'상'
'有'
'は'
'น'
'ต_'
'व_'
'ड_'
'ال_'
'х_'
'о'
'н_'
'дан_'
'ía_'
'· _'
'° _'
'zing_'
'wow_'
'walgreens_'
'verbs_'
'vegetarian_'
'v3_'
'urgent_'
'unfinished_'
'troubleshooting_'
'trigger_'
'tom_'
'tl_'
'timetable_'
'timeliness_'
'threads_'
'themselves_'
'theaters_'
'texture_'
'tested_'
'td_'
'symptom_'
'suspected_'
'subscribed_'
'submissions_'
'sua_'
'stroke_'
'slightly_'
'sellers_'
'scientists_'
'saudi_'
'samples_'
'sad_'
'roku_'
'rising_'
'reyes_'
'replaces_'
'rendering_'
'relaxation_'
'refill_'
'recommendation_'
'reads_'
'ram_'
'quarter_'
'puzzle_'
'preparation_'
'prepaid_'
'preload_'
'pour_'
'pnc_'
'plugins_'
'pi_'
'pharmacy_'
'pf_'
'organize_'
'ord_'
'opportunities_'
'observations_'
'nie_'
'nan_'
'nail_'
'musical_'
'multimedia_'
'mql5_'
'moscow_'
'moral_'
'mnc_'
'misc_'
'metronome_'
'meant_'
'mcc_'
'matrix_'
'mars_'
'marina_'
'mall_'
'mais_'
'maintaining_'
'loving_'
'li'
'ladies_'
'kies_'
'keywords_'
'individually_'
'imperial_'
'homepod_'
'hasta_'
'grass_'
'grand_'
'gm_'
'gluten_'
'glory_'
'gi'
'generator_'
'gears_'
'garlic_'
'forces_'
'fiber_'
'fastest_'
'famous_'
'fairy_'
'expired_'
'excel_'
'eternal_'
'employee_'
'easiest_'
'drum_'
'downtown_'
'dl_'
'disclosures_'
'dell_'
'crown_'
'creates_'
'craigslist_'
'cowboys_'
'cord_'
'conflicts_'
'config_'
'collecting_'
'clubs_'
'clients_'
'chest_'
'causing_'
'cancelled_'
'buffalo_'
'broken_'
'bought_'
'bot_'
'bg_'
'bear_'
'banks_'
'aurora_'
'arrest_'
'apart_'
'adhan_'
'adds_'
'accepts_'
'???_'
'5k_'
'335_'
'2º_'
'26'
'2003_'
'2001_'
'1991_'
'190_'
'1543_'
'152_'
'/'
'. §_'
'---_'
'_'
'_'
'_'
'제'
'와_'
'‘_'
'ม_'
'ง'
'ू_'
'ć_'
'á'
'y'
'wrap_'
'wap_'
'walmart_'
'voucher_'
'voicemails_'
'valentine_'
'us'
'uploading_'
'underneath_'
'ukraine_'
'twitch_'
'tune_'
'tricks_'
'trends_'
'trades_'
'theatre_'
'testament_'
'territory_'
'templates_'
'television_'
'telegram_'
'suspension_'
'suspect_'
'survival_'
'suits_'
'stompbox_'
'spin_'
'spell_'
'society_'
'snack_'
'signals_'
'sideline_'
'shanghai_'
'ser_'
'runtastic_'
'router_'
'rotor_'
'restored_'
'responsibilities_'
'rainfall_'
'quran_'
'potter_'
'pins_'
'ping_'
'paying_'
'packages_'
'p'
'numbered_'
'nte_'
'nissan_'
'ng'
'mpg_'
'modules_'
'meow_'
'loads_'
'ley_'
'learned_'
'lac_'
'kjv_'
'kiss_'
'keychain_'
'integration_'
'inn_'
'indiana_'
'increased_'
'incident_'
'impossible_'
'heel_'
'hang_'
'giants_'
'generic_'
'g'
'facility_'
'fa'
'experienced_'
'exist_'
'está_'
'enabling_'
'economic_'
'dresses_'
'distributors_'
'disclaim_'
'differ_'
'dies_'
'despite_'
'dear_'
'cursor_'
'creations_'
'cr_'
'changelog_'
'chair_'
'cells_'
'casual_'
'c'
'buffer_'
'blocker_'
'bengaluru_'
'beijing_'
'beds_'
'barbuda_'
'ayats_'
'av_'
'authenticator_'
'authentic_'
'atl_'
'ary_'
'announcement_'
'announce_'
'amenities_'
'alpha_'
'?  _'
'9th_'
'9'
'650_'
'4th_'
'3m_'
'35'
'1994_'
'176_'
'144_'
'112_'
'000111111000_'
'*                                                                      *_'
') '
''' _'
'& _'
'!  _'
'!'
'    _'
' ] _'
' (+_'
'_'
'회원이_'
'어'
'소'
'서비스를_'
'당사가_'
'ล_'
'บ_'
'ख_'
'لا_'
'ت'
'ı_'
'| _'
'wings_'
'watched_'
'visiting_'
'u'
'tuner_'
'transition_'
'trainer_'
'trailers_'
'thomas_'
'tennis_'
'temple_'
'surgery_'
'strips_'
'strike_'
'sonos_'
'sleeve_'
'skull_'
'sister_'
'securities_'
'schools_'
'satisfy_'
'salon_'
'rt_'
'rice_'
'restarts_'
'removing_'
'reasonably_'
'realize_'
'query_'
'quake_'
'punitive_'
'principal_'
'presents_'
'political_'
'plugin_'
'plaza_'
'plants_'
'pie_'
'phim_'
'periods_'
'participate_'
'parenting_'
'ordering_'
'oracle_'
'obama_'
'ner_'
'naruto_'
'naked_'
'metaquotes_'
'mega_'
'mco_'
'magnifying_'
'lounge_'
'longitude_'
'lit_'
'leading_'
'laundry_'
'ks_'
'khz_'
'kh'
'kansas_'
'jpg_'
'joy_'
'jason_'
'int_'
'instruments_'
'instruction_'
'inquiries_'
'industrial_'
'imposed_'
'implementation_'
'idle_'
'hub_'
'horror_'
'hobbies_'
'har_'
'handbag_'
'guarantees_'
'groupme_'
'gratis_'
'glucose_'
'github_'
'gboard_'
'fuck_'
'francais_'
'flowers_'
'fetch_'
'falcons_'
'facilitate_'
'f'
'extracted_'
'exploit_'
'everywhere_'
'eta_'
'ep_'
'enroll_'
'enjoying_'
'embedded_'
'div_'
'disk_'
'dia_'
'depend_'
'cycling_'
'cy_'
'crystal_'
'criminal_'
'creatures_'
'coordinates_'
'converter_'
'competition_'
'commerce_'
'cincinnati_'
'cherry_'
'charles_'
'burp_'
'boards_'
'bench_'
'bedding_'
'bearer_'
'baseball_'
'backstage_'
'babbel_'
'auf_'
'audible_'
'auctions_'
'attacks_'
'arrangement_'
'armenia_'
'anymore_'
'ang_'
'analyse_'
'américa_'
'ak'
'agenda_'
'additionally_'
'adchoices_'
'ada_'
'academy_'
'abdominal_'
'][_'
'6am_'
'550_'
'50'
'4'
'235_'
'220_'
'208_'
'2'
'1993_'
'1987_'
'14159897090_'
'135_'
'103_'
'.  _'
', _'
')'
'': _'
'!! _'
' ('
'회원가입_'
'한국어_'
'대'
'新'
'人'
'で'
'€ _'
'็_'
'ว'
'พ_'
'ด'
'फ_'
'ग_'
'कर_'
'ۡ_'
'я'
'у'
'ан_'
'°/_'
'zoo_'
'ze'
'zap_'
'xxx_'
'withdraw_'
'whistle_'
'wav_'
'warriors_'
'và_'
'voices_'
'ville_'
'versets_'
'utilities_'
'usual_'
'uso_'
'urban_'
'unwanted_'
'uninstalling_'
'tt_'
'touching_'
'toll_'
'tokyo_'
'timing_'
'timezone_'
'tiempo_'
'thereto_'
'telling_'
'tank_'
'synchronize_'
'switching_'
'svd_'
'substantially_'
'stretch_'
'std_'
'stadia_'
'squats_'
'smiley_'
'sliders_'
'sleeper_'
'skins_'
'shops_'
'shine_'
'shell_'
'shades_'
'satisfactory_'
'ru_'
'robot_'
'responses_'
'rescue_'
'remotely_'
'remodeling_'
'reflect_'
'references_'
'puts_'
'preparing_'
'pnr_'
'pieces_'
'permanent_'
'performing_'
'paw_'
'parks_'
'parish_'
'pa'
'overflow_'
'organic_'
'ordered_'
'optimized_'
'officials_'
'objectionable_'
'nya_'
'nine_'
'nicta_'
'navigator_'
'nation_'
'nasdaq_'
'merchants_'
'martin_'
'marriage_'
'luck_'
'lol_'
'lockscreen_'
'lly_'
'linux_'
'lightly_'
'lender_'
'lan_'
'lam_'
'lack_'
'kcal_'
'jul_'
'jpy_'
'iphonesettingsappicon_'
'invites_'
'investigation_'
'invert_'
'incur_'
'imminent_'
'honor_'
'hole_'
'historia_'
'hereof_'
'hazardous_'
'hacking_'
'grade_'
'gpx_'
'ger_'
'generates_'
'ful_'
'formula_'
'fork_'
'foot_'
'flags_'
'filling_'
'fe_'
'fahrenheit_'
'extremely_'
'exp_'
'execution_'
'entre_'
'encounter_'
'empire_'
'emotions_'
'ein_'
'effectively_'
'editors_'
'edited_'
'eb'
'eay_'
'ea_'
'duaa_'
'drops_'
'downloader_'
'doors_'
'disc_'
'designer_'
'desde_'
'defective_'
'dedicated_'
'danger_'
'cuts_'
'cryptographic_'
'creek_'
'counties_'
'contrast_'
'continuar_'
'conjunction_'
'clinton_'
'cleaner_'
'classical_'
'circumvent_'
'circuit_'
'chapitre_'
'changer_'
'cad_'
'busy_'
'burst_'
'bundesliga_'
'builder_'
'bracelet_'
'boys_'
'bonuses_'
'blogs_'
'birthdays_'
'biggest_'
'became_'
'beast_'
'beacon_'
'bart_'
'associate_'
'asleep_'
'array_'
'arr_'
'ar'
'appearing_'
'aol_'
'amendment_'
'adoption_'
'adjustment_'
'adidas_'
'acknowledgment_'
'a1_'
'==========================================================================_'
'8'
'7'
'6h_'
'600_'
'6'
'336_'
'24h_'
'240_'
'230_'
'207_'
'20'
'129_'
'113_'
'02o_'
'00a_'
'.: _'
'$????_'
'!)_'
'!!! _'
' °_'
' ? _'
'회원의_'
'하'
'不'
'い'
'。 ☕_'
'ู_'
'ม'
'്_'
'்_'
'ين_'
'و'
'س_'
'си_'
'лар_'
'к_'
'бо'
'ä'
'·_'
'  _'
'wrote_'
'workplace_'
'winners_'
'whichever_'
'wanelo_'
'wagoner_'
'vitamin_'
'vine_'
'victim_'
'verizon_'
'upptalk_'
'unusual_'
'tu'
'tsp_'
'tierra_'
'thermostat_'
'tennessee_'
'switzerland_'
'supersu_'
'stealth_'
'ssid_'
'squad_'
'spent_'
'specifications_'
'sp_'
'smoke_'
'slip_'
'shortly_'
'shit_'
'serial_'
'sequence_'
'sedan_'
'scans_'
'salmos_'
'romantic_'
'rides_'
'returning_'
'retake_'
'resident_'
'regards_'
'redemption_'
'red'
'radius_'
'qualification_'
'province_'
'propagate_'
'programa_'
'portugal_'
'portable_'
'physician_'
'photography_'
'pas_'
'outbound_'
'ounce_'
'ot_'
'offices_'
'ns'
'nova_'
'nose_'
'nobody_'
'niv_'
'nintendo_'
'nhl_'
'negative_'
'nce_'
'nbsp_'
'nails_'
'mpl_'
'motorola_'
'monetary_'
'mock_'
'minigame_'
'meters_'
'menstruation_'
'meme_'
'meets_'
'meetings_'
'mapping_'
'linking_'
'lineup_'
'lime_'
'leo_'
'lat_'
'landmark_'
'landing_'
'ki'
'kernel_'
'ker_'
'keeper_'
'kbps_'
'jokes_'
'introduce_'
'interpreted_'
'intent_'
'inserted_'
'influence_'
'infants_'
'ids_'
'husband_'
'hormone_'
'hitch_'
'hereafter_'
'heartbeat_'
'gs_'
'greatest_'
'grande_'
'frozen_'
'followmyhealth_'
'flashcards_'
'ff_'
'farm_'
'explains_'
'expiry_'
'exciting_'
'eve_'
'europa_'
'esta_'
'encrypted_'
'election_'
'ecomics_'
'dragging_'
'dishes_'
'decor_'
'dawn_'
'customized_'
'crying_'
'critical_'
'crashes_'
'contests_'
'constant_'
'conducted_'
'complaints_'
'compilation_'
'comforter_'
'comfort_'
'clicks_'
'clearance_'
'circular_'
'chief_'
'candy_'
'camp_'
'cam_'
'bookmarked_'
'bitcoin_'
'bin_'
'bearing_'
'bb_'
'barking_'
'bakery_'
'awake_'
'avianca_'
'atp_'
'as'
'ard_'
'archived_'
'arabia_'
'apartments_'
'analyze_'
'altered_'
'als_'
'allen_'
'adventures_'
'adjustments_'
'addiction_'
'acknowledges_'
'acknowledgements_'
'acceptable_'
'acapulco_'
'? (_'
'?'
'9pm_'
'9am_'
'750_'
'75'
'3k_'
'247_'
'242_'
'217_'
'1234_'
'118_'
'10pm_'
'10am_'
'10'
'00p_'
'001_'
' ₹_'
' ... _'
' ( ) _'
'_'
'_'
'정'
'역_'
'시_'
'나'
'과_'
'小'
'ン'
'เ'
'ซ_'
'ें_'
'िं_'
'ब_'
'ح'
'та_'
'со'
'м'
'из_'
'ар_'
'án_'
'youth_'
'yon_'
'yi'
'yard_'
'xp_'
'xl_'
'wy'
'wire_'
'wiki_'
'width_'
'waive_'
'w'
'vin_'
'venue_'
'vb_'
'vault_'
'valuable_'
'utilize_'
'utility_'
'usted_'
'unavailable_'
'trend_'
'transparent_'
'toronto_'
'ties_'
'ticker_'
'thunderstorm_'
'threatening_'
'temperatures_'
'tc_'
't20_'
'sunshine_'
'stephen_'
'ste_'
'stability_'
'sox_'
'sf'
'servicing_'
'senate_'
'searched_'
'roads_'
'reviewed_'
'resort_'
'resolved_'
'residence_'
'reproduced_'
'rep_'
'reliance_'
'regulatory_'
'rar_'
'qué_'
'pure_'
'publisher_'
'psg_'
'protein_'
'processed_'
'prediction_'
'pounds_'
'porn_'
'poor_'
'poll_'
'placement_'
'paintings_'
'overnight_'
'otp_'
'os'
'optimization_'
'opengl_'
'ok'
'ofertas_'
'od_'
'não_'
'nj_'
'ninety_'
'my'
'mr'
'mileageplus_'
'mango_'
'lollipop_'
'lisa_'
'levenbergmarquardt_'
'leads_'
'launches_'
'lab_'
'ku'
'kolkata_'
'knit_'
'juz_'
'jersey_'
'iran_'
'invisible_'
'intense_'
'inner_'
'infringes_'
'indication_'
'incorporate_'
'inaccuracies_'
'impose_'
'impl_'
'ign_'
'ideal_'
'id'
'icu_'
'hunt_'
'hudson_'
'horse_'
'horn_'
'honest_'
'homescreen_'
'hmm_'
'happiness_'
'habits_'
'guess_'
'gram_'
'goodbye_'
'glow_'
'generation_'
'gallon_'
'fourth_'
'flying_'
'fever_'
'felt_'
'fear_'
'fdic_'
'families_'
'fajr_'
'excess_'
'esperance_'
'ended_'
'eltsoft_'
'elementary_'
'edu_'
'dreams_'
'doubt_'
'dollars_'
'división_'
'disconnected_'
'diesel_'
'destruction_'
'den'
'delayed_'
'cvg_'
'crisis_'
'cpu_'
'copa_'
'contraction_'
'consequence_'
'completing_'
'complaint_'
'compiler_'
'commitment_'
'cleaning_'
'clash_'
'circles_'
'che_'
'certify_'
'certified_'
'certificates_'
'centers_'
'cap_'
'cakes_'
'brothers_'
'blend_'
'believes_'
'bedtime_'
'bedrooms_'
'bayern_'
'bangalore_'
'babsy_'
'austin_'
'atlantic_'
'athletic_'
'arab_'
'appreciate_'
'antonio_'
'antiguo_'
'announced_'
'ankle_'
'andrew_'
'amendments_'
'allergies_'
'alexander_'
'al'
'affecting_'
'ad'
'acquiring_'
'acquire_'
'aa'
'??_'
'94114_'
'8am_'
'47'
'37'
'30'
'216_'
'210_'
'205_'
'198_'
'165_'
'153_'
'//_'
'-'
').  _'
') {_'
') . _'
''._'
'')_'
'")_'
'"'
' .. _'
' ($)_'
'：_'
'주'
'인'
'이용'
'않습니다_'
'됩니다_'
'끕_'
'기_'
'게시물_'
'在'
'と'
'✔ _'
'อ_'
'ง_'
'भ_'
'ا'
'، _'
'ш_'
'ть_'
'ой_'
'è_'
'ão_'
'zones_'
'yums_'
'yo'
'ying_'
'xda_'
'writer_'
'wn_'
'watches_'
'waist_'
'wa'
'venezuela_'
'vendor_'
'uservoice_'
'unfollow_'
'tus_'
'tube_'
'ts'
'triangle_'
'trees_'
'traveling_'
'translated_'
'transferring_'
'tidak_'
'tick_'
'threat_'
'teen_'
'techniques_'
'supplements_'
'subtotal_'
'subtitles_'
'submitting_'
'statute_'
'sq_'
'sphere_'
'shower_'
'shore_'
'ships_'
'servings_'
'seem_'
'scanners_'
'savers_'
'salvation_'
'salt_'
'rose_'
'rooting_'
'revert_'
'retains_'
'retailers_'
'residential_'
'reinstall_'
'readers_'
'raiders_'
'pushups_'
'psalms_'
'proverbios_'
'proof_'
'promotional_'
'privately_'
'printers_'
'presidential_'
'pool_'
'polyester_'
'playstation_'
'plant_'
'planets_'
'pii_'
'picasa_'
'piano_'
'pi'
'peripherals_'
'penumbral_'
'participant_'
'pairs_'
'override_'
'organizer_'
'nursing_'
'nu'
'npr_'
'noon_'
'noodles_'
'no'
'nick_'
'nia_'
'neil_'
'mt'
'mos_'
'moms_'
'mistake_'
'miller_'
'mercy_'
'ments_'
'massachusetts_'
'marie_'
'mar'
'madness_'
'machines_'
'll'
'likeness_'
'librivox_'
'lake_'
'ko'
'jackson_'
'installer_'
'initiative_'
'infringing_'
'imovie_'
'hug_'
'hershey_'
'haight_'
'gum_'
'grove_'
'greek_'
'glenn_'
'gizmo_'
'für_'
'fy_'
'free'
'footage_'
'flirt_'
'fingertips_'
'expression_'
'explained_'
'expanded_'
'este_'
'ery_'
'enforceable_'
'element_'
'ek_'
'ebooks_'
'drawings_'
'dose_'
'donations_'
'disorder_'
'diseases_'
'disappears_'
'dic_'
'diaper_'
'determined_'
'desserts_'
'desk_'
'delta_'
'defamatory_'
'dealing_'
'danh_'
'dairy_'
'consultation_'
'conform_'
'confirming_'
'competitions_'
'competent_'
'compact_'
'coloring_'
'cleanup_'
'chips_'
'chennai_'
'cheapest_'
'celsius_'
'ce'
'catalina_'
'casting_'
'carrots_'
'burn_'
'bold_'
'boarding_'
'bids_'
'beeps_'
'baggage_'
'aus_'
'arrows_'
'armed_'
'angular_'
'angel_'
'amended_'
'ambient_'
'algorithm_'
'ah'
'afc_'
'advisor_'
'adsense_'
'administrative_'
'acknowledgement_'
'accompany_'
'abu_'
'absence_'
'= _'
':'
'9h_'
'941_'
'4155791638_'
'30p_'
'264_'
'251_'
'233_'
'215_'
'1992_'
'191_'
'185_'
'175_'
'161_'
'141_'
'138_'
'13'
'11pm_'
'0'
'. _'
'. " _'
', '_'
'**_'
'* * *_'
') ;_'
'% (_'
'!!!_'
' $ _'
' "'
'）_'
'_'
'_'
'_'
'_'
'_'
'회원은_'
'화'
'조'
'자'
'요_'
'신'
'수'
'성'
'모'
'만'
'러'
'人_'
'中'
'上'
'て'
'た'
'▼_'
'”_'
'ื_'
'อ'
'จ_'
'م'
'ع'
'ذ_'
'أ'
'та'
'русский_'
'ро'
'ов_'
'но'
'ли_'
'л_'
'иб_'
'ι'
' '
'wild_'
'wedge_'
'watchlists_'
'vista_'
'visits_'
'violence_'
'vacation_'
'va'
'unfortunately_'
'ua_'
'typical_'
'truly_'
'trick_'
'travelling_'
'trail_'
'tough_'
'toolbox_'
'to'
'thunderstorms_'
'thumb_'
'thirty_'
'taste_'
'tamil_'
'supposed_'
'sun'
'suicide_'
'suddenly_'
'subsection_'
'strikes_'
'strategy_'
'sticky_'
'stays_'
'stands_'
'standards_'
'stable_'
'sse_'
'splash_'
'spinach_'
'solve_'
'smartphones_'
'slower_'
'simplified_'
'shuttle_'
'shoulders_'
'shield_'
'serves_'
'serie_'
'sector_'
'seasons_'
'satisfied_'
'san'
'salmon_'
'rosary_'
'resource_'
'removes_'
'rearrange_'
'ray_'
'quantum_'
'pune_'
'publishers_'
'proposal_'
'projections_'
'procedure_'
'prevention_'
'pressed_'
'pointing_'
'plate_'
'pk_'
'physicians_'
'perspective_'
'personality_'
'pepper_'
'patrol_'
'patients_'
'pal_'
'ow_'
'optionally_'
'opacity_'
'onion_'
'obviously_'
'ny'
'nuevo_'
'nigeria_'
'ni'
'newsweek_'
'nda_'
'mls_'
'minimize_'
'minimal_'
'micro_'
'mexican_'
'messi_'
'mercury_'
'menus_'
'mention_'
'mc'
'makers_'
'lyft_'
'lovely_'
'letting_'
'legacy_'
'lateral_'
'lapack_'
'ky_'
'ksh_'
'killer_'
'keypress_'
'kaspersky_'
'justin_'
'ju'
'jordan_'
'jest_'
'jcpenney_'
'jay_'
'iterativesolvers_'
'it'
'ire_'
'inverse_'
'introduced_'
'interference_'
'intercourse_'
'interact_'
'integrity_'
'indonesian_'
'incredible_'
'incidents_'
'inappropriate_'
'ht_'
'hosts_'
'honda_'
'heights_'
'han_'
'hack_'
'gym_'
'guns_'
'governmental_'
'glaucoma_'
'furthermore_'
'fulfill_'
'freely_'
'framework_'
'forgive_'
'flour_'
'flavor_'
'finishes_'
'filipino_'
'fiction_'
'faults_'
'fart_'
'evidence_'
'evaluation_'
'ere'
'elements_'
'el'
'eigensolver_'
'educational_'
'ec_'
'eats_'
'earning_'
'dy_'
'dv'
'duck_'
'dns_'
'divided_'
'discontinue_'
'disappear_'
'ding_'
'detects_'
'derive_'
'deposits_'
'dash_'
'curated_'
'cruz_'
'crew_'
'creed_'
'creamy_'
'cooker_'
'container_'
'concerned_'
'commit_'
'columns_'
'coconut_'
'clearing_'
'cholesky_'
'chili_'
'catholic_'
'carbon_'
'captions_'
'calculations_'
'calculated_'
'by'
'bubbles_'
'breath_'
'breaks_'
'brains_'
'boss_'
'boat_'
'bikes_'
'bi_'
'barometer_'
'b1_'
'axis_'
'audios_'
'attorney_'
'attempts_'
'ations_'
'artwork_'
'ari'
'arbitrator_'
'appcrawler_'
'ao_'
'anyway_'
'announcements_'
'anh_'
'ance_'
'alternate_'
'ae_'
'administrators_'
'acute_'
'accordingly_'
'ac'
'aastocks_'
'="_'
'</_'
'8gb_'
'81'
'30pm_'
'305_'
'3000_'
'2b'
'273_'
'25m_'
'248_'
'244_'
'1k_'
'179_'
'15'
'142_'
'117_'
'04'
'01'
'.  (_'
'- '
'#    _'
'" ;_'
' + (_'
'  (_'
'（_'
'_'
'_'
'_'
'후_'
'해주세요_'
'비'
'미'
'기타_'
'ー'
'や'
'♥_'
'②_'
'①_'
'”._'
'”, _'
'ื่_'
'บ'
'ٰ_'
'ض'
'о_'
'нг_'
'ма'
'ки_'
'е'
'грн_'
'а'
'để_'
'ò'
'½_'
'zen_'
'zalora_'
'zalo_'
'youroam_'
'yd_'
'yazzy_'
'ya'
'worst_'
'wordpress_'
'wonder_'
'wm'
'wl'
'wheat_'
'wellbeing_'
'wasn_'
'warrants_'
'warn_'
'vintage_'
'vibrates_'
'vertically_'
'verbatim_'
'venus_'
'vegan_'
'uploads_'
'unfollowed_'
'understood_'
'turbo_'
'tri'
'travelers_'
'tra'
'tomato_'
'tnt_'
'tmz_'
'timers_'
'ti'
'throw_'
'threaten_'
'the'
'tense_'
'temps_'
'tempo_'
'temp_'
'taiwan_'
't2_'
'são_'
'suspicious_'
'suggests_'
'studios_'
'studied_'
'stretching_'
'strange_'
'stacked_'
'st'
'spicy_'
'spelling_'
'specifies_'
'sneaker_'
'snacks_'
'sl_'
'skyline_'
'sis_'
'sioux_'
'singh_'
'sight_'
'sie_'
'shooter_'
'shippuden_'
'shaking_'
'sac_'
's4_'
'ruler_'
'rt'
'rss_'
'română_'
'rome_'
'resurrection_'
'republican_'
'repost_'
'replacing_'
'reminded_'
'reaches_'
'qa'
'pump_'
'puerto_'
'prod_'
'powder_'
'potty_'
'popularity_'
'pln_'
'philippines_'
'pandora_'
'outdoors_'
'operates_'
'opengameart_'
'onedrive_'
'on'
'odometer_'
'od'
'número_'
'noche_'
'ning_'
'nhắn_'
'nhật_'
'nes_'
'ned_'
'navy_'
'mydol_'
'museum_'
'murder_'
'motorcycle_'
'midi_'
'mi'
'meta_'
'meds_'
'mbar_'
'majority_'
'lovers_'
'louis_'
'layouts_'
'lay_'
'kingroot_'
'kilometers_'
'judicial_'
'jou_'
'joke_'
'jean_'
'je'
'jar_'
'irregular_'
'iq_'
'involving_'
'involves_'
'inventory_'
'inter'
'ing'
'ind_'
'immediate_'
'imagine_'
'im'
'hungarian_'
'hu_'
'html5_'
'hotspots_'
'ho'
'hin'
'hersheypark_'
'hazard_'
'haptics_'
'hacker_'
'habitación_'
'gri'
'goaltender_'
'globe_'
'gems_'
'gameday_'
'funding_'
'fund_'
'fullest_'
'fortune_'
'fonts_'
'flower_'
'flora_'
'falling_'
'fabric_'
'expressing_'
'experts_'
'enterprise_'
'enforced_'
'emirates_'
'eli'
'eifrig_'
'ecu_'
'earnings_'
'eagle_'
'duplication_'
'domains_'
'disaster_'
'director_'
'diapers_'
'dialing_'
'developing_'
'dessert_'
'denied_'
'delivers_'
'delicious_'
'de'
'cuenta_'
'cu'
'cristo_'
'cr'
'costa_'
'contacting_'
'constantly_'
'confess_'
'completion_'
'comparison_'
'companion_'
'commonly_'
'committed_'
'collaborate_'
'cinema_'
'chuck_'
'chopped_'
'childhood_'
'chiefs_'
'char_'
'cb_'
'catarina_'
'cardinals_'
'captured_'
'cape_'
'campus_'
'bu'
'brunch_'
'briefly_'
'bo_'
'blues_'
'blessed_'
'bis_'
'bhk_'
'beverages_'
'bengals_'
'beneficiaries_'
'belong_'
'bcc_'
'baking_'
'babycenter_'
'ba'
'awards_'
'aus'
'audiobook_'
'attraction_'
'ast_'
'appy_'
'ans_'
'angle_'
'analog_'
'amino_'
'amend_'
'ages_'
'ag'
'aforementioned_'
'adb_'
'accord_'
']/._'
'8k_'
'8h_'
'6k_'
'67'
'66'
'6009_'
'5m_'
'599_'
'511_'
'4f'
'46'
'4153402067_'
'3d'
'299_'
'2255_'
'219_'
'1984_'
'186_'
'166_'
'159_'
'12h_'
'12'
'10p_'
'107_'
'00'
'...'
'*/_'
');_'
'))) ?_'
' = "_'
' ; _'
' % _'
' # _'
'﻿_'
'_'
'_'
'_'
'저'
'의'
'오'
'美'
'線_'
'来'
'日'
'我'
'コ'
'な'
'き'
'→_'
'→ _'
'•	_'
'ღ_'
'ั่_'
'ค_'
'ி_'
'த_'
'ष_'
'आ'
'ّ_'
'ً _'
'واحد_'
'ل'
'ق_'
'ف'
'ج'
'تابع_'
'қ_'
'ча'
'р'
'лик_'
'ки'
'им_'
'ва_'
'đăng_'
'í'
'ção_'
'zu'
'zodiac_'
'x'
'womens_'
'wo'
'wing_'
'wc'
'war'
'vol_'
'vitals_'
'villa_'
'vietnam_'
'veg_'
'unlocking_'
'ul_'
'uh_'
'ua'
'tv'
'turkish_'
'turbotax_'
'tunnel_'
'treated_'
'tracked_'
'todo_'
'tjh_'
'tive_'
'tissue_'
'tired_'
'tipping_'
'tie_'
'thru_'
'ters_'
'terror_'
'terminates_'
'telos_'
'tee_'
'technique_'
'tattoo_'
'tar_'
'tar'
'tan'
'tampa_'
'tal_'
'sydney_'
'switched_'
'surf_'
'suffer_'
'strategies_'
'steward_'
'sterling_'
'statistical_'
'ss'
'speaks_'
'spaces_'
'southeast_'
'solo_'
'singles_'
'simultaneously_'
'simon_'
'shut_'
'shrimp_'
'shade_'
'seu_'
'set'
'script_'
'scaling_'
'salesman_'
'sakin_'
'ryan_'
'roller_'
'ringing_'
'retro_'
'religious_'
'relied_'
'relevance_'
'reduced_'
'redirect_'
'reconnect_'
'recognized_'
'rebates_'
'reality_'
'rc'
'rash_'
'rack_'
'ques_'
'pueblo_'
'psiphon_'
'ps4_'
'prohibition_'
'progressive_'
'prevents_'
'pretzel_'
'precious_'
'pr'
'post'
'ports_'
'porque_'
'poker_'
'planetromeo_'
'ph'
'pertaining_'
'perk_'
'perhaps_'
'pedro_'
'pct_'
'partnership_'
'papa_'
'pants_'
'panic_'
'panels_'
'palringo_'
'pakistan_'
'packed_'
'ox_'
'owl_'
'ory_'
'or'
'opinions_'
'ohio_'
'numbersmatter2me_'
'nit'
'nd'
'nb_'
'mới_'
'mu_'
'mount_'
'monkey_'
'monitors_'
'minus_'
'mild_'
'mic_'
'miami_'
'memowidget_'
'mcdonald_'
'maverik_'
'matrixfunctions_'
'mate_'
'matchday_'
'managing_'
'logic_'
'locale_'
'livestock_'
'lining_'
'lerner_'
'lemons_'
'lei_'
'legality_'
'leaderboard_'
'lap_'
'lan'
'kstp_'
'kings_'
'kicks_'
'ken_'
'kc_'
'justice_'
'jumping_'
'judgment_'
'judges_'
'janeiro_'
'jac_'
'ized_'
'intelligence_'
'integrated_'
'insider_'
'inline_'
'idealo_'
'ica_'
'ia'
'hq_'
'hosting_'
'honestly_'
'highs_'
'hereinafter_'
'hell_'
'headers_'
'headache_'
'harmony_'
'handheld_'
'hallo_'
'hace_'
'ha'
'gs'
'grouping_'
'grill_'
'green'
'grayscale_'
'glance_'
'george_'
'functional_'
'ft'
'frontier_'
'fried_'
'fraudulent_'
'forwarded_'
'fort_'
'forecasts_'
'fleet_'
'flashes_'
'findnum_'
'federation_'
'fallen_'
'exo_'
'execute_'
'excludes_'
'excited_'
'et'
'es'
'enjin_'
'endorsement_'
'ems_'
'elegy_'
'egypt_'
'dubstep_'
'ds'
'drw_'
'disclosed_'
'difficulty_'
'detroit_'
'declared_'
'dd_'
'dar'
'dan'
'curious_'
'css_'
'council_'
'coping_'
'conveyed_'
'converse_'
'contest_'
'confused_'
'concepts_'
'compile_'
'co'
'closest_'
'cleared_'
'classified_'
'circumference_'
'ciones_'
'cigarettes_'
'chill_'
'chi'
'chevrolet_'
'cheap_'
'chant_'
'century_'
'celtics_'
'cd'
'cc'
'cb'
'carezone_'
'calculators_'
'cada_'
'bật_'
'burger_'
'brush_'
'browsers_'
'browns_'
'broncos_'
'blindness_'
'bitmoji_'
'bicycle_'
'bet_'
'berry_'
'behold_'
'bd_'
'bacon_'
'assumes_'
'assists_'
'ants_'
'anderson_'
'and'
'anatomy_'
'ain_'
'aha_'
'aggregated_'
'adobe_'
'acoustic_'
'acid_'
'accumulation_'
'accommodations_'
'aaa_'
'>>_'
'=========================================================================_'
';&_'
': “_'
'8pm_'
'84'
'7th_'
'72'
'70s_'
'70'
'676_'
'5s_'
'5pm_'
'53'
'51'
'4h_'
'40'
'345_'
'330_'
'326_'
'301_'
'2d_'
'27'
'266_'
'243_'
'225_'
'211_'
'1986_'
'188_'
'17th_'
'177_'
'160'
'156_'
'154_'
'128'
'114_'
'11'
'10m_'
'05'
'03'
'************************************************************************_'
'*    "_'
'$)_'
'": _'
' ;)_'
' ), _'
'   *_'
'_'
'_'
'해'
'시간_'
'스'
'되는_'
'동'
'市'
'地'
'ㆍ_'
'り'
'お'
'►_'
'— _'
'የ'
'መ'
'า'
'ข_'
'र'
'نكت_'
'أ_'
'ء_'
'ю_'
'ь'
'т'
'ра'
'że_'
'ó'
'zo_'
'z'
'ws'
'wonderful_'
'womanlog_'
'wins_'
'williams_'
'weird_'
'wechat_'
'weak_'
'vouchers_'
'voip_'
'viii_'
'victor_'
'vi'
'venmo_'
'utd_'
'uruguay_'
'upto_'
'unlink_'
'universe_'
'unified_'
'unexpected_'
'ugly_'
'términos_'
'typed_'
'twins_'
'twenty_'
'tte_'
'treble_'
'transform_'
'tom'
'tires_'
'tin'
'tides_'
'thin_'
'texted_'
'terdapat_'
'ter'
'teeth_'
'teachers_'
'taxi_'
'tape_'
'tall_'
'tables_'
'syarat_'
'swimming_'
'sweater_'
'surat_'
'sur_'
'suitability_'
'subreddits_'
'sub'
'strongly_'
'sticks_'
'sti'
'stacks_'
'squirrel_'
'springs_'
'sponsor_'
'son'
'sneakers_'
'smoked_'
'sketch_'
'shirts_'
'shalt_'
'ses_'
'servicio_'
'sees_'
'secured_'
'secs_'
'scientific_'
'sandwiches_'
'rx_'
'riding_'
'revision_'
'revise_'
'rev_'
'retained_'
'repeatedly_'
'repeated_'
'ren_'
'relay_'
'reinstated_'
'rebate_'
'rankings_'
'ranch_'
'raised_'
'railway_'
'quitting_'
'qualifying_'
'qualified_'
'publications_'
'pronunciation_'
'priced_'
'potato_'
'polaris_'
'po_'
'playhead_'
'plane_'
'perks_'
'penggunaan_'
'pedometer_'
'patch_'
'paso_'
'partly_'
'panthers_'
'owns_'
'outline_'
'outage_'
'our'
'organ_'
'op_'
'onal_'
'offerings_'
'odds_'
'oa'
'northeast_'
'nh_'
'new'
'net'
'ne'
'nbc_'
'mymo_'
'multi'
'mt_'
'mortgage_'
'mobile'
'mis_'
'mint_'
'minister_'
'mil'
'mes_'
'maverick_'
'matched_'
'marvel_'
'mal'
'luis_'
'luggage_'
'love'
'losing_'
'lon_'
'lo'
'lla_'
'literature_'
'literally_'
'linha_'
'ligue_'
'licenser_'
'lectura_'
'leak_'
'leadership_'
'launching_'
'lasts_'
'lar'
'ks'
'kon'
'kitten_'
'karen_'
'jury_'
'judge_'
'jennifer_'
'jehovah_'
'jacket_'
'itu_'
'irish_'
'inviting_'
'installs_'
'injured_'
'infringements_'
'ilan_'
'ig_'
'ib'
'hy_'
'humor_'
'hpa_'
'hotmail_'
'horoscopes_'
'hopefully_'
'honduras_'
'homemade_'
'holds_'
'heating_'
'healing_'
'hawaii_'
'handset_'
'hail_'
'gross_'
'graphs_'
'gr_'
'gon_'
'gm'
'ging_'
'gh'
'gfycat_'
'gen'
'gauge_'
'gal_'
'fx_'
'frequencies_'
'formal_'
'foreground_'
'fog_'
'flexible_'
'flashing_'
'finnish_'
'finals_'
'films_'
'filename_'
'federally_'
'fav_'
'fate_'
'fancy_'
'exterior_'
'ext_'
'explain_'
'expire_'
'experimental_'
'expensive_'
'exiting_'
'exists_'
'everybody_'
'er'
'equitable_'
'engaging_'
'endpoint_'
'ena'
'elk_'
'elizabeth_'
'efesios_'
'durante_'
'ducks_'
'dragons_'
'dozens_'
'doubler_'
'doc_'
'dizziness_'
'discovered_'
'disagree_'
'diaro_'
'dg'
'dfars_'
'df'
'defeat_'
'debug_'
'dc'
'damaged_'
'dal_'
'cập_'
'customizable_'
'cuisine_'
'cs'
'crunch_'
'crafting_'
'cotton_'
'cooler_'
'conformity_'
'condiciones_'
'concord_'
'conceived_'
'compensation_'
'colorful_'
'coin_'
'coding_'
'closes_'
'chu'
'chi_'
'che'
'chau_'
'chatrooms_'
'cf'
'cashback_'
'casa_'
'bản_'
'bulls_'
'bs'
'breastfeeding_'
'bob_'
'blur_'
'block'
'bikini_'
'bigroad_'
'bi'
'basket_'
'baked_'
'años_'
'azerbaijan_'
'audio'
'attract_'
'ass_'
'ascending_'
'aruba_'
'arrested_'
'arrange_'
'aplicación_'
'angels_'
'andromeda_'
'alphabetically_'
'alle_'
'ali_'
'ali'
'air'
'ado_'
'adjusted_'
'adequate_'
'adalah_'
'achieved_'
'ach_'
'abnormal_'
'abilities_'
'=&_'
'<<"..######..\\_'
':)_'
'990_'
'98'
'92'
'90hz_'
'88'
'80s_'
'7k_'
'79'
'765_'
'666_'
'54'
'49'
'45pm_'
'32'
'290_'
'280_'
'239_'
'22'
'1y_'
'1min_'
'1985_'
'1980_'
'1800_'
'172_'
'17'
'164_'
'163_'
'1600_'
'14'
'100'
'0s_'
'011111111110_'
'0000_'
'//    * _'
'/._'
'/, _'
'.” (_'
'...._'
'..#.......\\_'
'. #_'
'-> _'
'--'
'++ _'
'*'
') _'
')  _'
'$$_'
'" "_'
'!"_'
' € _'
' ;_'
' --_'
'  •  _'
'      _'
'～_'
'ﻤ_'
'_'
'회원에게_'
'회원_'
'회원'
'하지_'
'원_'
'설정_'
'서'
'분'
'본_'
'리'
'다'
'구'
'路'
'是'
'你'
'も'
'ま'
'け'
'★★★★★_'
'● _'
'● _'
'ን_'
'โ'
'แ'
'า_'
'อง'
'ত_'
'ए_'
'ً_'
'ي'
'ون_'
'وا_'
'وا'
'ما_'
'عن_'
'عليها_'
'ش'
'س'
'د'
'ات_'
'ב'
'қо'
'ти_'
'сиз_'
'с'
'по'
'первоначальный_'
'от'
'мо'
'мас_'
'и'
'до_'
'д_'
'г_'
'взнос_'
'ċ'
'ü'
'ú'
'â'
'»_'
'zu_'
'zi'
'zd'
'yu'
'yt'
'ys'
'yielding_'
'yeah_'
'xo'
'xe'
'wwe_'
'wps_'
'worried_'
'wooden_'
'wise_'
'wisdom_'
'wired_'
'winds_'
'wholesale_'
'wheels_'
'weigh_'
'weekdays_'
'webmd_'
'waveform_'
'ward_'
'votre_'
'voted_'
'von_'
'vn'
'vl'
'visualdx_'
'vikings_'
'viewfinder_'
'vida_'
'victory_'
'ves_'
'versión_'
'vent_'
'vector_'
'vanilla_'
'upgraded_'
'up'
'uma_'
'ul'
'tâm_'
'tying_'
'tumblr_'
'tter_'
'tribes_'
'treaty_'
'travellers_'
'traffickcam_'
'tourist_'
'totally_'
'token_'
'tn'
'tm_'
'tinder_'
'timely_'
'thunder_'
'threshold_'
'themed_'
'text'
'terrorist_'
'territories_'
'terminology_'
'tenses_'
'tend_'
'technological_'
'tangible_'
'tai_'
'taco_'
'sz'
'swap_'
'sus_'
'surprises_'
'supreme_'
'struggling_'
'stra'
'storie_'
'stingray_'
'steve_'
'steady_'
'ssi'
'sqft_'
'splashtop_'
'spider_'
'sourced_'
'sound'
'sonic_'
'soma_'
'som'
'solstice_'
'sololearn_'
'sobriety_'
'smf_'
'slate_'
'slack_'
'singer_'
'shi'
'she'
'shawn_'
'sexy_'
'sesión_'
'sentences_'
'sen_'
'se'
'sd'
'scoreboard_'
'sci_'
'sc_'
'satellites_'
'sarai_'
'sarah_'
'sandwich_'
'salvador_'
'sacramento_'
'runkeeper_'
'royal_'
'routines_'
'robert_'
'rider_'
'rica_'
'reveals_'
'respecting_'
'requesting_'
'reputation_'
'repetitions_'
'relations_'
'reducing_'
'redeemed_'
'reaching_'
'randomly_'
'rand_'
'quotations_'
'qui_'
'queries_'
'pulling_'
'protocols_'
'proposed_'
'promos_'
'projected_'
'profession_'
'processes_'
'proc_'
'pro'
'prints_'
'principle_'
'prescribed_'
'preloading_'
'prejudice_'
'prefix_'
'precision_'
'pou_'
'po'
'ple'
'pl_'
'pl'
'photograph_'
'phonetic_'
'peter_'
'peanut_'
'parker_'
'parked_'
'panorama_'
'pan'
'packaging_'
'outfits_'
'originals_'
'ordinary_'
'optimal_'
'op'
'oops_'
'omission_'
'olive_'
'obd_'
'nos_'
'ninth_'
'newbie_'
'ncl_'
'nationality_'
'n5_'
'myr_'
'mynum_'
'mylowe_'
'myfitnesspal_'
'mxn_'
'ms'
'morrison_'
'mor'
'monster_'
'modtv_'
'mobiwia_'
'mixpanel_'
'midnight_'
'merged_'
'memorial_'
'memoji_'
'memo_'
'memes_'
'mas_'
'maryland_'
'married_'
'mari'
'man'
'magical_'
'mad_'
'lync_'
'ly'
'ls'
'lowe_'
'lou_'
'loses_'
'lm'
'lived_'
'lin_'
'licensees_'
'leblon_'
'leaders_'
'lauralee_'
'landline_'
'lak'
'kuala_'
'knock_'
'kk'
'kik_'
'khi_'
'ker'
'ke'
'kanałów_'
'jp_'
'jo'
'jar'
'jam_'
'ja'
'ita_'
'issuer_'
'iss_'
'ish_'
'ireland_'
'ir'
'iowa_'
'invest_'
'intend_'
'intake_'
'insured_'
'ingredient_'
'incl_'
'importing_'
'ime_'
'ile_'
'ial_'
'ht'
'hot'
'honored_'
'holdings_'
'hire_'
'higi_'
'hh'
'heroes_'
'her'
'headspace_'
'heads_'
'hazards_'
'handy_'
'handled_'
'grouped_'
'groceries_'
'greg_'
'graphical_'
'go'
'glob_'
'ginger_'
'gh_'
'ge'
'gay_'
'gathering_'
'gather_'
'gar'
'galleries_'
'ga'
'fries_'
'forcing_'
'forced_'
'fone_'
'fluid_'
'flo'
'fisherman_'
'finland_'
'fingerprints_'
'fille_'
'fc'
'favoritos_'
'fanfiction_'
'failures_'
'exposed_'
'exploring_'
'explanations_'
'explanation_'
'experiencing_'
'executing_'
'estimates_'
'erroneous_'
'eri'
'equinox_'
'eo'
'entirety_'
'ens_'
'enforcing_'
'endless_'
'encrypt_'
'emailed_'
'elige_'
'edt_'
'ec'
'ease_'
'earliest_'
'eagles_'
'día_'
'dy'
'dur'
'dun'
'drain_'
'discussed_'
'dhabi_'
'deuteronomy_'
'determines_'
'destroyed_'
'designing_'
'descriptions_'
'dental_'
'defence_'
'deer_'
'dcoder_'
'dans_'
'dailymotion_'
'có_'
'custody_'
'ct'
'css3_'
'cru'
'cropped_'
'cro'
'cp'
'contracts_'
'consecutive_'
'conditioning_'
'concern_'
'compra_'
'compliant_'
'commission_'
'commercially_'
'color'
'closings_'
'cl_'
'cl'
'ck'
'cia_'
'ci_'
'ci'
'ces_'
'castro_'
'caribbean_'
'careful_'
'carbohydrates_'
'car'
'capabilities_'
'cant_'
'campaigns_'
'cabinet_'
'bypass_'
'buses_'
'burned_'
'bur'
'buds_'
'bs_'
'bringing_'
'bridesmaid_'
'br'
'boy'
'bleeding_'
'birthdate_'
'beneficiary_'
'behaviour_'
'be'
'batch_'
'bar'
'ban'
'balances_'
'backgrounds_'
'autodesk_'
'audience_'
'auch_'
'ates_'
'atas_'
'astigmatism_'
'assurance_'
'appointed_'
'applying_'
'applock_'
'app'
'ano_'
'animoji_'
'andromo_'
'ana'
'amsterdam_'
'ally_'
'alice_'
'alerting_'
'akan_'
'ahmedabad_'
'af'
'advisory_'
'ados_'
'acu'
'ace'
'accused_'
'` _'
']] _'
'[[_'
'9m_'
'8th_'
'8a_'
'823_'
'69'
'667_'
'5th_'
'57'
'4x4_'
'499_'
'45p_'
'44'
'4155791543_'
'3a_'
'38'
'33'
'320_'
'30m_'
'300'
'2x_'
'275_'
'252_'
'229_'
'224_'
'20m_'
'209_'
'206_'
'1983_'
'1982_'
'164'
'162_'
'157_'
'1500_'
'124_'
'120'
'11am_'
'10u_'
'10h_'
'0m_'
'07'
'05h_'
'002_'
'000000011000_'
'/#_'
'....##....\\_'
'..######..\\_'
'.), _'
'. 	_'
'-	_'
', & _'
'* '
'()_'
'#'
' ☕_'
' №_'
' ~ _'
' | -_'
' {_'
' .) _'
'     ( _'
'ﻠ_'
'ﻟ_'
'_'
'_'
'_'
'_'
'하거나_'
'중'
'일_'
'이용약관_'
'소설_'
'반'
'된_'
'내_'
'浏览_'
'最'
'家'
'好_'
'了_'
'⚫ _'
'※_'
'”. _'
'” (_'
'์ _'
'ล'
'ป_'
'ল_'
'র_'
'ो _'
'ण_'
'ْ _'
'وقال_'
'ه'
'نبض_'
'ر'
'ب'
'الل_'
'الر_'
'מ'
'ҳар_'
'ҳам_'
'эмас_'
'ту'
'те_'
'нима_'
'ни'
'н'
'л'
'иш'
'ги'
'в'
'билет_'
'бе'
'č'
'ów_'
'è'
'ß'
'} _'
'zin'
'zealand_'
'yemen_'
'xml_'
'xi'
'wxyz_'
'wtoc_'
'wouldn_'
'worlds_'
'womb_'
'woke_'
'witch_'
'william_'
'wellness_'
'wedges_'
'wdt_'
'watcher_'
'warmer_'
'wan_'
'walkie_'
'volunteers_'
'vii_'
'vice_'
'ver'
'velocity_'
'variables_'
'v5_'
'uzbekistan_'
'usable_'
'ures_'
'ure_'
'unlocks_'
'unity_'
'unfair_'
'underlying_'
'unanswered_'
'um'
'tvs_'
'trolley_'
'trojan_'
'trials_'
'trenitalia_'
'travels_'
'trackers_'
'trace_'
'tony_'
'tomatoes_'
'toland_'
'tk'
'tether_'
'teaching_'
'tariff_'
'tale_'
'taker_'
'tablespoons_'
'są_'
'syndrome_'
'swing_'
'supplemental_'
'suomi_'
'sudden_'
'stuffed_'
'strap_'
'steel_'
'spok_'
'spo'
'species_'
'specialties_'
'spa_'
'sounders_'
'sos_'
'sor'
'sodium_'
'snaps_'
'smashwords_'
'smarthotel_'
'sky'
'showbox_'
'shorts_'
'sharp_'
'settled_'
'sen'
'secretary_'
'screening_'
'scored_'
'sau'
'santos_'
'saga_'
's1_'
'ry'
'rut_'
'rub_'
'rr'
'rows_'
'rouge_'
'rogue_'
'roadside_'
'rn_'
'ris'
'ria_'
'revealed_'
'reuters_'
'residents_'
'rer_'
'relaunch_'
'rei'
'referenced_'
'redo_'
'recovered_'
'recognizes_'
'reaction_'
're'
'rare_'
'ranger_'
'ral'
'raj_'
'railways_'
'radios_'
'ra'
'quarterly_'
'qu'
'qty_'
'qt_'
'putting_'
'puk_'
'publishing_'
'protects_'
'pp'
'polls_'
'poke_'
'plugged_'
'pleasant_'
'plates_'
'placing_'
'pit_'
'pinning_'
'picked_'
'phases_'
'personnel_'
'pers'
'permits_'
'peppers_'
'pegasus_'
'pcre_'
'país_'
'parliament_'
'pals_'
'palettes_'
'pads_'
'owed_'
'ow'
'overwrite_'
'ours_'
'ort_'
'orioles_'
'organizational_'
'ops_'
'open'
'onions_'
'onclick_'
'ona'
'oh'
'oder_'
'novo_'
'notificaciones_'
'noticed_'
'noom_'
'nm_'
'nl'
'niveau_'
'nh'
'newsfeed_'
'news'
'neighbor_'
'negotiable_'
'navigational_'
'nacional_'
'muslim_'
'multiply_'
'mountains_'
'mn'
'mira'
'minutos_'
'mindfulness_'
'microfiber_'
'michigan_'
'metrics_'
'mermaid_'
'mente_'
'mens_'
'mechanism_'
'measured_'
'me'
'mcafee_'
'mayor_'
'matthew_'
'maternity_'
'marco_'
'marca_'
'mammoth_'
'mama_'
'malware_'
'lv_'
'luxury_'
'luke_'
'lover_'
'log'
'lodge_'
'local'
'linear_'
'lib'
'leb'
'learnenglish_'
'leaf_'
'leaderboards_'
'ld'
'laugh_'
'lacs_'
'lacelle_'
'ku_'
'kitty_'
'kirby_'
'khan_'
'kennedy_'
'kb'
'kal'
'jungle_'
'js_'
'js'
'joyce_'
'jingle_'
'iz'
'iti'
'islamic_'
'irrevocably_'
'iphoneswitchofficon_'
'iphones_'
'inverted_'
'interpretation_'
'inspire_'
'inspiration_'
'innovative_'
'indycar_'
'indefinitely_'
'ina_'
'in'
'ima'
'ili'
'il'
'ik'
'iglesia_'
'ield_'
'idioms_'
'ida_'
'ic'
'hwy_'
'hostname_'
'hospitals_'
'horrible_'
'hood_'
'homework_'
'hola_'
'hockey_'
'hen'
'hd'
'hate_'
'hasn_'
'harass_'
'har'
'hanging_'
'handbags_'
'halal_'
'hal_'
'hackers_'
'guru_'
'gt_'
'greyhound_'
'gr'
'glympse_'
'gizmohub_'
'gg'
'gently_'
'generating_'
'gare_'
'fundamentals_'
'fucking_'
'freeze_'
'forbidden_'
'for'
'fo'
'flyer_'
'flu'
'firmament_'
'filtered_'
'ff'
'fen'
'fee'
'fed_'
'fe80_'
'fares_'
'facial_'
'expiring_'
'eu'
'erg_'
'era'
'employment_'
'embryo_'
'elsewhere_'
'elite_'
'ef'
'eduroam_'
'edges_'
'ed'
'earphones_'
'dziecko_'
'dw'
'duties_'
'dru'
'divert_'
'distributes_'
'dingtone_'
'differently_'
'dictionaries_'
'dia'
'di'
'descending_'
'dem'
'ded_'
'deaf_'
'datally_'
'da'
'customization_'
'customise_'
'cultural_'
'cry_'
'crispy_'
'cre'
'crashing_'
'crab_'
'coyote_'
'covering_'
'counts_'
'cortana_'
'corners_'
'contractor_'
'contra_'
'contacted_'
'compression_'
'competitor_'
'comp_'
'comicrack_'
'combo_'
'collective_'
'col'
'code'
'cocktail_'
'clo'
'cle'
'civic_'
'circumstance_'
'cho'
'chemical_'
'checkboxes_'
'charity_'
'chargers_'
'celebrities_'
'celebrate_'
'caution_'
'careers_'
'canyon_'
'canadian_'
'cambridge_'
'call'
'calf_'
'bye_'
'busybox_'
'bunny_'
'buildings_'
'broadcasting_'
'breathe_'
'breaches_'
'brazilian_'
'boo'
'bond_'
'blurred_'
'blow_'
'blocklauncher_'
'blink_'
'blind_'
'ble'
'bit'
'bing_'
'bib_'
'belarus_'
'bd'
'balloon_'
'baker_'
'ay'
'awareness_'
'avocado_'
'aux_'
'autumn_'
'attempting_'
'atmosphere_'
'astro_'
'assembly_'
'ase_'
'arrests_'
'arcturus_'
'ara'
'appreciated_'
'appeal_'
'antivirus_'
'antichat_'
'antarctica_'
'anna_'
'ann_'
'animate_'
'ane'
'andromoney_'
'analyzer_'
'am'
'alteration_'
'alliance_'
'alignment_'
'ale'
'ala'
'aka_'
'ag_'
'advisors_'
'advise_'
'advertiser_'
'adverb_'
'actor_'
'accurately_'
'accounting_'
'abdomen_'
'?"_'
'877_'
'7am_'
'74'
'68'
'672_'
'60'
'5d_'
'59'
'588_'
'55'
'510_'
'4gb_'
'48'
'455_'
'450_'
'435_'
'399_'
'34'
'333_'
'323_'
'315_'
'29'
'28'
'231_'
'226_'
'204_'
'200'
'1970_'
'196'
'189_'
'11h_'
'0k_'
'09'
'08'
'02'
'01h_'
'00000_'
'.*_'
'." '
'. $_'
'->_'
'''_'
'' '
'''
'!" _'
' ``_'
' `_'
' […]_'
' ,_'
' ( + ) _'
'  - _'
'📍_'
'_'
'_'
'_'
'화_'
'해_'
'크'
'청'
'여'
'양'
'아이디_'
'배'
'무'
'들'
'드'
'동의_'
'당사의_'
'내'
'공'
'这'
'西'
'行'
'東'
'日_'
'ホーム_'
'る_'
'から'
'う'
'♪_'
'▶_'
'℗ _'
'…'
'‏‏_'
'በ'
'ั้_'
'ย_'
'ย'
'ผ_'
'ต'
'ें _'
'ल'
'ब'
'ध_'
'ٱﻟ_'
'ص'
'ري'
'را'
'الا'
'ר'
'ו'
'ה_'
'א'
'ҳа'
'ые_'
'ча_'
'ти'
'т_'
'ри'
'ре'
'п'
'не'
'на'
'ин_'
'з_'
'ер_'
'до'
'для_'
'ган_'
'ва'
'ади_'
'čeština_'
'ą_'
'ā'
'ías_'
'é'
'ài_'
'´_'
'zoltan_'
'yêu_'
'yw'
'yun'
'yummly_'
'yrs_'
'yesus_'
'yearly_'
'yc'
'xs_'
'ww'
'wpc_'
'woods_'
'wk'
'wind'
'wil'
'wharf_'
'weekends_'
'wealth_'
'watermelon_'
'water'
'ware_'
'walker_'
'vos_'
'vor'
'voluntary_'
'volumes_'
'volta_'
'vo_'
'vk_'
'village_'
'victims_'
'viajes_'
'venture_'
'variable_'
'utorrent_'
'usc_'
'ura_'
'unused_'
'untitled_'
'unsolicited_'
'unregistered_'
'uno_'
'unmodified_'
'uni'
'understands_'
'unchanged_'
'ultrasound_'
'u19_'
'tz_'
'tz'
'ty'
'twist_'
'tw'
'tryout_'
'trinity_'
'treasury_'
'transmitting_'
'transitions_'
'tp_'
'tor'
'top'
'tokens_'
'toilet_'
'todas_'
'telecommunications_'
'tc'
'tbsp_'
'tasty_'
'también_'
'talkie_'
'tab'
'synopsis_'
'svip_'
'supportive_'
'supplier_'
'supl_'
'summit_'
'stylish_'
'studies_'
'struggle_'
'strava_'
'stranger_'
'steal_'
'staub_'
'statistic_'
'stat_'
'starter_'
'sportscenter_'
'sporting_'
'spoke_'
'specially_'
'spe'
'spc_'
'sparseextra_'
'sparse'
'sou'
'solving_'
'solved_'
'soft'
'soda_'
'so'
'snoring_'
'snapshot_'
'snake_'
'sn'
'smartwatch_'
'sliding_'
'skies_'
'simmons_'
'sim'
'sil'
'signatures_'
'shoot_'
'sho'
'shelf_'
'sg_'
'sg'
'seventh_'
'setattribute_'
'semi_'
'segment_'
'sed_'
'scratch_'
'scoring_'
'sco'
'scanbizcards_'
'sb'
'santiago_'
'sanctions_'
'saints_'
's2_'
'rádio_'
'rw_'
'russell_'
'rubies_'
'routing_'
'rop_'
'roosevelt_'
'ronaldo_'
'roma_'
'rolls_'
'rollout_'
'rk'
'ridge_'
'rid_'
'richmond_'
'revoke_'
'ret'
'restricting_'
'restaurantes_'
'resetting_'
'researchers_'
'ren'
'registers_'
'reduction_'
'reciter_'
'reception_'
'reboots_'
'reb_'
'rd'
'ras'
'rage_'
'racing_'
'queensland_'
'qibla_'
'pусский_'
'puppy_'
'pu'
'proven_'
'promises_'
'pride_'
'prescription_'
'preinstalled_'
'pre'
'potentially_'
'pot_'
'portland_'
'pon'
'polski_'
'pod'
'pmdspd_'
'planes_'
'pico_'
'ph_'
'persian_'
'permissive_'
'pe'
'pc'
'pat'
'passing_'
'particularly_'
'participation_'
'par_'
'palette_'
'packetmath_'
'pac'
'ovia_'
'overlays_'
'oregon_'
'ora'
'optimizer_'
'opposition_'
'opposite_'
'opponent_'
'opera_'
'oo'
'ona_'
'om_'
'om'
'ol'
'oklahoma_'
'obscure_'
'obligated_'
'obe'
'nur_'
'num_'
'ntes_'
'noun_'
'nou_'
'notifies_'
'nn_'
'nighttime_'
'nightly_'
'nhập_'
'ngữ_'
'nederlands_'
'nder_'
'ncua_'
'ncep_'
'nasty_'
'nas_'
'nagar_'
'n1'
'méxico_'
'mypara_'
'munich_'
'multiplication_'
'mu'
'motivation_'
'morocco_'
'moods_'
'montana_'
'monaco_'
'mo'
'misrepresentation_'
'min'
'milan_'
'met'
'merciful_'
'mercedes_'
'mer_'
'mentioning_'
'menor_'
'menggunakan_'
'memos_'
'md'
'mattresses_'
'massive_'
'manga'
'mala'
'mal_'
'magyar_'
'maaii_'
'ma'
'lumpur_'
'lumia_'
'lu'
'loans_'
'ln'
'liverpool_'
'live'
'lions_'
'lincoln_'
'lin'
'lgb_'
'let'
'les'
'lenses_'
'lang'
'lam'
'lain_'
'kou'
'kor'
'kod_'
'kita_'
'kgs_'
'kc'
'kate_'
'karma_'
'junk_'
'junction_'
'josh_'
'joseph_'
'jon'
'jobcase_'
'jn_'
'ji_'
'ji'
'jes'
'jacobisvd_'
'ix_'
'itu'
'ite_'
'italic_'
'ira_'
'iphoneswitchonicon1_'
'ip'
'investigating_'
'insta'
'insights_'
'insight_'
'insertion_'
'injunctive_'
'indicators_'
'indica_'
'indecent_'
'immobilization_'
'hungry_'
'hpcdiscussions_'
'howard_'
'hover_'
'householder_'
'horses_'
'horizon_'
'hor'
'holo_'
'hoa_'
'hnl_'
'historical_'
'hips_'
'hip'
'hills_'
'highpitched_'
'hi'
'herzegovina_'
'herczeg_'
'helper_'
'handwriting_'
'ham'
'halfway_'
'guard_'
'gu'
'grounds_'
'gratitude_'
'gradually_'
'governs_'
'gor'
'gli'
'glad_'
'gla'
'gl_'
'gk_'
'gigs_'
'ger'
'geo'
'gc'
'garçon_'
'gar_'
'gallons_'
'fè_'
'ftp_'
'fs_'
'formerly_'
'formats_'
'footer_'
'float_'
'flipboard_'
'flexibility_'
'flex_'
'fits_'
'finances_'
'favs_'
'fault_'
'expansion_'
'excuse_'
'evaluating_'
'ethnicity_'
'ete'
'estonian_'
'ese_'
'epl_'
'entree_'
'ene'
'embrace_'
'em'
'eligibility_'
'elect_'
'ele'
'ei'
'egyptian_'
'ect'
'eco_'
'ecg_'
'eb_'
'du'
'dt'
'dropping_'
'dramatic_'
'dozen_'
'downgrade_'
'dow_'
'dominic_'
'do'
'dive_'
'dit_'
'distinct_'
'dis'
'dirty_'
'dir_'
'dietary_'
'detox_'
'deserve_'
'des'
'deputy_'
'def'
'decides_'
'debt_'
'dd'
'dalam_'
'dakota_'
'cvs_'
'cubs_'
'cst_'
'csn_'
'crunches_'
'cristiano_'
'creeps_'
'creeping_'
'creativity_'
'corrections_'
'corn_'
'controversial_'
'contemporary_'
'considering_'
'connector_'
'confusion_'
'concacaf_'
'con'
'colours_'
'collapse_'
'coaster_'
'cm'
'closely_'
'clicked_'
'clever_'
'clark_'
'cla'
'cio_'
'cin_'
'chorus_'
'cho_'
'cheerios_'
'chatroom_'
'chants_'
'cha'
'cesium_'
'centimeters_'
'celebrity_'
'catalunya_'
'caring_'
'cardholder_'
'captcha_'
'capitol_'
'capable_'
'cantidad_'
'cancellations_'
'calibration_'
'calcium_'
'caching_'
'cabinets_'
'cabin_'
'bình_'
'buttocks_'
'bulgaria_'
'bt'
'breakdown_'
'bpay_'
'boyfriend_'
'boulevard_'
'bosnia_'
'boringssl_'
'bone_'
'bly_'
'blu_'
'bloomberg_'
'blessing_'
'bless_'
'blaze_'
'blade_'
'billed_'
'biggerpockets_'
'ber'
'belt_'
'bel'
'bei_'
'bei'
'began_'
'banned_'
'bananas_'
'balanced_'
'back'
'b2'
'automotive_'
'attending_'
'attend_'
'attempted_'
'ata'
'asvab_'
'aspects_'
'ashley_'
'arrived_'
'army_'
'aries_'
'ari_'
'are'
'aquarius_'
'aquamail_'
'appstore_'
'apps'
'approximately_'
'approx_'
'apa'
'ap'
'annotation_'
'ani'
'ane_'
'ancient_'
'anchorage_'
'ameritrade_'
'alo'
'align_'
'algorithms_'
'ale_'
'albany_'
'airtel_'
'ai'
'african_'
'ae'
'adviser_'
'addon_'
'ack_'
'acceso_'
'abundance_'
'abortion_'
'abo'
'aba_'
'aalborg_'
'a'
'^_'
'^^_'
'[ _'
'? '
'=> _'
'==_'
': @_'
'994_'
'99'
'989_'
'9840_'
'96'
'930_'
'82'
'80'
'6m_'
'65'
'63'
'62'
'60s_'
'601_'
'5mg_'
'58'
'5739451_'
'55m_'
'553_'
'497_'
'456_'
'443_'
'404_'
'376_'
'373_'
'35m_'
'309_'
'2go_'
'294_'
'276_'
'221_'
'197_'
'194_'
'182_'
'151_'
'139_'
'134_'
'12pm_'
'112'
'109'
'011111111000_'
'/ '
'.'_'
'."  _'
'-'_'
'-%_'
',-_'
'+$_'
'$'
'"); _'
' 🇺🇸_'
' ، _'
' -  _'
' - '
' (+) _'
'  -  _'
'      *_'
'ﻣ_'
'ﻢ_'
'ﺎ_'
'_'
'_'
'_'
'하여_'
'하며_'
'진'
'제공'
'우'
'영'
'없이_'
'안'
'실'
'뻐꾸기_'
'비밀번호_'
'버'
'명'
'만_'
'등을_'
'등_'
'도'
'나쁨_'
'나_'
'고'
'거'
'道'
'看'
'方'
'情報'
'心'
'地图_'
'回'
'到'
'ス'
'イ'
'れ'
'る'
'ち'
'か'
'●_'
'▄'
'−_'
'– _'
'ได_'
'ี้_'
'าง'
'ส'
'ร'
'ฟ_'
'ณ'
'্_'
'ম_'
'ব_'
'ন_'
'ां_'
'रत_'
'न'
'ِّ_'
'يم_'
'وحدة_'
'نا_'
'له_'
'ـ'
'عليه_'
'ط'
'ذ'
'با'
'الأ'
'ئ'
'ўзи_'
'ё'
'ф'
'те'
'са'
'руб_'
'оқ_'
'об'
'ли'
'лаб_'
'ду'
'да'
'г'
'бўлиб_'
'ба'
'ан'
'ν'
'ε'
'α'
'ś_'
'über_'
'÷_'
'ñ'
'ê'
'«_'
'~'
'zt'
'zo'
'zingbox_'
'zh'
'za'
'youmail_'
'ym_'
'yb'
'xperia_'
'xiaomi_'
'xd'
'wǒ_'
'wyndham_'
'ws_'
'wrench_'
'worms_'
'wis'
'wilson_'
'willing_'
'wi'
'wet_'
'webview_'
'web'
'waypoints_'
'warrior_'
'walnut_'
'vw'
'vowel_'
'vol'
'violated_'
'video'
'vid_'
'via'
'velvet_'
'vd'
'vcard_'
'validly_'
'validation_'
'validate_'
'uv_'
'uterus_'
'utah_'
'usu'
'upward_'
'upgrading_'
'unpin_'
'unpair_'
'unlike_'
'unidos_'
'uncategorized_'
'ug'
'ue_'
'uc'
'ub_'
'türkçe_'
'twisted_'
'tuning_'
'tubular_'
'tt'
'trophies_'
'triggers_'
'tri_'
'treats_'
'tre'
'traveled_'
'trakt_'
'trader_'
'toy_'
'tout_'
'touchdown_'
'toast_'
'tn_'
'tilt_'
'tillerson_'
'tiktok_'
'tied_'
'thông_'
'thriller_'
'thaifrau_'
'tha'
'textual_'
'telangana_'
'td'
'tant'
'takeaway_'
'ta'
'sử_'
'syncs_'
'sy'
'swift_'
'swi'
'sweden_'
'swarm_'
'suscriptor_'
'surfing_'
'sum_'
'suffering_'
'successors_'
'subcategory_'
'stronger_'
'straps_'
'sto'
'stl_'
'ster_'
'steak_'
'staring_'
'stages_'
'sta_'
'sta'
'sse'
'ssa'
'spr'
'spirits_'
'spinal_'
'spg_'
'sour_'
'someday_'
'snow'
'slim_'
'skinny_'
'ski_'
'sixth_'
'sink_'
'sin'
'shu'
'showcase_'
'shouldn_'
'shortest_'
'short'
'shipped_'
'sheep_'
'shadows_'
'sha'
'severability_'
'sesame_'
'sequential_'
'selector_'
'scriptures_'
'scared_'
'sampler_'
'sal'
'safelagoon_'
'rpm_'
'rope_'
'romania_'
'rolling_'
'rock'
'rk_'
'ria'
'rezept_'
'republicans_'
'repeats_'
'renew_'
'remainder_'
'registry_'
'reg'
'refunds_'
'ref_'
'reds_'
'reactions_'
'ravens_'
'rap_'
'ran'
'raises_'
'rainbow_'
'queens_'
'quakes_'
'quad_'
'qua'
'qatar_'
'pur'
'punjab_'
'pun'
'psychic_'
'ps'
'proverbs_'
'producer_'
'processor_'
'privileges_'
'predictive_'
'predict_'
'practical_'
'pot'
'possibly_'
'popwifi_'
'poop_'
'poland_'
'plot_'
'pleading_'
'playground_'
'plank_'
'plain_'
'pilot_'
'pier_'
'pho'
'philadelphia_'
'pero_'
'permissible_'
'peninsula_'
'pdx_'
'paths_'
'passport_'
'par'
'panda_'
'outlet_'
'ourselves_'
'orbot_'
'optical_'
'ont_'
'ono'
'oi'
'occasionally_'
'oc'
'obey_'
'ob'
'nts_'
'np_'
'notifying_'
'nick'
'newborns_'
'ner'
'necaxa_'
'nda'
'nc_'
'nationwide_'
'nan'
'nab_'
'một_'
'm²_'
'myphonerobot_'
'mya'
'mur'
'mun'
'mtp_'
'movieclips_'
'monogram_'
'mol'
'mojang_'
'moi_'
'mis'
'minimobile_'
'mines_'
'mer'
'megacode_'
'medi'
'measuring_'
'mayo_'
'maximize_'
'maroon_'
'marley_'
'mark'
'mana'
'magnification_'
'mac'
'luận_'
'lunge_'
'lucas_'
'lt'
'longest_'
'lolsumo_'
'logins_'
'locks_'
'lis'
'lg'
'levelup_'
'ler'
'leer_'
'laurie_'
'laughing_'
'landgate_'
'la'
'kre'
'kra'
'kp'
'kors_'
'king'
'kdan_'
'kat'
'just'
'junior_'
'joshua_'
'jets_'
'jeremiah_'
'isolated_'
'iphone'
'ipc_'
'ios'
'investments_'
'investing_'
'invalidity_'
'intuitive_'
'intentions_'
'inspiring_'
'inspirational_'
'insomnia_'
'initially_'
'informations_'
'iness_'
'indianapolis_'
'imprint_'
'imo_'
'imgur_'
'ien'
'ict_'
'hurricane_'
'hundred_'
'hu'
'hoteles_'
'horizontally_'
'hollywood_'
'hobby_'
'hitting_'
'hilton_'
'highlighting_'
'helium_'
'healthplan_'
'hb'
'hay_'
'hay'
'hare_'
'harder_'
'handoff_'
'han'
'génesis_'
'guilt_'
'gt'
'gre'
'grams_'
'grain_'
'grad_'
'gracechan_'
'goodreads_'
'gold'
'gol_'
'god'
'gmbh_'
'glazed_'
'get'
'geographic_'
'genuine_'
'gd'
'gardening_'
'gap_'
'gang_'
'gamer_'
'gameplay_'
'furious_'
'fur'
'fundamental_'
'fs'
'fro'
'franklin_'
'founded_'
'focused_'
'fling_'
'flesh_'
'flagged_'
'fifa_'
'fiat_'
'fg_'
'fer'
'fellow_'
'fb_'
'faxfile_'
'favorable_'
'fascinating_'
'exodus_'
'exchanged_'
'examining_'
'ex'
'evolution_'
'ev_'
'eti'
'esp'
'escape_'
'ert'
'ente_'
'enlarged_'
'eni'
'enhancements_'
'engaged_'
'enemies_'
'en'
'emp'
'emotional_'
'emoticons_'
'emailing_'
'electrical_'
'ek'
'ein'
'ei_'
'ede'
'ecuador_'
'ecomic_'
'easytek_'
'dur_'
'duplicates_'
'dre'
'dra'
'dr'
'dp'
'dortmund_'
'dominion_'
'doll_'
'dmg_'
'distributing_'
'distinguishing_'
'distances_'
'discomfort_'
'differences_'
'diet'
'dh'
'devi'
'describes_'
'desa'
'der'
'depressed_'
'deportivo_'
'deportes_'
'dep_'
'denmark_'
'democratic_'
'del'
'dee'
'decorate_'
'declare_'
'dealers_'
'daylight_'
'daydream_'
'davis_'
'dashed_'
'dal'
'daddy_'
'cyo_'
'cydia_'
'cyber_'
'cucumber_'
'cropping_'
'croatian_'
'critics_'
'creators_'
'cpk_'
'cow_'
'covenant_'
'counting_'
'corrupt_'
'corinthians_'
'cop'
'cool'
'continuously_'
'continental_'
'contactless_'
'conta_'
'consumers_'
'congress_'
'confirmations_'
'conceive_'
'composing_'
'compete_'
'committee_'
'commentary_'
'cologne_'
'coldsnap_'
'cognitive_'
'coaching_'
'cn'
'clubamerica_'
'cli'
'claus_'
'circumvention_'
'cinnamon_'
'chic_'
'chia_'
'chf_'
'chen_'
'cheers_'
'checklists_'
'challenging_'
'chairs_'
'chairman_'
'cf_'
'certainly_'
'cerca_'
'celular_'
'cbc_'
'catches_'
'cat'
'cartridge_'
'cari'
'capsules_'
'candidate_'
'camino_'
'cambodia_'
'cabbage_'
'bạ_'
'báo_'
'buyers_'
'buscar_'
'bulleted_'
'bull_'
'bulk_'
'bulgarian_'
'builders_'
'buenos_'
'bru'
'broth_'
'brooklyn_'
'bride_'
'bre'
'branded_'
'bra_'
'bra'
'bow_'
'bored_'
'borders_'
'book'
'bluestacks_'
'blinking_'
'blackberry_'
'bl'
'bites_'
'bio'
'bg'
'belly_'
'believed_'
'beginners_'
'beasts_'
'beans_'
'bb'
'bathrooms_'
'bat'
'basically_'
'barometric_'
'baqarah_'
'bahamas_'
'backs_'
'avec_'
'autocomplete_'
'auto'
'authenticated_'
'attributions_'
'attendees_'
'atms_'
'ati'
'athenatext_'
'aside_'
'asa'
'art'
'armour_'
'arc_'
'approximate_'
'appr_'
'apo'
'anticipated_'
'annoying_'
'anger_'
'altimeter_'
'alerted_'
'albuquerque_'
'ajustes_'
'aisle_'
'aircraft_'
'ahora_'
'aged_'
'aga'
'affiliate_'
'adjectives_'
'adams_'
'act'
'acres_'
'acme_'
'acacia_'
'abusive_'
'abs'
'aal_'
'`'
'='_'
'='
'984'
'946_'
'93'
'91'
'8m_'
'866_'
'85'
'800'
'7pm_'
'7h_'
'7csolutions_'
'61820_'
'5778_'
'568_'
'5454_'
'539_'
'50p_'
'505_'
'501_'
'500'
'4s_'
'4d_'
'4am_'
'495_'
'43'
'4153356009_'
'3b'
'39'
'324_'
'2f'
'2a'
'286_'
'284_'
'269_'
'265_'
'254_'
'250'
'245_'
'23p_'
'236_'
'234_'
'222_'
'21'
'1tb_'
'1960_'
'19'
'181_'
'17h_'
'178_'
'16'
'14th_'
'140'
'12th_'
'125'
'10x_'
'1080_'
'0x_'
'06'
'/ . _'
'.. '
'.");_'
'.   _'
'.	= 	_'
'--------------------_'
'-  _'
'+, _'
'+ '
'*** _'
'* (_'
'),_'
') | _'
'%, _'
'" '
' _'
' ₹ _'
' «_'
' / '
'   '
'		_'
'･･･_'
'ﻳ_'
'ﺎ'
'️_'
'_'
'_'
'히_'
'항'
'찾기_'
'차_'
'직'
'지역_'
'재'
'유'
'위해_'
'어요_'
'어_'
'심'
'세'
'선'
'서비스에_'
'생'
'산'
'사용'
'발'
'바'
'마'
'동_'
'단'
'금'
'구매_'
'결'
'개제_'
'개_'
'강'
'面'
'纽约'
'的_'
'生'
'成'
'和'
'分_'
'信'
'会'
'ラ'
'マイページ_'
'タ'
'ます_'
'です_'
'♥'
'☆'
'█'
'③_'
'‬_'
'​_'
' _'
'ា_'
'ው_'
'ት_'
'ር'
'ไ'
'เมลโล_'
'มา'
'ท'
'จ'
'ന_'
'ക_'
'ি_'
'ै_'
'प'
'चन_'
'क'
'इ'
'هم_'
'لل'
'لقى_'
'قال_'
'ــ'
'غ'
'خ'
'بي_'
'الت'
'ال'
'إ_'
'י'
'і'
'ю'
'ш'
'чи_'
'си'
'п_'
'ны_'
'не_'
'кўп_'
'ко'
'кир'
'икки_'
'ет'
'ди'
'го'
'б'
'ат'
'ар'
'ам_'
'ал'
'σ'
'ş'
'ě'
'ę_'
'đã_'
'í_'
'és_'
'ça_'
'ás_'
'²_'
'° | -_'
'¢ - $_'
' €_'
'   _'
'}[_'
'|'
'zz'
'zi_'
'zed_'
'zation_'
'zan'
'yummy_'
'yr_'
'your'
'yogurt_'
'yn_'
'yh'
'ych_'
'yar'
'xu'
'xs'
'xc'
'wrapping_'
'wr_'
'worm_'
'woolly_'
'wickr_'
'whoshere_'
'wha'
'westworld_'
'west'
'wee'
'webinar_'
'weakness_'
'we'
'waypoint_'
'waterfall_'
'warned_'
'wallis_'
'waives_'
'vulnerable_'
'vu'
'vow_'
'vo'
'vn_'
'viral_'
'vingle_'
'vin'
'vijay_'
'view'
'vez_'
'verano_'
'veni'
'vcf_'
'varies_'
'var'
'vanuatu_'
'uu'
'uth_'
'usgs_'
'ur'
'unplug_'
'unpaid_'
'unnecessary_'
'unlisted_'
'uninstalled_'
'underworld_'
'undertake_'
'una'
'un'
'uma'
'ular_'
'uj'
'ud_'
'u11_'
'tweaks_'
'tuv_'
'tur'
'trong_'
'trivia_'
'translating_'
'tr_'
'tp'
'township_'
'tow'
'touchpal_'
'tortious_'
'tongue_'
'tolens_'
'toggles_'
'toda_'
'tit'
'timestamp_'
'tide_'
'thu'
'threatened_'
'thousand_'
'thinks_'
'thermometer_'
'textures_'
'texans_'
'testers_'
'tersebut_'
'terrain_'
'tepung_'
'ten'
'teig_'
'te'
'taxcaster_'
'tattoos_'
'tart_'
'targets_'
'tandem_'
'talku_'
'tales_'
'take'
'tak_'
'tak'
'tagged_'
'tactical_'
'tac'
'syria_'
'sy_'
'surely_'
'surah_'
'super'
'sudy_'
'subtitle_'
'sublicensable_'
'stuck_'
'stu'
'strikethrough_'
'stlport_'
'stdvector_'
'statutes_'
'statuses_'
'starters_'
'starbucks_'
'star'
'stalk_'
'ssfootball_'
'sr_'
'spray_'
'sprachen_'
'sponsors_'
'splines_'
'spice_'
'spi'
'speedometer_'
'span_'
'soy_'
'soothing_'
'sooner_'
'sona'
'solitaire_'
'solar_'
'smoothie_'
'smarter_'
'smart'
'slots_'
'slo'
'slices_'
'skate_'
'sk_'
'sk'
'sitters_'
'sion_'
'simpler_'
'silicon_'
'silhouette_'
'signifying_'
'signeasy_'
'sierra_'
'sick_'
'shoe_'
'shipment_'
'shenzhen_'
'shelters_'
'sfbay_'
'settle_'
'ser'
'senses_'
'sens'
'seeds_'
'seas_'
'scream_'
'scissors_'
'scientist_'
'scales_'
'sanford_'
'sand'
'sala'
'sake_'
'safeguard_'
'sab'
'sa'
'rá_'
'rv_'
'runner_'
'ruled_'
'rubber_'
'rp'
'rough_'
'romanian_'
'rocks_'
'rockets_'
'roberto_'
'rivers_'
'rin_'
'rib_'
'reviewing_'
'revelation_'
'retrieval_'
'restarting_'
'rest'
'requiring_'
'representing_'
'renewals_'
'renault_'
'remembered_'
'relying_'
'relatives_'
'rejected_'
'refueling_'
'referring_'
'ree'
'redownload_'
'rectangle_'
'rec_'
'rbi_'
'raptors_'
'ramon_'
'raja'
'rain'
'rabbit_'
'quaternion_'
'quan_'
'qual_'
'qs'
'py'
'pwa_'
'pushed_'
'pur_'
'puncture_'
'pumped_'
'pronouns_'
'proj_'
'prohibits_'
'pri'
'pres'
'preceding_'
'practitioner_'
'pqrs_'
'powerdvd_'
'pos_'
'popcorn_'
'poison_'
'pmid_'
'plated_'
'plastic_'
'pittsburgh_'
'pitit_'
'pine_'
'physically_'
'phrasebook_'
'phil_'
'peserta_'
'peru_'
'personas_'
'personalised_'
'perception_'
'pen'
'ped_'
'pd_'
'pd'
'paused_'
'parade_'
'palm_'
'ovuview_'
'ovi_'
'outs_'
'outlooks_'
'orbits_'
'ora_'
'optimizations_'
'onenote_'
'onde_'
'ome_'
'ome'
'ols'
'oli'
'oldest_'
'ola_'
'offset_'
'offense_'
'of'
'occured_'
'occasion_'
'obvious_'
'obtains_'
'observation_'
'obliged_'
'objective_'
'nổi_'
'nut_'
'numerous_'
'nueva_'
'noted_'
'not'
'noblesse_'
'noble_'
'nkjv_'
'nk'
'nie'
'những_'
'ngs_'
'newspaper_'
'newborn_'
'nevada_'
'neu_'
'ncr_'
'nces_'
'nationals_'
'nascar_'
'nar'
'nap_'
'nai'
'mynetdiary_'
'mpl2_'
'mozzarella_'
'mosque_'
'mos'
'moreover_'
'mont'
'monsters_'
'mono_'
'moderator_'
'mno_'
'mm'
'mixes_'
'miui_'
'mit'
'misrepresented_'
'mirchi_'
'minors_'
'mine'
'mind'
'miesiąc_'
'mie'
'midst_'
'mid'
'mic'
'mib_'
'metals_'
'ment'
'menos_'
'memorize_'
'mem_'
'mejor_'
'mba'
'maz'
'mature_'
'matrix'
'mart'
'marriott_'
'margins_'
'margin_'
'manufacture_'
'manuals_'
'manhattan_'
'malicious_'
'mainly_'
'mai'
'maharashtra_'
'mad'
'là_'
'lying_'
'luz_'
'lucy_'
'low'
'loose_'
'lonely_'
'logical_'
'localization_'
'locality_'
'lobby_'
'ln_'
'lip'
'lined_'
'lil_'
'lifted_'
'lieutenant_'
'libros_'
'lia'
'lf'
'legitimate_'
'lean_'
'leaks_'
'le'
'lb'
'lau'
'latam_'
'laptops_'
'lagoon_'
'ky'
'ktsa_'
'kris_'
'kr_'
'konsortium_'
'knob_'
'kl'
'kins'
'kim_'
'kar'
'kanji_'
'justalk_'
'julia_'
'jpeg_'
'jkl_'
'jim_'
'jehová_'
'jeff_'
'jane_'
'ito_'
'ities_'
'iterativelinearsolvers_'
'is'
'invitees_'
'interviews_'
'interruptions_'
'interacting_'
'intact_'
'institutions_'
'inquiry_'
'información_'
'infinite_'
'ine'
'indie_'
'increasing_'
'importance_'
'impair_'
'illness_'
'ill_'
'if'
'ier_'
'ick'
'ici'
'ical_'
'ias_'
'ian'
'iah_'
'hur'
'hum_'
'htm_'
'hrvatski_'
'hou'
'hottest_'
'horas_'
'hopes_'
'hootsuite_'
'hongqiao_'
'honeycomb_'
'hon'
'hen_'
'hell'
'heisei2'
'hei'
'heartland_'
'healthier_'
'he'
'hast_'
'harrison_'
'harmonic_'
'hardest_'
'harassing_'
'gu_'
'gro'
'grip_'
'granola_'
'gradient_'
'gra'
'gotten_'
'gop_'
'goodness_'
'gloria_'
'gifv_'
'giant_'
'gi_'
'ghi_'
'ghana_'
'geophysical_'
'genetic_'
'ged_'
'gas'
'gait_'
'g1_'
'fulfillment_'
'fue_'
'fu'
'frost_'
'friendship_'
'fresno_'
'freshman_'
'fr'
'fossil_'
'fon'
'fold_'
'fly'
'fiverr_'
'firing_'
'fireworks_'
'firebase_'
'file'
'fighters_'
'fh'
'fears_'
'fe'
'fb'
'faxes_'
'farts_'
'fargo_'
'familymode_'
'fab'
'ey'
'exporting_'
'explanatory_'
'expandable_'
'eventually_'
'etf_'
'est'
'essentials_'
'españa_'
'equalsignorecase_'
'epic_'
'ensuring_'
'engagement_'
'eng'
'enforceability_'
'endorsed_'
'enc'
'emiratesfacup_'
'ell_'
'eli_'
'eleven_'
'elev_'
'electricity_'
'efficiency_'
'eesti_'
'ecash_'
'ea'
'días_'
'dziecka_'
'dust_'
'dro'
'driven_'
'drills_'
'dreaming_'
'drawn_'
'down'
'doppler_'
'don'
'doe_'
'dit'
'discoverable_'
'directv_'
'dimensions_'
'dim'
'dil_'
'dictate_'
'diarrhea_'
'dialogue_'
'diabetesconnect_'
'det'
'desert_'
'dermatologist_'
'dem_'
'dele'
'defender_'
'deck_'
'debate_'
'deb'
'deadly_'
'deactivated_'
'dawson_'
'daughters_'
'dancing_'
'dam'
'd4_'
'cutting_'
'curl_'
'curator_'
'crónicas_'
'crowd_'
'crossed_'
'cravings_'
'cramps_'
'counsel_'
'convention_'
'contraseña_'
'contra'
'contour_'
'consume_'
'consultant_'
'consisting_'
'conservative_'
'conforming_'
'confident_'
'concentration_'
'concealed_'
'computing_'
'compromise_'
'compartir_'
'compared_'
'comeback_'
'clue_'
'classification_'
'classics_'
'clans_'
'claimed_'
'cj_'
'civilian_'
'cilantro_'
'cielo_'
'chromium_'
'chrisbrownofficial_'
'chilled_'
'chemistry_'
'chemicals_'
'cheer_'
'check'
'chartboost_'
'champs_'
'champion_'
'chad_'
'ceramic_'
'centurylink_'
'cellulitis_'
'catalogue_'
'cartoon_'
'carried_'
'cargo_'
'candidates_'
'canceled_'
'camp'
'camcorder_'
'cam'
'calculating_'
'ca'
'bè_'
'bvh_'
'butterfly_'
'btc_'
'broadcasts_'
'bro'
'brian_'
'breeze_'
'braces_'
'borussia_'
'bonjour_'
'bol'
'bogo_'
'bo'
'blue'
'bitcoins_'
'biological_'
'bienvenido_'
'bez'
'bet'
'besides_'
'berlaku_'
'bentley_'
'beloved_'
'bells_'
'bein_'
'beetalk_'
'beating_'
'bean_'
'bc_'
'battles_'
'basal_'
'bark_'
'barbell_'
'balls_'
'bahrain_'
'bah'
'backpack_'
'backing_'
'aze'
'az'
'awa'
'aw'
'autodiff_'
'authenticity_'
'attractive_'
'attitude_'
'ating_'
'athletics_'
'asthma_'
'assigns_'
'assassin_'
'ash'
'arti'
'armor_'
'ark_'
'arcade_'
'arc'
'aq'
'appetite_'
'ape'
'apache2_'
'anybody_'
'anterior_'
'ante_'
'announcer_'
'anniversary_'
'andro'
'analyzing_'
'amtrak_'
'americas_'
'ame'
'ama'
'allergy_'
'alisal_'
'airways_'
'ainda_'
'aims_'
'aic_'
'agu'
'affero_'
'affects_'
'adorable_'
'adler_'
'acura_'
'accommodation_'
'aca'
'abb'
'a3'
'a2_'
'^'
']. _'
'\\'
'['
'@ _'
'@'
'<<_'
';'
':• _'
': /_'
': $ _'
'9k_'
'978142_'
'950_'
'945398_'
'94132_'
'94127_'
'922950_'
'918323_'
'904536_'
'900'
'90'
'89'
'866260_'
'855_'
'850_'
'81h_'
'7a'
'78'
'771_'
'747394_'
'745807_'
'73'
'707_'
'701816_'
'6b'
'674604_'
'652337_'
'647031_'
'640_'
'620001_'
'582268_'
'571067_'
'564265_'
'563_'
'50s_'
'4k'
'49ers_'
'441135_'
'440_'
'438_'
'436282_'
'4153402255_'
'4152739840_'
'41'
'399684_'
'390_'
'363357_'
'35a_'
'357099_'
'354_'
'344945_'
'343040_'
'334151_'
'332_'
'317_'
'313_'
'2tb_'
'282_'
'272246_'
'271_'
'268_'
'263_'
'256_'
'234831_'
'232_'
'213_'
'20th_'
'2067_'
'205126_'
'205'
'203_'
'2020_'
'194'
'1837_'
'181'
'18'
'177'
'168_'
'143_'
'13h_'
'136_'
'131'
'12am_'
'1280_'
'123'
'118'
'100k_'
'0f'
'082315_'
'050_'
'026442_'
'021180_'
'012564_'
'005_'
'000000000110_'
'/- *_'
'/)"_'
'... '
'.)  _'
'.(_'
'--------------_'
'---------------------------_'
'----------------------------------------------------------------------_'
'-, _'
'** _'
')"_'
') : _'
'&'
'! :)_'
' ⋅ _'
' ~_'
' ]. _'
' = '_'
' < _'
' --> _'
' * _'
' (%)_'
' ! _'
'���_'
'ﻭ_'
'ﻧ'
'ﺭ_'
'ﺪ_'
'_'
'_'
'_'
'_'
'_'
'_'
'행위를_'
'하게_'
'통'
'코'
'체'
'질'
'정보를_'
'전국_'
'적'
'입'
'이메일_'
'으'
'용'
'요'
'여_'
'에서_'
'에게_'
'업'
'야_'
'않'
'상_'
'법'
'방'
'물'
'목'
'모든_'
'따라_'
'되'
'기준'
'게시물의_'
'게_'
'건'
'거나_'
'都'
'病院'
'海'
'气'
'安'
'学'
'天'
'国'
'則_'
'入'
'之'
'为'
'ル'
'マ'
'プ'
'は_'
'した'
'ご'
'か_'
'あ'
'☆_'
'←_'
'℉_'
'‪_'
'‑_'
'ስ'
'ሊ'
'และ'
'เร_'
'เป_'
'ำ'
'ะ'
'ศ'
'ญ'
'ി_'
'ি _'
'व'
'त'
'ية_'
'ى_'
'وسلم_'
'ن'
'مل'
'لي'
'قالت_'
'ق'
'فارسی_'
'صلى_'
'ص_'
'ش_'
'ز'
'خ_'
'ج_'
'ان'
'الص'
'اء_'
'қи'
'қа'
'ў'
'ый_'
'ъ'
'ша'
'че'
'уч'
'тор'
'то'
'ст'
'рт'
'россия_'
'программе_'
'ор_'
'ор'
'ол'
'ные_'
'можно_'
'ми_'
'ме'
'ма_'
'ль'
'ла_'
'кредитования_'
'к'
'й'
'ия_'
'ис'
'им'
'за'
'ер'
'го_'
'га'
'билан_'
'афандининг_'
'аз'
'π'
'θ'
'β'
'ư'
'š'
'ı'
'ī'
'ę'
'ą'
'ā_'
'ö'
'ôßċ'
'ò_'
'êģñččèßæą_'
'éxodo_'
'él_'
'ç'
'µ'
'¢_'
'¢ _'
'| #_'
'zy_'
'ys_'
'yon'
'yl'
'yi_'
'yg'
'yat'
'yan_'
'xy'
'xl'
'xa'
'wv'
'wt'
'wr'
'work'
'word'
'wont_'
'wolf_'
'wnba_'
'wmv_'
'wm_'
'willow_'
'wiggle_'
'whip_'
'whats_'
'wer'
'watermark_'
'watch'
'ware'
'walt_'
'với_'
'vuelta_'
'voyager_'
'voluntarily_'
'voi'
'violations_'
'vihar_'
'viewers_'
'vibrations_'
'vibe_'
'versa_'
'verifying_'
'veri'
'veneers_'
'ven'
'vas'
'valle_'
'valera_'
'valentines_'
'uzi_'
'uu_'
'uti'
'ute'
'ust_'
'usernames_'
'usefulness_'
'use'
'ury_'
'urdu_'
'unnamed_'
'unintentionally_'
'underweight_'
'underlined_'
'ultimately_'
'uk'
'ue'
'ub'
'ual_'
'tyler_'
'twists_'
'twin_'
'twelve_'
'tuổi_'
'tuned_'
'tuna_'
'tryouts_'
'trucks_'
'tro'
'trivago_'
'tripit_'
'trinidad_'
'triggered_'
'trenìt_'
'traveller_'
'transmissions_'
'transcript_'
'trained_'
'track'
'tra_'
'toyota_'
'towel_'
'touch'
'totals_'
'toshiba_'
'topped_'
'topmobile_'
'toneaphone_'
'toggled_'
'tle_'
'tinystep_'
'thể_'
'thre'
'thes'
'textos_'
'textfree_'
'tenth_'
'telah_'
'tel_'
'teenager_'
'tech'
'teaspoon_'
'tarot_'
'talktime_'
'talk'
'tali'
'takeoff_'
'tailored_'
'tail_'
'tacos_'
'taca_'
'tabata_'
'số_'
'sz_'
'sweets_'
'sweepstakes_'
'sustained_'
'sum'
'suffix_'
'succeed_'
'stupid_'
'stunning_'
'studying_'
'sts_'
'strokes_'
'strengths_'
'strengthen_'
'strain_'
'stood_'
'stomach_'
'steven_'
'sten'
'ste'
'stainless_'
'ssw_'
'ssleay_'
'ssh_'
'spy_'
'sprint_'
'spiral_'
'spawn_'
'spare_'
'sp'
'somebody_'
'sneak_'
'slight_'
'sliced_'
'slates_'
'skirt_'
'sj'
'sized_'
'sinks_'
'sinful_'
'sina'
'sig'
'sie'
'siatki_'
'shorter_'
'shopper_'
'shock_'
'shi_'
'shareholders_'
'shar'
'seyè_'
'sewing_'
'será_'
'send'
'sem_'
'sel'
'seasoned_'
'searchable_'
'screensaver_'
'scout_'
'scorecards_'
'scheme_'
'sch_'
'sch'
'satisfaction_'
'sashimi_'
'sao_'
'sand_'
'sak'
'safest_'
'safer_'
'sacrifice_'
'rwanda_'
'rw'
'ruth_'
'runtime_'
'rs'
'row'
'roses_'
'ros'
'román_'
'romeo_'
'romanos_'
'rod_'
'rocket_'
'robots_'
'ro'
'rj_'
'rises_'
'rim_'
'riga_'
'rico_'
'ri'
'rhymes_'
'revocable_'
'reunion_'
'retirement_'
'respectively_'
'rescan_'
'res'
'repeating_'
'reopen_'
'renovation_'
'relaxing_'
'relates_'
'reina_'
'regulate_'
'regrann_'
'refunded_'
'refugees_'
'refuel_'
'refrain_'
'redwood_'
'redux_'
'redirects_'
'redi'
'realistic_'
'real'
'readily_'
'readability_'
'rb_'
'rb'
'rattle_'
'rat'
'rai'
'rae_'
'radars_'
'rab'
'quicktime_'
'qui'
'quet'
'quer_'
'qq'
'qiwi_'
'pv'
'putin_'
'pushing_'
'pudding_'
'pt'
'prosecution_'
'prom_'
'prohibit_'
'productive_'
'priest_'
'predicted_'
'pr_'
'pork_'
'pop3_'
'política_'
'poly'
'polo_'
'pole_'
'pol'
'playon_'
'playa_'
'play'
'platinum_'
'plan'
'pk'
'pit'
'pick'
'picape_'
'physics_'
'photo'
'phonefusion_'
'phonebook_'
'phone'
'peso_'
'pert'
'persistent_'
'periodic_'
'peri'
'perfectly_'
'per'
'penny_'
'pel'
'pee'
'pediatrician_'
'pearl_'
'paytm_'
'payors_'
'patience_'
'passionate_'
'passion_'
'pass'
'pas'
'parras_'
'parkway_'
'paragraphs_'
'paradise_'
'pantry_'
'panasonic_'
'oxygen_'
'overtime_'
'overs'
'overcome_'
'ought_'
'ou'
'ot'
'osa'
'ori'
'operational_'
'ooh_'
'oo_'
'ontario_'
'ons'
'ong_'
'omi'
'ology_'
'oll'
'oleh_'
'oi_'
'ogy_'
'officially_'
'officesuite_'
'oe'
'oceania_'
'occupation_'
'obstacles_'
'obsolete_'
'obscene_'
'obs'
'o'
'números_'
'nutritional_'
'num'
'nt'
'nrj_'
'notre_'
'nos'
'northwest_'
'norman_'
'noo'
'noch_'
'noa'
'nl_'
'ninja_'
'nigiri_'
'ney_'
'newsletters_'
'nevertheless_'
'neutral_'
'neuroscience_'
'nest'
'negotiations_'
'neglect_'
'ndi'
'nde'
'ncy_'
'ncia_'
'navigating_'
'nav_'
'nas'
'narrow_'
'nana_'
'naj'
'nag'
'mymail_'
'mwen_'
'muted_'
'mundo_'
'mul'
'mud_'
'movie10012017062624_'
'motivational_'
'moth_'
'morse_'
'montgomery_'
'monterey_'
'mono'
'mona'
'momentum_'
'momento_'
'modo_'
'modeling_'
'mobi_'
'mob_'
'moana_'
'mn_'
'mk'
'mix'
'missions_'
'mia_'
'mes'
'mercari_'
'mentos_'
'menores_'
'menm_'
'mendes_'
'melayu_'
'mei'
'meet'
'mc_'
'mattress_'
'matt'
'mastery_'
'marine_'
'marin_'
'maria_'
'marcos_'
'manipulate_'
'majora_'
'mag'
'macy_'
'lý_'
'lw'
'lung_'
'lt_'
'lou'
'localização_'
'lle_'
'liz_'
'liver_'
'lity_'
'liters_'
'listened_'
'lim'
'lid_'
'libel_'
'lh'
'levi_'
'leukemia_'
'letgo_'
'lek'
'leicht_'
'lc_'
'lazy_'
'lat'
'lands_'
'laliga_'
'lakers_'
'lag'
'lafayette_'
'kw_'
'kw'
'kuwait_'
'kt'
'kr'
'knicks_'
'kiwi_'
'kitchens_'
'kindness_'
'kindly_'
'killing_'
'kiddoware_'
'không_'
'kha'
'keep'
'ked_'
'karaoke_'
'kap'
'kannada_'
'kad'
'ka'
'k9_'
'juventus_'
'jurassic_'
'jupiter_'
'juicio_'
'jueces_'
'jsr_'
'json_'
'josué_'
'jiggle_'
'jfk_'
'jessica_'
'jerusalem_'
'jed'
'jc'
'jb'
'jazeera_'
'jas'
'jan'
'jake_'
'jack'
'jab'
'iu'
'iso_'
'ism_'
'ised_'
'isa'
'irreparable_'
'involvement_'
'invitations_'
'inv'
'interchange_'
'interactions_'
'injunction_'
'inicio_'
'infant_'
'indoor_'
'indi'
'imposes_'
'implement_'
'immersive_'
'imi'
'ility_'
'ig'
'ify_'
'ier'
'ida'
'ich_'
'ibooks_'
'i5_'
'hình_'
'hy'
'hun'
'hovsep_'
'hook_'
'hoodie_'
'home'
'hk_'
'hiking_'
'hf_'
'hes'
'headed_'
'hdd_'
'hawks_'
'hat'
'has'
'harvest_'
'hardcore_'
'handbook_'
'hand'
'halls_'
'hai_'
'gü'
'gy_'
'gwn_'
'gw'
'gue'
'groom_'
'grayed_'
'graphy_'
'gp_'
'gp'
'gown_'
'got'
'gospel_'
'gol'
'goblin_'
'gna'
'glimmer_'
'gladbach_'
'gl'
'gin'
'geographical_'
'gel_'
'ganz_'
'gan_'
'gan'
'game'
'gal'
'gaga_'
'g3_'
'g10'
'fying_'
'futuna_'
'funeasylearn_'
'functioning_'
'fry_'
'fretboard_'
'frank_'
'franchise_'
'fran'
'fps_'
'fox'
'foursquare_'
'fotos_'
'forgiveness_'
'foodies_'
'flirts_'
'fle'
'flashcard_'
'fla'
'fixtures_'
'firmly_'
'firm_'
'firewall_'
'fines_'
'finalize_'
'fin_'
'film'
'fi'
'fel'
'fedora_'
'fav180_'
'faux_'
'fantastic_'
'fadden_'
'factoring_'
'fabulous_'
'eze'
'ez'
'explores_'
'expat_'
'exotic_'
'exits_'
'excursions_'
'exc'
'evo'
'ett_'
'etsy_'
'ethnic_'
'esv_'
'estrogen_'
'estoy_'
'estos_'
'estados_'
'esi'
'eraser_'
'equity_'
'equipped_'
'equation_'
'enviar_'
'entrance_'
'ent'
'ense'
'enjoyed_'
'enemy_'
'emptiness_'
'emeryville_'
'ellipsis_'
'elephant_'
'eld_'
'ekg_'
'eject_'
'ej_'
'eine_'
'eh'
'eg_'
'eg'
'effectiveness_'
'edi'
'economist_'
'ecchi_'
'eba'
'eau_'
'east'
'e4'
'dụng_'
'dzieci_'
'dynamically_'
'dura'
'dup'
'dummy0_'
'dubai_'
'dt_'
'drowsiness_'
'drowned_'
'drives_'
'dressing_'
'dragon_'
'downtime_'
'dow'
'dotted_'
'dor_'
'donkey_'
'domino_'
'dom_'
'docx_'
'docked_'
'dl'
'dj'
'diving_'
'disneyland_'
'disassembly_'
'disability_'
'directo_'
'din'
'dic'
'dialogs_'
'deuteronomio_'
'destroying_'
'dese'
'descriptive_'
'dependent_'
'dep'
'demons_'
'demographic_'
'demands_'
'deletes_'
'defame_'
'deeper_'
'deed_'
'decoration_'
'decency_'
'dec'
'dcim_'
'daytime_'
'datos_'
'dart_'
'dant'
'dale_'
'cả_'
'cy'
'cutmp1_'
'cup'
'cuisines_'
'cubes_'
'cualquier_'
'ctrl_'
'crush_'
'critically_'
'cracker_'
'cq'
'coverme_'
'correctness_'
'corre'
'corintios_'
'cordon_'
'cor'
'coordinate_'
'converted_'
'contrary_'
'constipation_'
'congo_'
'confessed_'
'conditionals_'
'conception_'
'computer'
'complicated_'
'compilations_'
'competitive_'
'compensate_'
'comp'
'comic'
'combinations_'
'collaboration_'
'cog_'
'codec_'
'cocktails_'
'coastal_'
'cloth_'
'cle_'
'clara_'
'cla_'
'cisco_'
'circled_'
'cinco_'
'cif_'
'chronic_'
'chorizo_'
'chevy_'
'characteristics_'
'cereals_'
'centro_'
'cazoña_'
'cave_'
'catherine_'
'caso_'
'cartwheel_'
'carson_'
'carrot'
'carmel_'
'carlos_'
'care'
'cardiovascular_'
'cardio'
'cardiac_'
'carbs_'
'captioning_'
'caps_'
'can'
'cams_'
'café_'
'cabins_'
'c4'
'bị_'
'bằng_'
'burnley_'
'burg_'
'buntline_'
'bunch_'
'bumper_'
'buah_'
'bu_'
'bt_'
'broadband_'
'breasts_'
'break'
'branches_'
'bpi_'
'bp'
'bou'
'bot'
'bon'
'bolt_'
'boi'
'bodily_'
'bodies_'
'blitz_'
'bleu_'
'blast_'
'black'
'bis'
'biometric_'
'bha'
'bh'
'bf'
'ben'
'believing_'
'beliefs_'
'beige_'
'bc'
'bayt_'
'bau'
'bat_'
'baskets_'
'bare_'
'bare'
'bands_'
'b9_'
'b0'
'ayuda_'
'av'
'automobile_'
'autocorrect_'
'authorizes_'
'auction_'
'atlético_'
'at'
'así_'
'asterisk_'
'asp_'
'ash_'
'ascii_'
'arm'
'arises_'
'appoint_'
'apm_'
'antique_'
'antimony_'
'antares_'
'ano'
'annually_'
'anne_'
'androidforums_'
'anchor_'
'anagog_'
'amy_'
'amalek_'
'alya_'
'alvarez_'
'alreader_'
'almighty_'
'alk_'
'alien_'
'aldebaran_'
'ala_'
'aka'
'ais_'
'aimed_'
'aggressive_'
'afrikaans_'
'affirmitions_'
'affiliation_'
'af_'
'adwords_'
'admission_'
'admiral_'
'adjusting_'
'adjustable_'
'adelaide_'
'addressing_'
'ada'
'actively_'
'acknowledgments_'
'accidents_'
'accidentally_'
'acce'
'abhishek_'
'abdul_'
'aba'
'ab'
'a4_'
'] . _'
'] '
']'
'\u'
'? ¿_'
'>'
'=`_'
':     _'
':       _'
':  '
'996'
'949'
'8f'
'870_'
'851_'
'789_'
'76'
'71'
'678_'
'64'
'61'
'607_'
'5g_'
'5am_'
'590_'
'50k_'
'491_'
'490_'
'463_'
'45'
'42'
'414'
'405_'
'4000_'
'3c'
'366_'
'36'
'343_'
'329_'
'322_'
'319_'
'312_'
'303'
'281_'
'278_'
'267_'
'2623_'
'2500_'
'238_'
'21st_'
'20170'
'1e'
'1968_'
'191'
'188'
'152'
'150'
'147_'
'14153402255_'
'128mp3_'
'123456_'
'122'
'1200_'
'11k_'
'111'
'10k_'
'108'
'0db_'
'070'
'05a_'
'04100'
'007_'
'006_'
'000'
'.]_'
'..., _'
'.-_'
'., $_'
'. ("_'
'.  '
'-----_'
'+ $_'
'); (_'
'))'
') +_'
'&&_'
'# *  _'
'";_'
'" - _'
'" +++ "_'
' →_'
' ‰_'
' »_'
' · ↓_'
' ©_'
' ................. _'
' ->_'
' += _'
' += (/[\\_'
' ***_'
' '+' _'
'  •_'
'     _'
'🌸_'
'� _'
'＋_'
'ﻮ_'
'_'
'_'
'_'
'_'
'_'
'_'
'_'
'_'
'_'
'_'
'_'
'_'
'힘'
'한다_'
'하고_'
'피'
'프'
'표'
'카'
'치'
'최'
'천'
'채팅_'
'좋'
'전_'
'자_'
'입니다_'
'인_'
'이용하'
'위한_'
'위'
'원'
'운영'
'연'
'에'
'었어요_'
'없습니다_'
'않은_'
'아니'
'아_'
'식'
'시작하기_'
'시작'
'스_'
'세요_'
'성_'
'불'
'분_'
'모유_'
'면서_'
'메'
'말'
'로'
'등의_'
'두'
'당'
'다음_'
'다른_'
'기능_'
'그_'
'그'
'관련_'
'개'
'간'
'部'
'通'
'話_'
'號_'
'第'
'目'
'登録'
'服'
'时'
'早'
'戻る_'
'女'
'包'
'分'
'出'
'下'
'ト'
'ッ'
'ん'
'め'
'み'
'っ'
'じ'
'した_'
'し'
'く'
'〉_'
'✔_'
'◼  _'
'▲_'
'④_'
'↑ _'
'‬‭ (_'
'…)_'
'•   _'
'”)._'
'្_'
'ቀ'
'ላ'
'๞_'
'่ _'
'ละคร_'
'ป'
'นท_'
'ค'
'ල_'
'ு_'
'য_'
'य'
'मह_'
'थ_'
'ग'
'ٲ_'
'يا_'
'من'
'مراته_'
'مجلة_'
'قو'
'في'
'فى_'
'فا'
'ـ_'
'عل'
'سي'
'ث'
'الن'
'اق'
'اس'
'إلى_'
'إ'
'ؤ'
'ש'
'ל'
'ҳ'
'қўли_'
'ғи_'
'ғ'
'ўт'
'ўр'
'ён'
'ёз'
'эр'
'эл'
'ши'
'ци'
'хотин_'
'уй'
'тўрт_'
'туш'
'се'
'са_'
'пи'
'оп'
'одам_'
'му'
'мар'
'льготного_'
'ло'
'лет_'
'ла'
'ку_'
'кроссовер_'
'йўли_'
'йди_'
'ж'
'ес'
'дим_'
'вы_'
'бу'
'бола_'
'автомобили_'
'ς_'
'˙_'
'ŕ'
'ĥ'
'được_'
'đang_'
'ý_'
'ôßċċ_'
'ñß'
'ña_'
'ín_'
'ên_'
'éc'
'àn_'
'» _'
'zoo'
'zon'
'zna'
'zimbabwe_'
'zg'
'zap'
'yum_'
'yr'
'ype'
'younger_'
'you'
'yield_'
'yer_'
'yen_'
'ye'
'yapp_'
'yandex_'
'yan'
'xj'
'xi_'
'x5'
'x4'
'wu'
'wt_'
'wsw_'
'wrists_'
'wrist_'
'wpa_'
'wpa2_'
'worn_'
'wordnet_'
'wolverine_'
'wol'
'wo_'
'wlan0_'
'with'
'wip'
'win'
'willful_'
'whova_'
'whitening_'
'white'
'whisper'
'weren_'
'weighs_'
'weibo_'
'wed'
'websync_'
'wayne_'
'watts_'
'waterproof_'
'wardrobe_'
'wallets_'
'wall'
'walked_'
'vot'
'volunteer_'
'vmware_'
'vm'
'việt_'
'visualizer_'
'virgo_'
'vienna_'
'vid'
'verde_'
'vendors_'
'vely_'
'veggies_'
'vegetation_'
'vcall_'
'variations_'
'vancouver_'
'vampire_'
'vale'
'vacuum_'
'ux_'
'utf_'
'ut'
'uri'
'urge_'
'uppercase_'
'unt'
'unresponsive_'
'unre'
'unpublished_'
'unofficial_'
'unlocker_'
'unlikely_'
'unl'
'undone_'
'umi'
'ull'
'ula'
'uan'
'uae_'
'u0'
'tự_'
'tā_'
'tí'
'typographical_'
'turkeys_'
'tumor_'
'tulsa_'
'tte'
'tta_'
'tru'
'troll_'
'trinityempire_'
'tream_'
'traveloka_'
'trap_'
'translators_'
'tram_'
'towers_'
'tournaments_'
'tournament_'
'tourism_'
'topo_'
'tooth_'
'tons_'
'tobago_'
'tobacco_'
'tob'
'toast'
'tm'
'tl'
'titans_'
'time'
'tight_'
'tienes_'
'tiene_'
'thời_'
'throat_'
'thrive_'
'tho'
'thi'
'theses_'
'theo_'
'thanh_'
'than'
'tf'
'textview01_'
'test'
'tes'
'tender_'
'telur_'
'teammates_'
'tea'
'tb'
'tat'
'tasker_'
'tap'
'tanween_'
'talk2_'
'tahlequah_'
'tad'
'sé'
'sword_'
'swipes_'
'swelling_'
'sv'
'suspended_'
'sushi_'
'suscripción_'
'surrounding_'
'superuser_'
'superior_'
'superb_'
'sup_'
'suites_'
'sugars_'
'sufficiency_'
'suffered_'
'substance_'
'subpoena_'
'subjects_'
'stylus_'
'strive_'
'stri'
'streamago_'
'stre'
'storing_'
'stlsupport_'
'stic_'
'stewart_'
'steelers_'
'statusbar_'
'stanford_'
'stan'
'stamina_'
'squares_'
'springfield_'
'spreaker_'
'sperm_'
'spells_'
'spectrum_'
'spark_'
'spacing_'
'sol'
'sna'
'smartchord_'
'sma'
'sm_'
'sm'
'slope_'
'sl'
'ski'
'siren_'
'singing_'
'sincerely_'
'simulate_'
'sidequest_'
'sid'
'shì_'
'shri'
'show'
'shout_'
'shot'
'shortlist_'
'shopsmart_'
'shim'
'shelves_'
'shan'
'sh'
'sfba_'
'sexually_'
'sex'
'seth_'
'semana_'
'sells_'
'selfadjointeigensolver_'
'seismic_'
'secara_'
'seatmap_'
'seating_'
'seasonal_'
'sean_'
'seahawks_'
'screen'
'score'
'sci'
'sche'
'scan'
'sc'
'sburg_'
'saúl_'
'say'
'sausage_'
'sativa_'
'satan_'
'sandals_'
'salt'
'saha'
'sag'
'sac'
'río_'
'ré'
'rum_'
'rum'
'rud'
'ruckus_'
'rub'
'rti'
'rr_'
'rp_'
'roz'
'rounds_'
'rotoworld_'
'ros_'
'roman_'
'roc_'
'robinson_'
'robin_'
'roa'
'rl'
'rite_'
'ripped_'
'rip_'
'ringo_'
'rihanna_'
'righteousness_'
'right'
'rif'
'ric_'
'rhino_'
'rewind_'
'rewarded_'
'revlon_'
'revis_'
'retransmit_'
'resumes_'
'respectful_'
'resistance_'
'resides_'
'reshaping_'
'resale_'
'reporter_'
'repetition_'
'repentance_'
'repeater_'
'renewal_'
'rendered_'
'render_'
'releasing_'
'rela'
'rein'
'refused_'
'refundable_'
'refreshed_'
'referrals_'
'ree_'
'rede'
'reco'
'recall_'
're2_'
'rcmp_'
'rays_'
'ray'
'rangers_'
'rang_'
'rand'
'ramen_'
'rad_'
'rad'
'rachel_'
'r1'
'qz_'
'quil'
'questionnaire_'
'que'
'qt'
'pw'
'pvt_'
'puzzles_'
'purse_'
'pun_'
'pumping_'
'pulled_'
'pubmed_'
'pré'
'proximity_'
'propagation_'
'promociones_'
'profetas_'
'professorlamp_'
'profecía_'
'problemas_'
'prison_'
'primarily_'
'preserve_'
'prep'
'precio_'
'pral_'
'pps_'
'powerschool_'
'power'
'pow'
'possibilities_'
'posi'
'pose_'
'porto_'
'portfolios_'
'por'
'pomegranate_'
'polynomials_'
'poet_'
'pnl_'
'plex_'
'pleasure_'
'playstore_'
'pla'
'pin'
'pihak_'
'pig'
'picking_'
'phần_'
'photooftheday_'
'pholar_'
'philosophy_'
'philips_'
'pharmaceuticals_'
'petrified_'
'perú_'
'permalink_'
'perm'
'performs_'
'perceived_'
'penalty_'
'peers_'
'pecuniary_'
'peak_'
'pdt_'
'pay'
'paulo_'
'patriots_'
'path'
'past'
'passbook_'
'partir_'
'particle_'
'pardisosupport_'
'parametrizedline_'
'papers_'
'paperclip_'
'pantalla_'
'pague_'
'pago_'
'paging_'
'pad'
'p1'
'oy_'
'ox'
'overhead_'
'overcast_'
'outlined_'
'otro_'
'oto'
'oti'
'ost'
'osis_'
'oscar_'
'osc'
'ort'
'orl'
'ork_'
'organizing_'
'ord'
'orang_'
'ont'
'ong'
'one'
'oleander_'
'ola'
'og'
'och'
'occult_'
'observe_'
'oba'
'ob_'
'oanda_'
'nytimes_'
'nw'
'nuzzel_'
'numeric_'
'nto'
'nta'
'nous_'
'notifier_'
'notebook_'
'noriega_'
'nor'
'nom'
'noah_'
'nk_'
'nis'
'nicasio_'
'nga_'
'neural_'
'nervous_'
'nerve_'
'neon_'
'neo'
'neighbors_'
'neighborhoods_'
'nederlandse_'
'ndr'
'ndls_'
'ncaaf_'
'nb'
'nausea_'
'naturally_'
'nat'
'nam_'
'nal_'
'nairobi_'
'nah'
'nada_'
'na'
'máximo_'
'mysterious_'
'myaccount_'
'municipal_'
'mum'
'mpu'
'movinapp_'
'motivated_'
'mori'
'morgan_'
'moni'
'mon'
'mod'
'mobond_'
'mnt_'
'mixing_'
'ministry_'
'minds_'
'mill_'
'migraine_'
'miento_'
'micrositio_'
'microsd_'
'mick'
'mf'
'mew_'
'metallic_'
'messy_'
'merri'
'mere_'
'mercado_'
'merc'
'mentions_'
'menses_'
'mena'
'memorization_'
'mein_'
'mediabay_'
'mechanic_'
'mec'
'meanings_'
'meaningful_'
'mclean_'
'mcca'
'may'
'matte_'
'mathfunctions_'
'mat_'
'mastercard_'
'massage_'
'masala_'
'masa_'
'mas'
'martian_'
'mart_'
'marital_'
'marcus_'
'marathon_'
'marathi_'
'map'
'mante'
'mania_'
'mani'
'maneuvering_'
'mandelbrot_'
'mandarin_'
'mam'
'mali'
'malacca_'
'maintains_'
'mails_'
'macros_'
'macleody_'
'maca_'
'maa'
'm2_'
'làm_'
'luteal_'
'lus_'
'lub_'
'lowercase_'
'lovoo_'
'loup_'
'louder_'
'looping_'
'locking_'
'llt_'
'lk'
'lister_'
'lipstick_'
'lips_'
'lingerie_'
'like'
'ligi_'
'lifemiles_'
'lie'
'libro_'
'levítico_'
'lep'
'len'
'leicester_'
'legendary_'
'lecture_'
'lect'
'leaked_'
'lawmakers_'
'late'
'lasting_'
'lanes_'
'landmines_'
'laj'
'lag_'
'lad'
'lace'
'lac'
'labour_'
'lab'
'ký_'
'kur'
'kohl_'
'kodi_'
'kms_'
'kin'
'kho'
'kentucky_'
'kei'
'kee_'
'kay'
'kat_'
'kardia_'
'jun'
'jude_'
'jr'
'jquery_'
'jou'
'johndonnellyfox26_'
'joel_'
'jn'
'jlpt_'
'jk'
'jh'
'jefferson_'
'javaparser_'
'jail_'
'jaguars_'
'ió_'
'için_'
'ize_'
'ivo'
'iv'
'ium_'
'itc_'
'israeli_'
'isis_'
'ish'
'isaiah_'
'irs_'
'irr_'
'iro'
'ire'
'ira'
'iptl_'
'ious_'
'inward_'
'involve_'
'ints_'
'intra'
'intimate_'
'interstate_'
'interjection_'
'intelligent_'
'insure_'
'insist_'
'insane_'
'inne'
'inmate_'
'inking_'
'injection_'
'inicia_'
'ingresa_'
'infos_'
'info'
'inf'
'ines_'
'indications_'
'indians_'
'inde'
'incorporating_'
'incompatibility_'
'inactivity_'
'ina'
'implies_'
'impending_'
'immunizations_'
'immigration_'
'ime'
'ila_'
'ikea_'
'ih'
'iew_'
'idgham_'
'identifies_'
'ico_'
'ibotta_'
'hypoparathyroidism_'
'hyperplane_'
'hydro'
'hw_'
'huntstand_'
'hulu_'
'hud'
'huawei_'
'hre'
'hp'
'how'
'householderqr_'
'hostile_'
'hol'
'hl'
'hit'
'historic_'
'hesitate_'
'hes_'
'herbs_'
'herb'
'henry_'
'hemo'
'helped_'
'hel'
'hee_'
'hed_'
'hebrew_'
'headsets_'
'headline_'
'head'
'hc'
'hbo_'
'hath_'
'hart'
'hardin_'
'haptic_'
'handmade_'
'handed_'
'hammer_'
'halt_'
'hal'
'hacer_'
'había_'
'h2'
'gö'
'gur'
'guilty_'
'guessing_'
'guava_'
'gua'
'greenwood_'
'gravity_'
'gran'
'gourmet_'
'goose_'
'good'
'gn'
'gloves_'
'glo'
'ghunnah_'
'ghostery_'
'geek_'
'gat'
'gailly_'
'gag'
'gab'
'g3'
'g2_'
'fur_'
'ful'
'frustrated_'
'fruitful_'
'frim_'
'frie'
'fred_'
'fre'
'frankieiz12_'
'forrest_'
'formed_'
'forgiven_'
'footwear_'
'follower_'
'fm'
'flynn_'
'flooring_'
'flipps_'
'fit'
'finishing_'
'findings_'
'financing_'
'fin'
'figures_'
'fighter_'
'fierce_'
'fidler_'
'fg'
'fft_'
'fewer_'
'festival_'
'ferry_'
'fel_'
'farsta_'
'fair'
'face'
'fabaceae_'
'eyeshadow_'
'expose_'
'expecting_'
'exi'
'exclamation_'
'exchanges_'
'examination_'
'eurusd_'
'ets_'
'eta'
'ester_'
'este'
'estar_'
'essentially_'
'esim_'
'esc'
'esa_'
'ert_'
'ero'
'erases_'
'eq'
'epi'
'environments_'
'entrar_'
'entertain_'
'ensures_'
'engie_'
'endocrinology_'
'encuentra_'
'encoding_'
'ence'
'ena_'
'employers_'
'emoticon_'
'emojitap_'
'emi'
'embargoed_'
'ella_'
'elder_'
'eibar_'
'eha'
'efficiently_'
'efficient_'
'edo'
'editions_'
'edin'
'edc'
'edad_'
'ecl'
'eca'
'ebates_'
'eat'
'ead_'
'décor_'
'drums_'
'drought_'
'dropped_'
'drift_'
'downs_'
'downloadable_'
'dove_'
'doodle_'
'donor_'
'document'
'dm'
'dle'
'distrito_'
'distraction_'
'disposal_'
'discontinued_'
'discarded_'
'disarm_'
'dip'
'dio_'
'diminished_'
'dil'
'digest_'
'difficulties_'
'diff_'
'dieu_'
'diamondbacks_'
'diagnose_'
'dev'
'designees_'
'departamento_'
'deli'
'deficit_'
'decree_'
'deca'
'dea'
'db'
'data'
'dat_'
'dash'
'dari_'
'dari'
'dag'
'dads_'
'd7'
'd6'
'código_'
'cá'
'cv'
'customarily_'
'curved_'
'curve_'
'cuota_'
'cul'
'cuba_'
'crédito_'
'crowds_'
'crisps_'
'crack_'
'cra'
'coworkers_'
'cow'
'covenants_'
'cousin_'
'court'
'courier_'
'courage_'
'cos_'
'correo_'
'core'
'cooling_'
'contributed_'
'consists_'
'configurations_'
'configurable_'
'confession_'
'conf_'
'concerts_'
'concept_'
'completes_'
'compa'
'communicating_'
'commitments_'
'commas_'
'come'
'coma_'
'colourblock_'
'colleagues_'
'coaches_'
'coa'
'co2_'
'cmi_'
'clipped_'
'climbing_'
'clearances_'
'citizen_'
'cit'
'chủ_'
'chronicles_'
'christopher_'
'chow_'
'chol'
'chin_'
'chilli_'
'chewey_'
'ches_'
'cherokee_'
'chen'
'chef_'
'ched_'
'cheat_'
'chapit_'
'chains_'
'cha_'
'cervix_'
'cerrar_'
'cer'
'ceo_'
'centered_'
'cent_'
'cent'
'cbr_'
'cash'
'cas'
'caroline_'
'carmen_'
'cardio_'
'cardekho_'
'captures_'
'cap'
'cans_'
'canon_'
'camarones_'
'cals_'
'callback_'
'calibre_'
'c2'
'búsqueda_'
'bw'
'but'
'burritos_'
'burn'
'burgers_'
'bureau_'
'bun_'
'bul'
'builds_'
'buick_'
'bryan_'
'broke_'
'brilliant_'
'bri'
'brew_'
'breads_'
'braves_'
'boxing_'
'bowls_'
'bones_'
'bolton_'
'bolivia_'
'body'
'bn'
'blu'
'bloomington_'
'blogger_'
'bleaching_'
'biology_'
'big'
'bieber_'
'bie'
'bethesda_'
'besiktas_'
'berg_'
'bent_'
'beneficios_'
'belonging_'
'behaviors_'
'beg'
'bec'
'beacons_'
'bay'
'baths_'
'basil_'
'bas'
'barred_'
'banners_'
'bangladesh_'
'ballet_'
'bala'
'bake_'
'bahwa_'
'backlight_'
'babilonia_'
'aye'
'ayam_'
'awhile_'
'audiobus_'
'au'
'attendant_'
'attaching_'
'ato'
'athletes_'
'ated_'
'ate'
'asse'
'asl_'
'asi'
'artificial_'
'argument_'
'ard'
'arctic_'
'archival_'
'architecture_'
'arbitrators_'
'aquí_'
'aprile_'
'approaching_'
'appleid_'
'appetizers_'
'appe'
'aortic_'
'anxious_'
'anvt_'
'anthony_'
'antes_'
'answering_'
'announces_'
'annie_'
'andy_'
'ando_'
'an'
'amour_'
'amente_'
'amd_'
'ambi'
'amberjack_'
'amateur_'
'ama_'
'alternating_'
'altair_'
'alp'
'all'
'alignedbox_'
'ales_'
'ald'
'alas'
'aland_'
'aj'
'airbnb_'
'aide_'
'agen'
'after'
'adrenergic_'
'adjusts_'
'adjacent_'
'adicional_'
'addressed_'
'adara_'
'adanaspor_'
'ad5a96_'
'action'
'achievemint_'
'accruing_'
'accomplished_'
'accomplish_'
'acc_'
'ably_'
'aberdeen_'
'abel_'
'abe'
'\u\u\u\u\u\u\u_'
'<<"..#....#..\\_'
'9kts_'
'9e'
'9b'
'999hpa_'
'972_'
'960_'
'956'
'940'
'925_'
'921'
'910_'
'8d_'
'8b'
'880_'
'86'
'8000_'
'7c'
'795_'
'77'
'733_'
'724_'
'720_'
'645_'
'625_'
'622'
'5x_'
'5e'
'556_'
'546_'
'521'
'520_'
'5000_'
'496_'
'479_'
'474_'
'449_'
'431_'
'429_'
'4155790909_'
'400'
'3x_'
'3x'
'3min_'
'3gp_'
'3e'
'3am_'
'398'
'375_'
'364'
'360'
'355_'
'349_'
'317634238274293_'
'311_'
'31'
'308_'
'2l_'
'2f_'
'2am_'
'299'
'285_'
'2560_'
'256'
'254'
'25000_'
'249'
'246_'
'246'
'23m_'
'231'
'23'
'220'
'21m_'
'214_'
'20kg_'
'207'
'203'
'202'
'201'
'1radionews_'
'1n'
'1f'
'1978_'
'1977_'
'1975_'
'1973_'
'1950_'
'18vccc_'
'18h_'
'183_'
'167_'
'15m_'
'151'
'14h_'
'148_'
'14152739840_'
'135'
'130'
'106'
'104'
'102'
'0d'
'09223537000_'
'0909_'
'050'
'024'
'011001100110_'
'/* _'
'....._'
'..'
'- (_'
'," "_'
', +_'
','
'*  (_'
'*   _'
')?_'
') – _'
') [_'
'() {_'
'('_'
'(" ;_'
'')") ;_'
'% '
'$._'
'#..\\_'
'" > _'
'!!'
'! - _'
' ♂_'
' ₺_'
' › _'
' · ‎_'
' | <_'
' ]_'
' > [_'
' = (/[\\_'
' <'
' .'
' -'
' "+" _'
' !'
'  · _'
'  |  _'
'    *_'
'     *_'
'       *_'
'          *_'
'           *_'
' 	 _'
'💜'
'🏼'
'￼'
'ﻳ'
'ﻮﻥ_'
'ﻪ_'
'ﻡ_'
'ﺳ'
'ﺮ_'
'ﺬ_'
'_'
'_'
'_'
'_'
'_'
'_'
'_'
'_'
'_'
'_'
'_'
'_'
'회_'
'현'
'행'
'해야_'
'함'
'하세요_'
'필요한_'
'편'
'주세요_'
'주_'
'정보'
'있는_'
'있'
'임'
'이용을_'
'이용_'
'원피스_'
'예'
'아이'
'속'
'서비스'
'사용하'
'북'
'변경'
'받'
'매'
'려'
'래'
'란'
'락'
'라'
'디'
'동의'
'덀_'
'단_'
'는'
'내용을_'
'남'
'기저귀_'
'고객'
'경우에는_'
'게재'
'검색'
'가입_'
'高'
'間'
'长'
'送'
'过'
'能'
'美食_'
'经'
'神'
'確認'
'用'
'理'
'特'
'無料_'
'次へ_'
'東急'
'月'
'是_'
'星'
'文'
'愛'
'後'
'學'
'士'
'周'
'同'
'各'
'可'
'加'
'利'
'你好'
'以'
'了'
'中文'
'三'
'ログイン'
'チ'
'サ'
'ら'
'ない'
'でき'
'つ'
'って'
'だ'
'せん_'
'する'
'す'
'して'
'され'
'ください_'
'❯_'
'❤ _'
'☺'
'★_'
'► _'
'▲ _'
'■  _'
'∞_'
'™ (_'
'℃_'
'″_'
'′_'
'”?_'
'”'
'’: _'
'‒‒‒_'
'‎'
' _'
'ức_'
'ục_'
'ời_'
'ộ'
'ết_'
'ያ'
'የአራዳ_'
'ራ'
'ለ'
'ไม_'
'ไทย_'
'ใหม_'
'เม_'
'ู้_'
'าน_'
'อน'
'อก'
'ห_'
'บาท_'
'ณ_'
'ช'
'ของ'
'กเกมมายา_'
'กลร_'
'ස_'
'න_'
'ു_'
'ழ_'
'।_'
'ी'
'ा'
'़_'
'वर_'
'मर_'
'म'
'ठ_'
'जन_'
'ई_'
'अ'
'ۓ_'
'يت'
'ني_'
'نا'
'لا'
'ك'
'قب'
'فل'
'عد'
'طي'
'شو'
'شا'
'زي'
'رب'
'خر'
'ث_'
'بي'
'بال'
'ار_'
'ار'
'ק'
'פ'
'ים_'
'қизи'
'қ'
'ға'
'є'
'ян'
'э'
'щи'
'шу'
'штрафы_'
'чиқар_'
'чи'
'ч'
'ур'
'ука'
'ук_'
'уз'
'тў'
'турар_'
'тол'
'су'
'сс'
'соч'
'про'
'при_'
'пере'
'оқ'
'он_'
'ом_'
'оз_'
'од'
'ов'
'ние_'
'най'
'лен'
'ле'
'лари_'
'ку'
'ким_'
'кетди_'
'инг_'
'ил_'
'ик_'
'же'
'жан'
'жа'
'ения_'
'ен'
'ем_'
'дир'
'ги_'
'вы'
'воз'
'ви'
'бу_'
'бир'
'ам'
'ак'
'айди_'
'ад'
'автомобиля_'
'авто_'
'авто'
'аб_'
'ο'
'μ'
'η_'
'ơng_'
'ń_'
'ł_'
'ł'
'ık'
'ġ'
'ğ'
'ė'
'đi_'
'íd'
'ì_'
'ê_'
'él'
'èß'
'æ'
'ã_'
'à'
'¼_'
'º_'
'²'
'}'
'zzblocked_'
'zs'
'zor'
'zoomed_'
'zomato_'
'zlib_'
'zipcode_'
'zes_'
'zer_'
'zenfone_'
'zelda_'
'zb'
'zapping_'
'zambia_'
'zac'
'yyy'
'xxxx_'
'xuân_'
'xt'
'xmas_'
'xd_'
'wta_'
'writers_'
'wrestling_'
'wrapped_'
'wp'
'worse_'
'worries_'
'world'
'workers_'
'worker_'
'wor'
'wondering_'
'wne'
'wn'
'wls_'
'witt'
'witness_'
'withings_'
'witch'
'wit'
'wisconsin_'
'wis10_'
'wink_'
'winds'
'willy_'
'will'
'wiggling_'
'wifi'
'wider_'
'widely_'
'whr1130_'
'who'
'whiz_'
'whats'
'westbrook_'
'werbung_'
'wells_'
'webcams_'
'wd'
'watchers_'
'warming_'
'wanting_'
'walter_'
'walk'
'wal_'
'wakes_'
'waitlist_'
'wah_'
'wagner_'
'w1'
'về_'
'vy'
'vt'
'vonage_'
'volvo_'
'vivid_'
'virtually_'
'violent_'
'violating_'
'vines_'
'vind'
'vincent_'
'vil'
'viggle_'
'vic'
'vert_'
'vert'
'versão_'
'versi'
'vent'
'venice_'
'vee_'
'varsity_'
'variation_'
'vapor_'
'van'
'valencia_'
'val_'
'v1'
'uz'
'uy'
'utilized_'
'uterine_'
'uta'
'ust'
'user'
'usar_'
'usa'
'urs_'
'urinary_'
'uns'
'unreal_'
'unported_'
'unisex_'
'unhide_'
'ungen_'
'unf'
'underground_'
'unde'
'und'
'uncover_'
'uli'
'ukrainian_'
'udisc_'
'uda'
'ud'
'ubuntu_'
'ubicación_'
'uar'
'tất_'
'tình_'
'tìm_'
'tw_'
'tutorialvideo_'
'tuhan_'
'tub'
'trusting_'
'trucker_'
'trip'
'trimester_'
'trillion_'
'tribe_'
'tribal_'
'trespass_'
'tre_'
'transpose_'
'transcription_'
'trang_'
'tracfone_'
'traces_'
'touches_'
'tot'
'tornadoes_'
'toned_'
'ton'
'tol'
'tok_'
'toi'
'toe_'
'tla'
'titanium_'
'tional_'
'tik_'
'tiers_'
'tics_'
'tia'
'thành_'
'thumbs_'
'throws_'
'thoroughly_'
'thickened_'
'therapeutic_'
'ther'
'theatres_'
'tet_'
'testimonies_'
'tesla_'
'tert'
'terrorism_'
'terrible_'
'terra'
'terminologies_'
'tenderness_'
'telugu_'
'tel'
'tee'
'tat_'
'tastyspots_'
'taskbar_'
'tas_'
'targeting_'
'targeted_'
'tara'
'tal'
'tack'
't0'
'sách_'
'synthetic_'
'synthesis_'
'synchronizing_'
'swim_'
'sville_'
'suv_'
'susbcribe_'
'susan_'
'surge_'
'sur'
'sunglasses_'
'sul_'
'suicidal_'
'suggesting_'
'succeeded_'
'subcontractors_'
'su'
'stubhub_'
'stro'
'streamer_'
'streak_'
'stockholm_'
'sting_'
'sternotomy_'
'steals_'
'staying_'
'stayed_'
'stat'
'stacking_'
'sser'
'ssd_'
'srs_'
'sr'
'spyware_'
'sprouts_'
'sprout_'
'sports'
'sport'
'splash'
'spirituality_'
'spices_'
'spf_'
'speedview_'
'speed'
'specialized_'
'spa'
'southland_'
'south'
'soups_'
'solomon_'
'solicit'
'soil_'
'socks_'
'sober_'
'snippets_'
'sni'
'snapshots_'
'snap'
'sn_'
'smoother_'
'smiling_'
'smileys_'
'smashbox_'
'sli'
'skyrim_'
'sku_'
'skipped_'
'sits_'
'sions_'
'silver'
'silly_'
'silk_'
'siguiente_'
'sightseeing_'
'sighting_'
'sidi_'
'sich_'
'sib'
'sia_'
'shredded_'
'showtimes_'
'showroom_'
'showingtime_'
'shorten_'
'shining_'
'shifting_'
'sherlock_'
'sher'
'sharecare_'
'shad'
'sgr01_'
'seventy_'
'setuju_'
'ses'
'servant_'
'serv'
'seriesguide_'
'separator_'
'seo'
'sense360_'
'senegal_'
'senders_'
'semester_'
'selec'
'seemingly_'
'seemed_'
'seal_'
'seafood_'
'sea'
'scrub_'
'scooter_'
'scha'
'scam_'
'sat'
'sas'
'santo_'
'sans'
'sandbox_'
'sanchez_'
'salva'
'salons_'
'salads_'
'sailgrib_'
'sai'
'safeguards_'
'sabzi_'
'saat_'
's2'
's10_'
'rén_'
'rz'
'rx'
'rv'
'rush'
'rup'
'run'
'rumors_'
'ruling_'
'rsvps_'
'rse'
'royals_'
'rot'
'rookie_'
'român_'
'romans_'
'roi'
'roadster_'
'rn'
'rip'
'riot_'
'rio'
'rin'
'ries_'
'rg_'
'rf'
'reve'
'retweeted_'
'restrain_'
'responsive_'
'responds_'
'respiratory_'
'resets_'
'rer'
'repa'
'renewed_'
'renal_'
'rema'
'relieve_'
'reli'
'rejection_'
'rehab_'
'registra'
'reflection_'
'reflected_'
'refined_'
'redirected_'
'recruitment_'
'recommends_'
'receptions_'
'rec'
'realized_'
'readme_'
'rea'
'rbfcu_'
'rau'
'ranges_'
'randomcall_'
'rams_'
'ram'
'rally_'
'radians_'
'races_'
'qw'
'quit'
'quicker_'
'questionnaires_'
'quantities_'
'quant'
'qualify_'
'qualifier_'
'qq_'
'qi'
'página_'
'px_'
'pvp_'
'pursuit_'
'purchaser_'
'puntos_'
'punt'
'punk_'
'punjabi_'
'punctuation_'
'puedes_'
'publicidad_'
'prov'
'prosper_'
'pros_'
'prop'
'prone_'
'promoting_'
'promoted_'
'programmer_'
'programas_'
'prof'
'procure_'
'proceso_'
'proc'
'prob'
'privilege_'
'privacypolicy_'
'privacidad_'
'preventing_'
'prevail_'
'prestige_'
'prescriptions_'
'pref'
'predecessor_'
'pran_'
'pradesh_'
'practicing_'
'powers_'
'powers'
'pouring_'
'pou'
'potatoes_'
'poss'
'poses_'
'porter_'
'port'
'pornographic_'
'poli'
'pn_'
'pm'
'plush_'
'plo'
'pledge_'
'plains_'
'plainly_'
'placeholder_'
'pizzas_'
'pipe_'
'pinpoint_'
'pills_'
'pillow_'
'pickled_'
'phòng_'
'phonics_'
'phiên_'
'pf'
'peyi_'
'pes'
'permitting_'
'pere'
'pennsylvania_'
'pedidosjá_'
'pedidos_'
'pedi'
'pea'
'pdfs_'
'pdffiller_'
'pb'
'pays_'
'payor_'
'pathfinder_'
'pasted_'
'partidos_'
'paro'
'parnassus_'
'parmesan_'
'park'
'pare'
'pant_'
'paneling_'
'pandamonium_'
'panda'
'pall'
'paleo_'
'palabra_'
'pala'
'pal'
'pag'
'oz'
'overburden_'
'oven_'
'ov'
'outward_'
'outcome_'
'ously_'
'oul'
'otras_'
'ote_'
'orm'
'orly_'
'orion_'
'originate_'
'orig'
'optiplex_'
'opposed_'
'opo'
'opds_'
'onwards_'
'onset_'
'oni'
'ond'
'omega_'
'old'
'oj'
'oint'
'og_'
'ofrece_'
'offseason_'
'odd_'
'oca'
'obra_'
'obedience_'
'nz'
'nuts_'
'nsu'
'nrg_'
'nr'
'np'
'nowcast_'
'now'
'novel_'
'northbound_'
'norte_'
'normand_'
'normal'
'noodle_'
'nombre_'
'nnw_'
'nn'
'nm'
'nightclub_'
'night'
'nielsen_'
'nicht_'
'nhạc_'
'ngày_'
'ngo'
'ngan_'
'neymar_'
'nextdoor_'
'neue_'
'netmovies_'
'needing_'
'neck'
'neb_'
'nea'
'ncaab_'
'nc'
'nazareth_'
'nav'
'napoli_'
'nap'
'nal'
'nada'
'naci'
'münchen_'
'má'
'myp'
'mynb_'
'myfritz_'
'mye'
'mw'
'mvc_'
'muy_'
'mut'
'mustang_'
'musician_'
'music'
'musc'
'mus'
'murray_'
'mug'
'mp'
'może_'
'movers_'
'mortal_'
'more'
'mora'
'mood'
'moo'
'monte_'
'monica_'
'mommy_'
'molasses_'
'mnemonics_'
'mmol_'
'missouri_'
'mississippi_'
'missile_'
'mismo_'
'misconduct_'
'minnesota_'
'minivan_'
'mining_'
'ming_'
'mil_'
'micromedex_'
'micro'
'mgautoplay_'
'mg'
'metropolitan_'
'mete'
'metatrader_'
'meta'
'mess'
'mesh_'
'meri'
'merchantable_'
'menta'
'mens'
'mend'
'men'
'melody_'
'mel'
'mediaserver_'
'median_'
'media'
'med'
'mechanisms_'
'mecca_'
'mea'
'maya_'
'maxi_'
'maven_'
'mau'
'masa'
'marr'
'markt_'
'marinated_'
'marcel_'
'marc_'
'manufacturers_'
'mantras_'
'mann_'
'majeure_'
'maj'
'mail'
'macau_'
'macarthur_'
'm4a_'
'm4_'
'm3_'
'm1_'
'm1'
'lịch_'
'lượt_'
'lynn_'
'lvl_'
'lustrous_'
'lup'
'lullaby_'
'lufthansa_'
'luego_'
'lucid_'
'lrc_'
'lowered_'
'los'
'lor'
'lli'
'literary_'
'liquid_'
'lip_'
'lion_'
'likers_'
'light'
'lifts_'
'lifting_'
'lid'
'lgbt_'
'lever_'
'lev'
'lenovo_'
'len_'
'lei'
'legislative_'
'leg'
'leep'
'led'
'ld_'
'lcd_'
'lax_'
'lastly_'
'last'
'lar_'
'lapse_'
'lang_'
'lande'
'lanc'
'lama_'
'lah_'
'lah'
'lado_'
'kut'
'kurt'
'kuchen_'
'kts_'
'kristi'
'kot'
'konten_'
'konsa_'
'knusprig_'
'knowingly_'
'knight_'
'kml_'
'kmart_'
'km'
'kka'
'kj'
'kit'
'kin_'
'kilometer_'
'keşfet_'
'kestrel_'
'kendall_'
'ken'
'kell'
'kee'
'kd'
'kayak_'
'kawa'
'kanały_'
'kai'
'kaave_'
'k1'
'jw_'
'junto_'
'julio_'
'journeys_'
'journalism_'
'jour'
'johnny_'
'jobab_'
'jin'
'jimmy_'
'jika_'
'jethro_'
'jaw_'
'jamming_'
'jam'
'jailbroken_'
'jadusable_'
'jacob'
'jackpot_'
'iz_'
'ivory_'
'ivi'
'istanbul_'
'ista_'
'iso'
'isha_'
'isa_'
'ips'
'ipharmacy_'
'iones_'
'io'
'interés_'
'interpretations_'
'internacional_'
'intern'
'inter_'
'integrate_'
'int'
'instant'
'instala'
'insta_'
'inse'
'inoperable_'
'ino_'
'ink'
'injustice_'
'initials_'
'inglés_'
'infrastructure_'
'infinity_'
'incorporates_'
'inco'
'inclusive_'
'imply_'
'impaired_'
'imo'
'immune_'
'imam_'
'imaging_'
'illustration_'
'illnesses_'
'illa'
'ile'
'ii'
'ige'
'ifi'
'ied_'
'ido_'
'ideo'
'identical_'
'ident'
'ide'
'idaho_'
'ico'
'iccid_'
'ically_'
'iad'
'hypnosis_'
'hyper'
'hydration_'
'hus'
'hunger_'
'hungary_'
'humble_'
'humans_'
'hukum_'
'hue_'
'hs'
'href_'
'hra'
'hoạt_'
'hovering_'
'houses_'
'hore_'
'hopkins_'
'hoping_'
'hooked_'
'honour_'
'hombre_'
'hm'
'hj'
'hiện_'
'hiring_'
'hina'
'hijri_'
'hia'
'hhjh_'
'hh_'
'hf'
'herself_'
'hereto_'
'here'
'herd_'
'helen_'
'headphone_'
'headboard_'
'haya_'
'hawk_'
'haunting_'
'hats_'
'harvard_'
'hart_'
'harmoni'
'harbisson_'
'hanna_'
'hang'
'hama'
'haley_'
'h4'
'h2o_'
'gusto_'
'gun'
'guinea_'
'gucci_'
'guardzilla_'
'grátis_'
'groupon_'
'groove_'
'grooming_'
'grim'
'grew_'
'greader_'
'grand'
'grades_'
'gpps_'
'gp1s'
'gooding_'
'gods_'
'gloss_'
'glorious_'
'gloire_'
'gle'
'girly_'
'giraffe_'
'gijon_'
'ght'
'ghosts_'
'gf'
'gest'
'geração_'
'gentle_'
'gent_'
'gener'
'gcs_'
'garment_'
'garbage_'
'gana'
'gambling_'
'gains_'
'gadgets_'
'fwd_'
'fun'
'frontpage_'
'fritz_'
'frequents_'
'freesound_'
'framing_'
'founder_'
'fought_'
'foto_'
'formation_'
'forma_'
'forbid_'
'food'
'folsom_'
'folk_'
'fn'
'flv_'
'florence_'
'floors_'
'flixster_'
'flirty_'
'flip'
'fli'
'flames_'
'fitbreak_'
'first'
'firestone_'
'fired_'
'fil'
'fig'
'fifths_'
'fidella_'
'fidelis_'
'fic'
'fha_'
'ffer_'
'ffe'
'festive_'
'fest_'
'femme_'
'fdl_'
'faça_'
'faxreceive_'
'fat'
'fashion'
'fart'
'far'
'fan'
'fam'
'fairly_'
'faded_'
'f2'
'f1'
'eye'
'extra'
'ext'
'expl'
'experiments_'
'exhaust_'
'excessive_'
'exceptional_'
'exa'
'ewr_'
'ew_'
'every'
'evaluate_'
'eto'
'eternity_'
'estás_'
'estrus_'
'esti'
'essen_'
'esp_'
'ese'
'esa'
'ery'
'ero_'
'ern'
'erkek_'
'erh'
'ere_'
'erasing_'
'equipo_'
'equals_'
'ep2'
'eon_'
'eo_'
'ents_'
'entretenimiento_'
'entre'
'entrada_'
'enti'
'enters_'
'enta'
'ens'
'enrolled_'
'enh'
'endocrine_'
'endangered_'
'end'
'employed_'
'emotion_'
'emma_'
'emissions_'
'emergencies_'
'embargo_'
'ema'
'elm'
'elli'
'elle'
'eliminate_'
'elegir_'
'electro'
'elaineg1_'
'ela'
'egift_'
'ege'
'ega'
'ef_'
'e8'
'e7'
'dünne_'
'dé'
'dzie'
'dwsn_'
'durable_'
'duper_'
'duolingo_'
'dum'
'dul'
'dte_'
'drummer_'
'drew_'
'drafted_'
'doubts_'
'dou'
'dor'
'donde_'
'dominique_'
'dnd_'
'dna_'
'dn'
'dm_'
'dk'
'diy_'
'divorced_'
'disseminate_'
'disrupt_'
'disneyparks_'
'discovers_'
'discharge_'
'directing_'
'dir'
'dips_'
'dij'
'differential_'
'dib'
'diana_'
'diagnosed_'
'dex_'
'deviation_'
'detergent_'
'desperate_'
'desi'
'dermatology_'
'derivatives_'
'departs_'
'departing_'
'deno'
'deine_'
'dehydrated_'
'defensive_'
'defeated_'
'deep'
'decompilation_'
'declining_'
'declined_'
'deception_'
'dealdash_'
'dba_'
'darker_'
'dare_'
'damn_'
'daly_'
'dailyroads_'
'dades_'
'd3'
'd0'
'cz_'
'cz'
'cw'
'cv_'
'cutmp2_'
'cure_'
'cupcakes_'
'cular_'
'cua'
'cts_'
'cted_'
'crowned_'
'crow'
'cross'
'croatia_'
'creature_'
'cran'
'crafts_'
'cracked_'
'counterfeit_'
'couch_'
'costume_'
'cos'
'corruption_'
'cord'
'copper_'
'cooper_'
'convertible_'
'controlling_'
'content'
'consents_'
'consenting_'
'congrats_'
'confirms_'
'conditioners_'
'conditioned_'
'conditional_'
'concessions_'
'conapremm_'
'complimentary_'
'compli'
'completa_'
'commonwealth_'
'commissions_'
'commercials_'
'commented_'
'comma_'
'comm'
'comfy_'
'comb_'
'comb'
'collar_'
'cole'
'cogs_'
'coat_'
'cluzet_'
'clove_'
'closures_'
'climb_'
'clean'
'classroom_'
'citizens_'
'cis'
'cin'
'cider_'
'cia'
'chrudim_'
'chor'
'chooser_'
'chit'
'chip_'
'chickadee_'
'cher_'
'cher'
'cheerleader_'
'cheap'
'chat'
'charm_'
'charlotte_'
'chari'
'chanel_'
'chamber_'
'cet_'
'cere'
'cerc'
'cep'
'centyl_'
'cell'
'cea'
'cchi'
'cbs_'
'cavs_'
'cavaliers_'
'cautiverio_'
'catering_'
'catalogs_'
'card'
'cara_'
'capt'
'capped_'
'cann'
'candle_'
'cancelar_'
'cana'
'campo_'
'cameroon_'
'calvin_'
'calc_'
'cain_'
'cai'
'bò_'
'bx'
'buys_'
'butterknife_'
'bust_'
'business'
'burning_'
'burglary_'
'burg'
'bun'
'bulletin_'
'bulb_'
'budgets_'
'buddies_'
'buckle_'
'buck'
'buch'
'bts_'
'brow'
'bronze_'
'brokers_'
'broker_'
'britain_'
'bridges_'
'bras_'
'braking_'
'brad_'
'brac'
'boyahoy_'
'boxed_'
'bowman_'
'bowling_'
'bourbon_'
'boring_'
'bore'
'bon_'
'boho_'
'boats_'
'bluelight_'
'bloomin_'
'blitzer_'
'bli'
'blanks_'
'blanket_'
'bla'
'bk_'
'biết_'
'bitte_'
'bir'
'bip_'
'bingham_'
'bin'
'bien_'
'bie_'
'biblica_'
'bibles_'
'bestsellers_'
'besti'
'berkeley_'
'benjamin_'
'bengali_'
'bench'
'belongs_'
'bellow_'
'belief_'
'bee_'
'bds_'
'batteries_'
'bash_'
'barr'
'bari'
'bargain_'
'barcodes_'
'barclays_'
'barbarian_'
'baptist_'
'bangkok_'
'bang_'
'bang'
'banco_'
'ball'
'bai'
'bagels_'
'bag'
'bad'
'bacterial_'
'backward_'
'backers_'
'bachelor_'
'bab'
'baal'
'baa'
'b2_'
'awk_'
'awful_'
'awaiting_'
'aviation_'
'avia_'
'avi'
'avatars_'
'autoscroll_'
'autos_'
'autop'
'aur'
'attributes_'
'attendance_'
'atrial_'
'atom_'
'athens_'
'ath'
'atención_'
'assumed_'
'associates_'
'assisted_'
'asset_'
'assess_'
'aspiration_'
'ascension_'
'ascended_'
'artrage_'
'articulation_'
'arriving_'
'armstrong_'
'armenian_'
'arma'
'arguments_'
'argonaut_'
'argon_'
'ares_'
'aqua'
'approvals_'
'aplicativo_'
'apabila_'
'ao'
'anyconnect_'
'anu'
'antip'
'anti'
'ans'
'anr'
'ange'
'android'
'amresorts_'
'amplified_'
'amid_'
'ambassador_'
'amanda_'
'amal'
'aly_'
'alphabetical_'
'alph_'
'alpes_'
'aloud_'
'almond_'
'alma'
'allo_'
'allergen_'
'alla'
'ality_'
'aligned_'
'alien'
'alias_'
'aja'
'aires_'
'aired_'
'aioli_'
'ail'
'ahmed_'
'aha'
'agriculture_'
'aging_'
'affordable_'
'afford_'
'affixed_'
'affirm'
'aeropuerto_'
'aero'
'advisable_'
'adrian_'
'adopted_'
'adel'
'ade'
'add'
'adaptive_'
'adair_'
'acuity_'
'acuerdo_'
'actualizado_'
'activ'
'actionbar_'
'acne_'
'ack'
'acer_'
'accumulated_'
'accra_'
'accompanies_'
'acc'
'acar_'
'academic_'
'abl'
'abi'
'abhibus_'
'abd'
'a9_'
'a3_'
'a2'
'` '
'] > _'
'?!_'
'> <_'
'= '
'<<"_'
': «_'
': -_'
'995_'
'986350_'
'983'
'970523_'
'958'
'942087_'
'94109_'
'94'
'937_'
'935_'
'932'
'901_'
'8e'
'87'
'8642_'
'844_'
'83'
'823357_'
'822903_'
'820_'
'813425_'
'808_'
'806713_'
'7mb_'
'7m_'
'7e'
'7d_'
'799_'
'789298_'
'780_'
'773697_'
'771067_'
'762450_'
'730114_'
'705670_'
'664446_'
'662_'
'616_'
'5min_'
'5m'
'592382_'
'560_'
'56'
'555'
'54m_'
'53m_'
'532563_'
'512_'
'503'
'5000'
'4x_'
'4m_'
'4999_'
'498_'
'483_'
'481'
'469706_'
'466_'
'464'
'45a_'
'456'
'442223_'
'434_'
'428436_'
'420_'
'409'
'402_'
'3f'
'396599_'
'389298_'
'378_'
'371_'
'363'
'358_'
'357_'
'350'
'348_'
'339_'
'331974_'
'32gb_'
'327_'
'321'
'316_'
'3116_'
'2l'
'2b_'
'297_'
'277_'
'275875_'
'272_'
'270'
'265'
'25mg_'
'258_'
'242'
'241_'
'241497_'
'233'
'22nd_'
'229'
'227'
'222858_'
'221452_'
'220409_'
'214607_'
'213'
'2048_'
'20170227_'
'2000'
'1분_'
'1x_'
'1w_'
'1h'
'1am_'
'1981_'
'1979_'
'196_'
'195'
'193_'
'190'
'187_'
'185'
'182224_'
'175'
'173_'
'16th_'
'16gb_'
'163'
'158_'
'157'
'156'
'155'
'154'
'147'
'143'
'137_'
'12d_'
'129'
'127801_'
'126'
'1250_'
'125080_'
'1222_'
'121'
'115'
'101'
'1001_'
'1000'
'0x'
'0c'
'098'
'032_'
'029842_'
'015'
'004_'
'003_'
'001'
'000110011000_'
'.''
'.  _'
'--------------------------------_'
'-(_'
', $_'
'+/- _'
'++_'
'++'
'***@***._'
'****_'
'* [_'
')"'
') <_'
'% = _'
'" * _'
'!) _'
'!");_'
' ›_'
' ········································································································································································································_'
' ¤_'
' = '
' :"" _'
' +'
' *#_'
' )._'
' )'
' ' _'
' ""[_'
'  ~  _'
'  $_'
'   |   $_'
'￼_'
'ﻴ'
'ﻨ_'
'ﺣ_'
'ﺑ_'
'ﺐ_'
'ﺃ_'
'﴾_'
'ﮐ'
'_'
'_'
''
'_'
'_'
'_'
'_'
'_'
'_'
'_'
'_'
'회'
'하트는_'
'폭'
'페이스북_'
'패션_'
'파'
'트_'
'타인의_'
'타'
'키'
'클'
'콘'
'친구'
'취'
'초'
'지지_'
'준'
'접'
'적인_'
'적용'
'적_'
'장애'
'장'
'있으며_'
'인증'
'이하_'
'음악'
'음_'
'은'
'위치'
'월_'
'욕'
'오늘_'
'었'
'약관의_'
'앱'
'았'
'알림'
'실_'
'승인'
'습니다_'
'스토리_'
'선택'
'서비스의_'
'서_'
'색_'
'사랑'
'분유_'
'복'
'보이'
'별'
'발달'
'미세먼지_'
'물_'
'목록_'
'매일_'
'마미안_'
'리_'
'때'
'당사에_'
'다양한_'
'니다_'
'능'
'눈_'
'노'
'기준을_'
'국'
'구_'
'광고'
'관련하여_'
'경'
'것으로_'
'개인정보_'
'개인정보'
'감'
'가입하기_'
'餐'
'食'
'連'
'見'
'要'
'自動'
'自'
'育児'
'程'
'社'
'着'
'真'
'的人'
'登録_'
'生理'
'热'
'漫画'
'気'
'検索'
'最新'
'時'
'明'
'放'
'收'
'拍立淘_'
'才'
'我的'
'必'
'影'
'年'
'師'
'少'
'客'
'子'
'天_'
'多'
'外'
'合'
'台'
'发'
'北'
'前'
'内'
'关'
'入浴者_'
'元_'
'儿'
'会員'
'件_'
'件'
'他'
'买'
'ログイン_'
'ロ'
'レ'
'リ'
'メ'
'ブックマーク'
'ック'
'クリニック_'
'クリア_'
'キ'
'ん_'
'よ'
'ので'
'に登録'
'など'
'なく'
'せ'
'することができます_'
'すか_'
'さ'
'きゅう'
'がありま'
'お知らせ_'
'、「_'
'♡_'
'★'
'◦_'
'◆_'
'▪ _'
'⑤_'
'∼ _'
'↠_'
'™ • _'
'€)_'
'‬ _'
'••• _'
'••_'
'’, _'
'’'
'ỏ'
'ị'
'ấn_'
'ạn_'
'ይችላሉ_'
'ወደ_'
'ክ_'
'አ'
'ማ'
'ለማ'
'แล_'
'ู'
'ึ_'
'ี่ _'
'าว'
'าย'
'าน'
'อนหล_'
'ห'
'ษ_'
'ฟ'
'พร_'
'นอ'
'ක_'
'വ_'
'ெ_'
'ா_'
'தம_'
'াং_'
'র'
'े'
'ह'
'स'
'शन_'
'श'
'ड'
'ट'
'उ'
'इम_'
'ی'
'٣_'
'ُّ_'
'َّ _'
'َ '
'َ'
'يجيبها_'
'يا'
'وي'
'وم'
'ورا_'
'نس'
'نت'
'مــ'
'مش_'
'مر'
'مة_'
'مار'
'لو'
'كو'
'كل'
'كا'
'فر'
'غ_'
'رف'
'رج'
'رة_'
'دخل_'
'خير_'
'حا'
'جل'
'جا'
'تش'
'تخ'
'الب'
'اك_'
'اح'
'أديس_'
'أدعية_'
'أخبار_'
'أبابا_'
'؟'
'ע'
'ס'
'ן_'
'ד'
'қу'
'қар'
'қани_'
'қал'
'ғо'
'ғи'
'ўхшар_'
'ўл'
'ют'
'энди_'
'экран'
'ыва'
'шт'
'шо'
'чо'
'ц'
'хона'
'хи'
'ун'
'тан'
'сув_'
'сув'
'срок_'
'сов'
'ск'
'система_'
'сен'
'света_'
'ра_'
'приложение_'
'под'
'пов'
'пашша'
'па'
'оптика_'
'он'
'нн'
'нг'
'ная_'
'москва_'
'минут_'
'ми'
'мен_'
'мак'
'май_'
'ларга_'
'кўзи_'
'купить_'
'кун_'
'кс'
'кета'
'ишла'
'ичи_'
'ист'
'ир'
'из'
'ие_'
'жи'
'ени'
'ей_'
'десам_'
'д'
'водител'
'во'
'ве'
'бў'
'ас'
'ани'
'λ'
'α_'
'̲̅'
'ə'
'życia_'
'şi'
'ń'
'łow'
'łe'
'ın_'
'ęc'
'động_'
'độ_'
'điện_'
'ăn_'
'þø'
'über'
'última_'
'ões_'
'ô_'
'ô'
'ï'
'î'
'ência_'
'ér'
'én_'
'ée_'
'ès_'
'ções_'
'ähnliche_'
'ã'
'ân'
'àą'
'®. _'
'  '
'}}{{_'
'zy'
'zucchini_'
'zl'
'ziprecruiter_'
'zillow_'
'zer'
'zeit'
'zar_'
'zah'
'yubatake_'
'yre'
'yp'
'youku_'
'ym'
'yla'
'yk_'
'yidio_'
'yf'
'yes'
'yaşaroğlu_'
'yap_'
'yall'
'y8'
'xplay_'
'xpc_'
'xp'
'xic'
'wtae_'
'wrapper_'
'wq'
'wows_'
'workspace_'
'workshop_'
'workplaces_'
'wool_'
'wl_'
'withdrawals_'
'withdrawal_'
'winter'
'windy_'
'wildfire_'
'wie_'
'wid'
'whoever_'
'whip'
'whio_'
'whilst_'
'wfla_'
'wel'
'weig'
'wei'
'weddings_'
'weather'
'wears_'
'wearable_'
'wb'
'watford_'
'waste_'
'wartości_'
'wan'
'walks_'
'wald'
'wal'
'wakie_'
'wake'
'waitr_'
'vídeos_'
'vào_'
'voxofon_'
'voonik_'
'vomiting_'
'vnc_'
'vlc_'
'vkontakte_'
'viz'
'vit'
'visi'
'virginia_'
'villains_'
'vik'
'vie'
'vicinity_'
'versy_'
'vern'
'vermont_'
'verkehrsverbund_'
'veracruz_'
'vera'
'venusaur_'
'vem'
'ved_'
'vb'
'vatican_'
'vat'
'vale_'
'val'
'vai_'
'vad'
'vacant_'
'vac'
'utilizing_'
'utilizes_'
'utanipenda_'
'ush'
'uri_'
'urges_'
'urg'
'urb'
'ural_'
'ups'
'upp'
'uo'
'unw'
'unverified_'
'unst'
'unse'
'unrea'
'unra'
'unplugged_'
'unpl'
'unos_'
'unmute_'
'unk'
'univ'
'unin'
'undisclosed_'
'undertaking_'
'under'
'uncon'
'uncle_'
'unarchive_'
'unaltered_'
'ulu'
'ulthar_'
'ulta'
'ulmon_'
'ule'
'uj_'
'ui'
'uf'
'uer'
'udta_'
'udi'
'uci'
'uch_'
'uat'
'ual'
'u1'
'té_'
'tyc'
'twrp_'
'two'
'twilight_'
'twi'
'tweak_'
'turtle_'
'turner_'
'turbulence_'
'tunisia_'
'tun'
'tummy_'
'tuc'
'tub_'
'tua'
'tto_'
'tsu'
'trên_'
'trunk_'
'trumpet_'
'trou'
'trophy_'
'tric'
'tribair_'
'triangularsolvermatrix_'
'triangularmatrixvector_'
'triangularmatrixmatrix_'
'triangular_'
'trendy_'
'tren'
'trea'
'travis_'
'tras'
'transposition_'
'transformed_'
'transcriptions_'
'transact_'
'tran'
'traits_'
'trails_'
'trafficking_'
'tradition_'
'trackball_'
'touchdowns_'
'touchcontrol_'
'tou_'
'torre'
'torneo_'
'toptags_'
'tommy_'
'tomas_'
'tofu_'
'todd_'
'tle'
'tj_'
'timoteo_'
'timote_'
'timo'
'til_'
'tikl_'
'ticks_'
'thực_'
'thyroid_'
'throne_'
'thoveee_'
'thorn'
'thompson_'
'thir'
'thighs_'
'thigh_'
'thickness_'
'thereby_'
'thel'
'theb'
'thanksgiving_'
'thankfulness_'
'tester_'
'tesalonicenses_'
'territorial_'
'terminals_'
'termina'
'terjadi_'
'teriyaki_'
'tering_'
'terhadap_'
'tene'
'tempe_'
'temp'
'tem'
'telescope_'
'telecommunication_'
'tek_'
'tein_'
'teens_'
'ted'
'teaspoons_'
'team'
'teal_'
'teaches_'
'tcf_'
'taurus_'
'taurasi_'
'tas'
'tarjeta_'
'tanzania_'
'tann'
'tang'
'tampering_'
'tamp'
'tamaño_'
'tam'
'talked_'
'talkbox_'
'taka'
'tai'
'table'
'sı'
'sólo_'
'sélectionnez_'
'synth_'
'synchronized_'
'swiss_'
'swf_'
'sweetwater_'
'sweet'
'sweat'
'swear'
'swat'
'swan_'
'sw'
'svjk_'
'suspects_'
'surrender_'
'surname_'
'surgeon_'
'superman_'
'sunset'
'sumo_'
'sula_'
'sul'
'sufficiently_'
'sudoku_'
'sud'
'subtle_'
'subt'
'subfolders_'
'suba'
'stumblers_'
'stud'
'stry_'
'struck_'
'strobe_'
'stretches_'
'streets_'
'strawberry_'
'strangers_'
'strains_'
'stopwatch_'
'stopping_'
'ston'
'stol'
'stimulating_'
'stic'
'sters_'
'ster'
'stepsapp_'
'step'
'stee'
'steadily_'
'stea'
'stdlist_'
'stddeque_'
'start'
'starring_'
'staples_'
'standby_'
'standardized_'
'stal'
'sso'
'ssc_'
'sri_'
'sre'
'squa'
'spra'
'spotting_'
'sportscentre_'
'spoofing_'
'sponsorship_'
'spoilers_'
'spinnr_'
'spinning_'
'spicer_'
'speedo_'
'spectacular_'
'spect'
'specialists_'
'spatial_'
'sparsed'
'sparsecholesky_'
'spaghetti_'
'soulmate_'
'sou_'
'sorts_'
'sophisticated_'
'sop'
'somewhat_'
'somalia_'
'solano_'
'softer_'
'sofa_'
'soa'
'snapdeal_'
'smoothly_'
'smo'
'smiles_'
'smartshare_'
'smartglass_'
'sls_'
'sloterdijk_'
'slo_'
'sling_'
'slideout_'
'sleepy_'
'sleep'
'slc_'
'skyline'
'skout_'
'ske'
'ska'
'situps_'
'sit'
'sisters_'
'sis'
'sion'
'sinima_'
'sinh_'
'sing'
'simplify_'
'simplicity_'
'similarly_'
'siemens_'
'sic'
'siap'
'si'
'shut'
'shrink_'
'showed_'
'showbiz_'
'shou'
'shortened_'
'shoppers_'
'ship'
'shin'
'shift'
'sharealike_'
'shaping_'
'shame_'
'shal'
'shah'
'sha_'
'señor_'
'seçenekleri_'
'seç'
'sew_'
'sevilla_'
'serg'
'sept_'
'senta'
'sensity_'
'senden_'
'semua_'
'selfadjointmatrixvector_'
'selfadjointmatrixmatrix_'
'selfadjoint_'
'selfadjoint'
'sek'
'sei'
'seguridad_'
'seg'
'seek'
'sed'
'seated_'
'screaming_'
'scorers_'
'scorecard_'
'scop'
'sconto_'
'schwarz'
'schwa'
'schum'
'scho'
'schnee_'
'schizophrenia_'
'scenario_'
'scattered_'
'savertips_'
'sav'
'sathon_'
'sar'
'sans_'
'samy'
'sam'
'salwar_'
'salman_'
'sali'
'salah_'
'sail_'
'sahara_'
'sah'
'sagar_'
'saavn_'
's1'
'rán_'
'ruh'
'rugby_'
'rue_'
'ruc'
'rts_'
'rthk_'
'rte_'
'rta'
'rse_'
'rsa_'
'rri'
'rozwoju_'
'royce_'
'rox'
'roundtrip_'
'roughly_'
'roseville_'
'rosen'
'roof_'
'roman'
'roissy'
'rogers_'
'rockies_'
'road'
'rmo'
'rm'
'rites_'
'rit'
'rina_'
'rim'
'rie'
'rid'
'rick_'
'rica'
'ric'
'rh_'
'rgi'
'rez_'
'rey'
'reworked_'
'revolution_'
'revi'
'reversetalk_'
'reverb_'
'rev'
'retro'
'retrieved_'
'reti'
'restoration_'
'ress_'
'responding_'
'responder_'
'respects_'
'resp'
'resellers_'
'resell_'
'rese'
'reportedly_'
'reporta'
'replied_'
'replicate_'
'replays_'
'repent_'
'rep'
'rens'
'remover_'
'remodel_'
'remo'
'remark_'
'remained_'
'rem'
'rel_'
'rek'
'rejoice_'
'reinforce'
'reinados_'
'rei_'
'regulated_'
'registrar_'
'refu'
'reflectivity_'
'redzone_'
'reduces_'
'redstone_'
'redesigned_'
'rect'
'recomenda'
'recognise_'
'recherche'
'recforge_'
'receivers_'
'receber_'
'rebounds_'
'rebo'
'reba'
'reat'
'realschur_'
'rc_'
'raz'
'ravi_'
'ratp_'
'rarely_'
'rar'
'rap'
'random'
'rama'
'ral_'
'rak'
'raising_'
'raid_'
'rahul_'
'raft'
'racine_'
'rac'
'quranic_'
'quoted_'
'quotation_'
'quotas_'
'quin'
'quel'
'quebec_'
'quando_'
'quads_'
'qr'
'qc'
'qa_'
'pyramids_'
'pyramid_'
'pyar_'
'push'
'purses_'
'purina_'
'purely_'
'purdue_'
'pumps_'
'puma_'
'pulsepoint_'
'pulls_'
'puffin_'
'pue'
'publishedat_'
'pu_'
'pto'
'pti'
'pst_'
'psn_'
'próximo_'
'przy'
'pru'
'provos_'
'provisionally_'
'proud_'
'protests_'
'propi'
'prometheus_'
'program'
'progesterone_'
'producers_'
'privileged_'
'priorities_'
'printhand_'
'primero_'
'prime'
'priesthood_'
'press'
'preserving_'
'preparedness_'
'prenatal_'
'pren'
'praying_'
'pran'
'practi'
'pptx_'
'ppe'
'poynt_'
'posture_'
'postpaid_'
'postman_'
'postcode_'
'porsche_'
'poojas_'
'poo'
'polyurethane_'
'poll'
'poke'
'pokarmu_'
'poder_'
'pod_'
'plum'
'pli'
'plenty_'
'plenti_'
'pleased_'
'plat'
'plant'
'pizzicato_'
'pistol_'
'pis'
'pioneer_'
'pinned_'
'pinger_'
'pike_'
'pig_'
'pic'
'physi'
'phrasal_'
'phishing_'
'philip_'
'phi'
'phen'
'phe'
'pharaoh_'
'phantom_'
'pha'
'pete_'
'pet'
'pesos_'
'período_'
'peru'
'perceive_'
'perceivable_'
'perc'
'penta'
'pengalaman_'
'pemazmur_'
'pedal_'
'pebble_'
'pearls_'
'peaceful_'
'peac'
'payroll_'
'payoff_'
'payable_'
'paul'
'pathology_'
'pastries_'
'pastor_'
'pasti'
'passo'
'passive_'
'party'
'partner'
'partic'
'partialpivlu_'
'parathyroid_'
'parameter_'
'parallels_'
'paper'
'panties_'
'panama_'
'painful_'
'paige_'
'packets_'
'packers_'
'paci'
'pablo_'
'owe'
'overt'
'overseas_'
'oval_'
'outcomes_'
'otr'
'ota_'
'ota'
'ost_'
'oso'
'osm_'
'osho_'
'ose'
'orte'
'oro'
'oriented_'
'oria'
'oreo_'
'ore_'
'ordinances_'
'orderingmethods_'
'oralee_'
'optimistic_'
'opti'
'opinión_'
'opic'
'oph'
'ooura_'
'ootd_'
'ook_'
'onlinetyari_'
'onic'
'omp'
'omlette_'
'omitted_'
'omar_'
'olympics_'
'olve'
'olive'
'ole'
'oils_'
'oft'
'ofi'
'offerup_'
'offenders_'
'odyssey_'
'ody_'
'odo'
'ode'
'ocl'
'ocean'
'objection_'
'object'
'oad'
'nội_'
'nı'
'nü'
'nym'
'nunc'
'numericaldiff_'
'numerical_'
'numeral_'
'null'
'nuggets_'
'nudity_'
'nu_'
'notepad_'
'notas_'
'norway_'
'norma'
'nord'
'nontransferable_'
'nonlinearoptimization_'
'nonexclusive_'
'noncommercial_'
'non'
'nominal_'
'nome'
'nom_'
'nishikori_'
'nih_'
'nightmare_'
'niggas_'
'nig'
'nicolas_'
'nicknames_'
'nhân_'
'người_'
'nextbus_'
'newton_'
'newscycle_'
'neu'
'nen'
'neb'
'neat_'
'near'
'nclex_'
'nci'
'nca'
'navi'
'nattu_'
'nar_'
'nano_'
'nanny_'
'nameplate_'
'nam'
'nad'
'nach'
'nab'
'myths_'
'mysms_'
'mv'
'mustard_'
'mustache_'
'murid_'
'mura'
'mum_'
'multitrack_'
'multireddits_'
'multiplayer_'
'muffins_'
'mue'
'mucho_'
'mpi'
'mow'
'moun_'
'mou'
'motivate_'
'mot'
'mort'
'moonset_'
'monterrey_'
'monkeys_'
'moment'
'mol_'
'moh'
'modi_'
'mobs_'
'mobility_'
'mobiles_'
'mob30i_'
'mob'
'mmm_'
'mmhg_'
'mme'
'mma_'
'ml'
'mixlr_'
'misused_'
'mist'
'missiles_'
'misleading_'
'minuten_'
'minded_'
'minc'
'mills_'
'milli'
'mili'
'milestones_'
'milestone_'
'mightytext_'
'mientos_'
'micromax_'
'michelle_'
'mich'
'mh'
'metr'
'metered_'
'meteorologist_'
'metabolism_'
'mess_'
'merry_'
'mercyhurst_'
'menu'
'meng'
'memorable_'
'mello_'
'melissa_'
'melani'
'melaka_'
'meka_'
'mehr_'
'meetlocals_'
'medscape_'
'meditate_'
'meatballs_'
'meanwhile_'
'md5_'
'mccarran_'
'mbe'
'mb'
'mazzoni_'
'mayan_'
'maxx_'
'mathematics_'
'materially_'
'mat'
'master'
'marry_'
'marking_'
'mant'
'manque'
'mankind_'
'manera_'
'malo'
'mali_'
'malfunctions_'
'malayalam_'
'maintained_'
'mailer_'
'mah_'
'magnifier_'
'magn'
'magazyn_'
'mag_'
'madonna_'
'madison_'
'made'
'madani_'
'lại_'
'lı_'
'lãng_'
'lyon_'
'lynda_'
'luxembourg_'
'lut'
'lunges_'
'lunar_'
'lun'
'lumbar_'
'lul'
'lugar_'
'lud'
'lp'
'lounges_'
'louisiana_'
'lords_'
'long'
'lone_'
'lol'
'loi'
'logi'
'locali'
'loc'
'lob'
'lls_'
'llo'
'lle'
'lla'
'lk_'
'liza'
'liv_'
'list'
'lily_'
'liking_'
'likewise_'
'lig_'
'lifesum_'
'life'
'lida'
'lic'
'libra_'
'libevent_'
'libelous_'
'lewis_'
'level2_'
'level1_'
'lethal_'
'lesions_'
'leo'
'lemonade_'
'lek_'
'leisure_'
'lee'
'lec'
'lebanon_'
'leasing_'
'lean'
'lea'
'lds_'
'lc'
'lay'
'lawful_'
'lavish_'
'lauren_'
'laur'
'latvia_'
'latter_'
'lass_'
'larrigue_'
'lari'
'lao_'
'land'
'lake'
'lage'
'kz'
'kylie_'
'kyle_'
'kv'
'kun'
'ksfo_'
'kry'
'krungsri_'
'kroger_'
'kreole_'
'koo'
'kommentare_'
'komikaze_'
'kom'
'koi_'
'kno'
'knife_'
'kn'
'klo'
'kits_'
'kitkat_'
'kiss'
'kindergarten_'
'kim'
'kid'
'kick'
'khronos_'
'khoản_'
'kg'
'kfc_'
'key'
'kenya_'
'keju_'
'keb'
'kde_'
'kara'
'kar_'
'kang_'
'kan'
'kami_'
'kamasutra_'
'kam'
'kala'
'kah'
'kable_'
'kab'
'jv'
'junit_'
'jumps_'
'jum'
'judío_'
'ju_'
'josé_'
'jorge_'
'jor'
'jones'
'jog'
'jiochat_'
'jio_'
'jim'
'jeśli_'
'jesé_'
'jeremy_'
'jenn'
'jenkins_'
'jenez_'
'jeffrey_'
'jdk_'
'jd'
'jaz'
'jared_'
'jant_'
'jama'
'jaki'
'jahre_'
'jag'
'jacobi_'
'jacks_'
'ión_'
'ization_'
'iy'
'iwork_'
'ive'
'iton'
'ition_'
'itinerary_'
'itineraries_'
'italia_'
'ita'
'ist'
'isolation_'
'isi'
'ise_'
'isc_'
'isc'
'irving_'
'irctc_'
'ipo'
'ional_'
'iona'
'investors_'
'investigations_'
'inv0001_'
'into'
'intersection_'
'interpret_'
'interp'
'interferes_'
'intensive_'
'integrations_'
'integral_'
'instructor_'
'instructed_'
'instru'
'instapaper_'
'inspection_'
'inspect_'
'insi'
'inscri'
'innovation_'
'inm'
'inland_'
'inkuakaji_'
'iniciar_'
'ini'
'ington_'
'inge'
'influen'
'infections_'
'infected_'
'inet6_'
'ineffective_'
'indifferent_'
'indices_'
'indeed_'
'inconvenience_'
'inca'
'inc'
'inbound_'
'inat'
'inar'
'imran_'
'impression_'
'impres'
'implemented_'
'impl'
'impacted_'
'impa'
'immunology_'
'immunity_'
'imm'
'imagination_'
'ilo'
'illi'
'illa_'
'ila'
'ika_'
'ija'
'iet'
'iest_'
'ido'
'identities_'
'ideally_'
'ice'
'icarros_'
'ibr'
'ibps_'
'iba'
'ians_'
'iandixon_'
'iam'
'ial'
'hé'
'hzmester_'
'hye_'
'hurry_'
'hull_'
'hug'
'htx_'
'hs_'
'hro'
'hr'
'hotness_'
'hotline_'
'hos'
'hormones_'
'hope'
'hoops_'
'hona_'
'holmes_'
'holman_'
'hki'
'hitalk_'
'his'
'hinge_'
'hing_'
'hindu_'
'hil'
'hijo_'
'hides_'
'hexa_'
'heisei1'
'hed'
'hebrews_'
'heavily_'
'heather_'
'heart'
'heal_'
'heal'
'headaches_'
'haz'
'hav'
'hatten_'
'hate'
'hass_'
'hass'
'harris_'
'harm'
'harlemshake1_'
'hari_'
'hardship_'
'hard'
'happ'
'hangout_'
'handpicked_'
'handicap_'
'hampton_'
'hampshire_'
'halloween_'
'hala'
'haf'
'habl'
'gyroscope_'
'guten_'
'gut'
'gust_'
'gumbo_'
'gull'
'gue_'
'gta_'
'grow'
'group'
'gregory_'
'greens_'
'greece_'
'grave'
'grated_'
'graph'
'gram'
'graduation_'
'grad'
'gpl2_'
'goto_'
'gossip_'
'gos'
'gorgeous_'
'goo'
'goles_'
'gocars_'
'goa_'
'goa2b_'
'gnomovision_'
'glu'
'global'
'glitch_'
'glide_'
'git'
'girlfriend_'
'gir'
'gill'
'gil'
'gib'
'gia'
'gha'
'gg_'
'geun_'
'ges_'
'geolocation_'
'geni'
'generous_'
'generalmatrixvector_'
'generalmatrixmatrixtriangular_'
'generalmatrixmatrix_'
'general'
'gem'
'ged'
'gaulle_'
'gasoline_'
'garches_'
'gandhi_'
'gambia_'
'gam'
'gallaudet_'
'gai'
'gaeilge_'
'gadget_'
'gad'
'fy'
'fxtrade_'
'fv'
'futures_'
'futur'
'fus'
'furnitures_'
'furnishing_'
'furnish_'
'funeral_'
'functionalities_'
'funciona'
'fullpiv'
'fueron_'
'fueled_'
'fudge_'
'fu_'
'frisky_'
'fridge_'
'fren'
'frees'
'freemail_'
'freecharge_'
'freebies_'
'francesco_'
'frag'
'fra'
'fox26houston_'
'forge'
'foremost_'
'forecaster_'
'footnote_'
'foot'
'fool_'
'follicle_'
'folic_'
'fol'
'foi_'
'flyover_'
'flexxus_'
'flavors_'
'flavor'
'flashed_'
'flare_'
'fixing_'
'fitted_'
'fisher_'
'fires_'
'fire'
'fio'
'filmes_'
'fie'
'fid'
'fica'
'fern'
'fellowship_'
'fell_'
'feli'
'fbreader_'
'favorited_'
'fatigue_'
'fasting_'
'farther_'
'farms_'
'farmers_'
'falilure_'
'fal'
'faire_'
'fading_'
'factual_'
'f2_'
'eza'
'extraordinary_'
'extraction_'
'exploitation_'
'explaining_'
'expectations_'
'expe'
'ews_'
'everton_'
'everlasting_'
'event'
'eugene_'
'eth'
'estr'
'esto_'
'esse'
'ess'
'espi'
'espa'
'esdras_'
'esco'
'erz'
'ers'
'err'
'eron_'
'erm'
'erl'
'ering_'
'erg'
'erdil_'
'erc'
'equifax_'
'equi'
'epa'
'ep'
'envelope_'
'entrega_'
'entertaining_'
'eno'
'enn'
'engraved_'
'energetic_'
'ener'
'ene_'
'endereço_'
'encourages_'
'encore_'
'encia_'
'emain_'
'ely_'
'elt'
'els_'
'els'
'elo'
'elm327_'
'eliminat'
'electrónico_'
'elders_'
'elderly_'
'elbow_'
'einen_'
'eh_'
'eggless_'
'ecu'
'echo'
'ebt_'
'eaten_'
'easy'
'eas'
'ear'
'e9'
'dz'
'dx'
'dwayne_'
'durch_'
'dumbbell_'
'dulberger_'
'duckduckgo_'
'dub_'
'dub'
'dua_'
'dst_'
'drsunil_'
'drake_'
'downstream_'
'downe_'
'doubles_'
'double'
'dosing_'
'dosage_'
'dorado_'
'doorbell_'
'door'
'doomed_'
'donne'
'done'
'dome'
'dom'
'dolphins_'
'doll'
'dol'
'doin'
'dodge_'
'documento_'
'dock'
'doapps_'
'dnr_'
'dlna_'
'diverted_'
'div'
'disturbed_'
'distributions_'
'distress_'
'distant_'
'disp'
'dismissed_'
'discriminatory_'
'discrimination_'
'disciples_'
'disappointed_'
'disappeared_'
'directive_'
'diplomat_'
'dioxide_'
'dine_'
'din_'
'diligently_'
'dilatation_'
'dik'
'digi'
'dig_'
'dig'
'dietpoint_'
'die'
'dice_'
'diap'
'dialpad_'
'diagonal_'
'dha'
'dey_'
'devotional_'
'devotion_'
'deviantart_'
'develop'
'determinant_'
'det_'
'destructive_'
'después_'
'desk'
'desh'
'descobrir_'
'dept_'
'deo'
'dentist_'
'dense'
'denim_'
'deni'
'demonetisation_'
'democrats_'
'della_'
'delivering_'
'defines_'
'deeply_'
'decrees_'
'decorations_'
'decoding_'
'declerq_'
'decent_'
'deceived_'
'decade_'
'debts_'
'debajo_'
'deactivation_'
'dds_'
'davenport_'
'dave_'
'dapat_'
'dansk_'
'danapur_'
'dama'
'daily'
'dade_'
'dad'
'dab'
'd2_'
'câ'
'các_'
'cyt'
'cyber'
'cyanogenmod_'
'cx'
'cwise'
'cw_'
'cve_'
'cuéntanos_'
'cutter_'
'cutmp3_'
'cut'
'customizing_'
'custom'
'curry_'
'cure'
'cumberland_'
'cult'
'cubic_'
'cub'
'cuando_'
'cu_'
'ction'
'crushed_'
'crunchyroll_'
'cruiser_'
'crossway_'
'crossing_'
'cristiana_'
'criminals_'
'cri'
'creepypasta_'
'creepin_'
'creep_'
'crea'
'crackers_'
'cpb_'
'cozy_'
'courtesy_'
'counters_'
'cou'
'cosmo'
'cosmic_'
'coruna_'
'corrupted_'
'correspondence_'
'correspond_'
'cookbooks_'
'conventional_'
'controversy_'
'controllers_'
'contributing_'
'continua'
'continent_'
'conti'
'contextual_'
'contento_'
'contact'
'cont'
'consuming_'
'consumed_'
'constructed_'
'constitution_'
'consortium_'
'consistency_'
'conn'
'configuring_'
'conferencing_'
'confe'
'conexión_'
'conducting_'
'condizioni_'
'conce'
'compressed_'
'comprehensive_'
'compos'
'complexschur_'
'complement'
'commander_'
'commainitializer_'
'comforters_'
'comfort'
'comcast_'
'columbus_'
'colts_'
'colpivhouseholderqr_'
'collinsville_'
'collector_'
'collectibles_'
'collectible_'
'collapsed_'
'colic_'
'cola_'
'coco'
'coating_'
'cmd_'
'cluster_'
'closet_'
'close5_'
'clin'
'climbers_'
'clic'
'clerk_'
'clear'
'cldr_'
'cld_'
'classpath_'
'classdojo_'
'cita'
'circuits_'
'cilic_'
'cielos_'
'cie'
'chuyện_'
'churches_'
'chronological_'
'christianity_'
'chordpro_'
'chop'
'chooses_'
'chomp_'
'cholesterol_'
'choi'
'chloride_'
'chirp_'
'chipotle_'
'chico_'
'chick'
'chees'
'checkers_'
'cheaper_'
'chavez_'
'chatxpress_'
'charl'
'charge'
'champagne_'
'chal'
'chain_'
'cessation_'
'cereal_'
'cer_'
'cem'
'cellphone_'
'celebrating_'
'celebra'
'celeb_'
'ced_'
'catching_'
'catalan_'
'castle_'
'caste'
'casserole_'
'cas_'
'carter_'
'carta_'
'cart'
'carr'
'carp'
'carne'
'carlin_'
'carinae_'
'carga'
'carb_'
'cannon_'
'caney_'
'canc'
'cami'
'calves_'
'calvary_'
'caltrain_'
'calm'
'cally_'
'cale'
'calculus_'
'calamari_'
'cal'
'cad'
'cac'
'cab_'
'cab'
'c5'
'bóng_'
'buzzfeed_'
'buttermilk_'
'bush'
'bury_'
'burrito_'
'burdening_'
'bulbasaur_'
'bug'
'bud'
'buckles_'
'buccaneers_'
'bryce_'
'brutal_'
'brushes_'
'brunei_'
'bruins_'
'brook_'
'broad_'
'brightly_'
'brightest_'
'breezy_'
'breed_'
'breached_'
'brandenburg_'
'brad'
'bottles_'
'borrowed_'
'bondye_'
'bomb'
'bollywood_'
'boilermakers_'
'boating_'
'bmr_'
'bmod_'
'blurry_'
'blowing_'
'blogspot_'
'bloating_'
'blah_'
'blackfling_'
'bj'
'bits_'
'bite_'
'biscuits_'
'birthing_'
'birmingham_'
'biography_'
'binaries_'
'bim'
'bility_'
'bili'
'bic'
'bib'
'beware_'
'beverly_'
'beverage_'
'betis_'
'bestbrokersapp_'
'best'
'bes'
'bert'
'ber_'
'bene'
'bend'
'believers_'
'belgi'
'begat_'
'bee'
'bebidas_'
'beb'
'beard_'
'bbt_'
'baton_'
'batman_'
'bather_'
'base'
'barn'
'barack_'
'banda_'
'band'
'banamex_'
'bali_'
'baldness_'
'baga'
'bac'
'babysitter_'
'baby'
'b6_'
'b1'
'aún_'
'azi'
'ayu'
'aytemiz_'
'axiom_'
'ax_'
'autom'
'autodiff'
'autoc'
'aut'
'aura_'
'aunt_'
'aun'
'augmented_'
'audials_'
'audi_'
'atti'
'attacker_'
'att'
'ats_'
'ator_'
'atomic_'
'ato_'
'atmospheric_'
'atl'
'atic_'
'asus_'
'astral_'
'aston_'
'assumptions_'
'assuming_'
'asso'
'assignable_'
'assertion_'
'assemble_'
'assa'
'asr_'
'askmd_'
'ashbury_'
'ase'
'asc'
'aru'
'arterial_'
'arro'
'arre'
'arrays_'
'arranged_'
'arose_'
'ario_'
'ariel_'
'aquila_'
'apt_'
'approached_'
'appreciation_'
'appli'
'appetizer_'
'append_'
'appeals_'
'apdate_'
'apd_'
'apa_'
'anyways_'
'antipodal_'
'anthem_'
'anno_'
'anna'
'ann'
'anmelden_'
'animat'
'angebote_'
'anesthesia_'
'androids_'
'andreas_'
'andrea_'
'ander'
'anastasiadate_'
'anand_'
'amusement_'
'amplify_'
'amp'
'amor_'
'amo'
'ami_'
'ami'
'amb'
'aman'
'alumni_'
'alu'
'altura_'
'altogether_'
'alternator_'
'alterations_'
'altar_'
'alphanumeric_'
'allo'
'alleged_'
'allah'
'align'
'alg'
'aleppo_'
'alcoholic_'
'albanian_'
'alb_'
'alanyaspor_'
'alan_'
'alameda_'
'akti'
'aks'
'aker_'
'ake_'
'ake'
'airtripp_'
'airtime_'
'airbus_'
'aine'
'aime_'
'agra'
'agon'
'afp_'
'affirm_'
'aff'
'afa'
'aerial_'
'adverts_'
'además_'
'adda_'
'actors_'
'actividades_'
'aco'
'acknowledged_'
'ación_'
'aci'
'achievers_'
'achievement_'
'aches_'
'ach'
'acesso_'
'aces_'
'accuweather_'
'accelerometer_'
'abstract_'
'abraham_'
'ables_'
'aberfoyle_'
'aber_'
'aber'
'abc13_'
'abbott_'
'aarp_'
'aar_'
'aap'
'aalen_'
'a9s_'
'a9'
'a8'
'a7_'
'a5_'
'a4'
'] ._'
'\u '
'['_'
'?” _'
'?.'
'? - _'
'===========================================================================_'
';, _'
':-'
':*'
': - _'
'9gag_'
'9f47_'
'9c'
'979'
'967_'
'965_'
'957'
'950'
'949_'
'9487_'
'9458'
'9453'
'944_'
'94131_'
'928_'
'905_'
'8mi_'
'8g'
'8cd4_'
'899_'
'890_'
'885'
'84h_'
'844'
'82h_'
'810'
'805'
'7s'
'7d'
'797'
'784'
'778'
'776_'
'766_'
'761'
'7500'
'750'
'749_'
'748_'
'723_'
'6x'
'6f'
'688_'
'681_'
'680_'
'674_'
'663_'
'660_'
'628_'
'626_'
'620_'
'61801_'
'615'
'606'
'604_'
'602'
'5z_'
'5y_'
'594_'
'583'
'580_'
'575_'
'570'
'565_'
'565'
'552'
'52'
'50m_'
'506_'
'4free_'
'4b_'
'492_'
'488_'
'480_'
'472_'
'460_'
'455'
'433_'
'422_'
'421_'
'420'
'418'
'416_'
'40p_'
'406_'
'4000'
'3pm_'
'3m'
'3a'
'388'
'380_'
'352_'
'346_'
'342_'
'341'
'337_'
'334_'
'331'
'321_'
'319'
'318_'
'2t'
'2k'
'2frères_'
'2e'
'295_'
'287_'
'280'
'27th_'
'270922_'
'25th_'
'257'
'253'
'251'
'24m_'
'247'
'245'
'238'
'237_'
'234'
'22h_'
'222152_'
'222'
'221'
'219'
'218_'
'203055485347_'
'20170206_'
'1mb_'
'1c'
'1969_'
'193'
'189'
'184'
'183'
'180'
'171_'
'170428t06'
'170'
'15x_'
'15p_'
'15h_'
'158'
'15069663_'
'1486804'
'146'
'144'
'1438_'
'142'
'1390_'
'11m_'
'11m'
'11e5_'
'11d_'
'119'
'117'
'116'
'114'
'1108_'
'110'
'10th_'
'10min_'
'10mg_'
'10kg_'
'103'
'10155582'
'0p'
'0min_'
'0l'
'0km_'
'0k'
'0b'
'091'
'089'
'07h_'
'06p_'
'0648e073ed11_'
'052'
'0519_'
'045_'
'042'
'017_'
'015_'
'011000011000_'
'000110000000_'
'000000t0000z_'
'/-_'
'/*_'
'.”  _'
'.—_'
'.\\_'
'........'
'......'
'...)_'
'..#####...\\_'
'.' _'
'."'
'. <_'
'. -_'
'. *_'
'. **_'
'.  	   	"_'
'-------------_'
'----------------_'
'-----------------_'
',” “_'
',...'
',.'
',,_'
', @_'
', / _'
', ...'
', #_'
'+/-_'
'+._'
'): '
').'
') -- _'
'(*)_'
'() '
'( '
'' - _'
'' (_'
'"×_'
'">_'
'"/_'
'" . _'
'!” _'
'!\\_'
'!.'
' ￼ _'
' ♀_'
' ∼_'
' •_'
' ؟_'
' » _'
' | '
' \u\u\u\u\u _'
' >>>_'
' << "_'
' :'
' . [_'
' . '
' - "_'
' ('_'
' ''_'
' ' '
' ''
' #'
' " + " _'
' 	_'
' 		 _'
'	'
'😍'
'😊_'
'🔥_'
'💦'
'💋'
'🌟'
'？'
'﻿'
'ﻦ_'
'ﻚ_'
'ﻗ_'
'ﺘ_'
'️'
'﴿_'
' _'
'_'
''
'_'
'_'
'_'
'_'
'_'
'_'
'_'
'_'
'_'
'_'
'_'
'_'
'_'
'_'
'_'
'_'
''
'활'
'환'
'확인'
'호_'
'허용'
'해요_'
'항목'
'함_'
'필요'
'포'
'페이스북으로_'
'판'
'파일'
'투표'
'통해_'
'통계_'
'태아'
'취소_'
'충'
'처리'
'책임을_'
'책임'
'집_'
'중지'
'중복확인_'
'주십시오_'
'주는_'
'종'
'제공할_'
'제공하는_'
'제3자'
'전에_'
'적으로_'
'저장_'
'있어요_'
'이유식_'
'이거나_'
'의무_'
'유축수유_'
'유축_'
'위반'
'위_'
'워_'
'움'
'울'
'외'
'완'
'예정일'
'엑소엘_'
'업무'
'업데이트_'
'엄마의_'
'약관을_'
'약관에_'
'약관_'
'애'
'았_'
'알'
'식_'
'순_'
'수면_'
'손'
'소리'
'서비스내_'
'삭제'
'사진_'
'불_'
'부터_'
'번호'
'백'
'방_'
'발생한_'
'미세미세_'
'문자'
'문'
'몸'
'목화'
'며_'
'메뉴'
'먹'
'말합니다_'
'많'
'린_'
'록'
'등록_'
'등록'
'등'
'들어'
'되지_'
'도록_'
'데이터'
'데_'
'더욱_'
'더_'
'대해서는_'
'담'
'달'
'다음'
'닉네임_'
'니_'
'노력'
'년_'
'남자_'
'날'
'나이_'
'규정'
'귀'
'권'
'관심_'
'관'
'과'
'공지'
'공유'
'계정으로_'
'겠'
'게시물을_'
'것이_'
'것은_'
'개정'
'개인정보를_'
'香'
'首'
'金'
'里_'
'里'
'道_'
'追'
'路透新闻_'
'起'
'说'
'话_'
'話'
'設定_'
'設定'
'解'
'經'
'絡'
'約'
'科'
'码_'
'県'
'相'
'登入_'
'画'
'男性_'
'田'
'用户'
'点'
'次'
'条'
'本棚_'
'本'
'更多_'
'普'
'時間'
'日本'
'新規登録_'
'收藏_'
'探'
'投'
'所'
'或'
'思'
'微信'
'得'
'待'
'度'
'常'
'巻'
'川'
'展_'
'小时前_'
'対'
'密'
'子_'
'好了_'
'女性_'
'園'
'國'
'国_'
'啦_'
'問'
'告'
'吗_'
'台北市'
'可以'
'口'
'取'
'友'
'去'
'华'
'半'
'區'
'区'
'利用'
'分享'
'其他'
'入力'
'你好_'
'作'
'体'
'住まいを探す_'
'们'
'京'
'予'
'中国_'
'与'
'ㆍ'
'リスト'
'メール'
'ページ'
'バイ'
'ニ'
'ット'
'グ'
'ク'
'キャンセル_'
'オ'
'ア_'
'んで'
'を受け'
'をし'
'やることリスト_'
'の_'
'ど'
'と_'
'でも'
'てい'
'たら'
'すると'
'してい'
'この'
'から_'
'お気に入り'
'え'
'いる'
'いつ'
'いた'
'あり'
'」'
'。'
'❤ ❥❤ ♡ _'
'❤'
'● · _'
'▓'
'▂'
'▀'
'║'
'⑥_'
'₹  _'
'‭'
'… '
'•    _'
'• '
'”)'
'” '
'ợ_'
'ở_'
'ờ_'
'ống_'
'ối_'
'ện_'
'ệ'
'ặ'
'ậ'
'ất_'
'ả'
'ល'
'ន'
'ደ'
'ትን_'
'ቡ'
'ረ'
'ም'
'๟๞_'
'๟_'
'์  '
'่ (_'
'ใช_'
'ใจ'
'ิ'
'าส_'
'อม'
'อง_'
'สา'
'ลอ'
'รายการ'
'รา'
'รว'
'ยน'
'ภาษา'
'ปล_'
'บร_'
'นแ'
'นเท_'
'นเ'
'ถ_'
'ซ'
'ම_'
'ാ_'
'റ_'
'ப_'
'ன_'
'য়_'
'ॉ_'
'ू'
'ीं _'
'रव'
'रच_'
'बर_'
'पर_'
'नव_'
'ज'
'ک'
'ٱﻟﺮ_'
'ٓ_'
'َٰ_'
'ير'
'يد_'
'ولا_'
'ول'
'وك'
'وق'
'وع'
'ورة_'
'وج'
'وال'
'وإن_'
'ها_'
'ها'
'مصادرك_'
'مجل'
'مثل_'
'مت'
'ما'
'له'
'لم_'
'كم_'
'كة_'
'كان'
'فيه_'
'فقال_'
'عندي_'
'عمان_'
'عا_'
'ظ_'
'ط_'
'ضي'
'ض_'
'صح'
'سا'
'را_'
'رأ_'
'ده_'
'دا'
'حد'
'حب'
'ثا'
'تف'
'تع'
'او'
'انا_'
'ام'
'اله'
'الموقع_'
'الع'
'السبب_'
'الساعة_'
'الذ'
'الإ'
'اف'
'اد'
'اة_'
'ائ'
'إن_'
'إلي'
'إسترجاع_'
'أو'
'أن'
'أع'
'أخرى_'
'آ'
'ת_'
'ית_'
'ול'
'ה'
'בר'
'қўшнилар_'
'қў'
'қон_'
'қир'
'қат'
'қа_'
'ҏ_'
'ўғ'
'ёқ'
'яш'
'юм'
'электр_'
'эга'
'ы'
'чақ'
'фа'
'уст'
'ул'
'уй_'
'ув'
'тўғри_'
'тур'
'туг'
'тра'
'тоғ'
'топи'
'том'
'тик'
'темир_'
'тар_'
'суз'
'сувга_'
'сп'
'сот'
'сл'
'ри_'
'рат'
'рассрочку_'
'рассмотрение_'
'рас'
'рады_'
'пу'
'проверить_'
'пос'
'пок'
'поиск_'
'пе'
'паро'
'очи'
'оч'
'они'
'она'
'оли'
'ова'
'объявлений_'
'ну'
'нт'
'нон_'
'номер'
'нов'
'ния_'
'нган_'
'настройки_'
'нар'
'минг'
'ман_'
'ман'
'майди_'
'люб'
'кў'
'кредита_'
'кра'
'ком'
'кири'
'кеч'
'кел'
'ке_'
'кая_'
'катта_'
'кас'
'кар'
'кал'
'ка'
'йиғла'
'иши_'
'ит'
'исправлен'
'ир_'
'ин'
'ил'
'ика'
'ий_'
'избранное_'
'ида'
'ива'
'зы'
'зи_'
'зи'
'зд'
'зап'
'жон'
'ж_'
'ет_'
'ел'
'ев'
'дом'
'доим_'
'дим'
'ден'
'действует_'
'деб_'
'дар'
'гур_'
'гни_'
'гла'
'все'
'вот'
'вид'
'вер'
'вас_'
'вар'
'бул'
'будем_'
'битта_'
'ая_'
'ать_'
'ала'
'ака'
'айт'
'айб_'
'автосалоне_'
'ω'
'τ'
'ρ'
'μg_'
'ε_'
'ί'
'̇_'
'˅_'
'ə_'
'ǖ_'
'ǒ'
'ǐ_'
'ơ_'
'ž'
'że'
'ša'
'şe'
'ş_'
'ści'
'łącz'
'łu'
'īn'
'ī_'
'ģ'
'ği'
'ĝ'
'đồng_'
'đầu_'
'đóng_'
'đá_'
'đi'
'čina_'
'ċ²'
'ące_'
'ān_'
'þé'
'üye_'
'ù'
'ø'
'österreich_'
'öne'
'ôáàą²ą_'
'ój_'
'òģ_'
'ño_'
'ña'
'ép_'
'ées_'
'ço_'
'åland_'
'ãß'
'ây_'
'ân_'
'ál'
'ßen_'
'¾'
'¸_'
'´'
'²ß'
'¯'
'® – _'
'®'
'§'
'¥_'
'¥'
' — _'
' – _'
'    '
'~ _'
'| .'
'zą'
'zw'
'zum'
'zulily_'
'zul'
'zug'
'zona_'
'zn'
'zma'
'zipper_'
'zione_'
'zinc_'
'zero'
'zen'
'zel'
'zeit_'
'zar'
'zam'
'yuk'
'yug'
'yuan_'
'ystem'
'yst'
'youzeek_'
'yosh'
'yng'
'yn'
'yme'
'yma'
'yli'
'yet'
'yeni_'
'yell'
'yeecall_'
'year'
'yea_'
'yaz'
'yasmin_'
'yas'
'yankees_'
'yani_'
'yamaha_'
'yak_'
'yai'
'yaa'
'xxl_'
'xx'
'xr_'
'xm'
'xb'
'x1'
'wür'
'wählen_'
'wyb'
'wx'
'wunder'
'wsk'
'wortel_'
'wood'
'won'
'wolf'
'wnw13_'
'wmata_'
'withholdings_'
'withhold_'
'wishing_'
'wir_'
'wir'
'winterboard_'
'wines_'
'wiman_'
'wildlife_'
'wildlands_'
'widow_'
'widest_'
'widespread_'
'wickets_'
'wick'
'wia'
'why'
'wholly_'
'whitney_'
'whit'
'whining_'
'wharton_'
'wh_'
'wg'
'wet'
'wert'
'werner_'
'wep_'
'weights_'
'wegamers_'
'weekday_'
'webpages_'
'webp'
'webos_'
'webmaster_'
'webhp_'
'weatherbomb_'
'wear'
'wea'
'wd_'
'wayfinding_'
'way'
'wawa_'
'watson_'
'watertown_'
'waterf'
'wasser_'
'washed_'
'was'
'wartet_'
'warsaw_'
'warmup_'
'warmth_'
'warehouse_'
'waplog_'
'wannapower_'
'wani'
'wanderlist_'
'wala'
'waking_'
'wakeup_'
'wak'
'waived_'
'wait'
'waikiki_'
'wage_'
'waga_'
'waffle_'
'wad'
'w15_'
'văn_'
'vv'
'vuze_'
'vu_'
'vre'
'vp_'
'vox'
'voting_'
'volkswagen_'
'voice'
'vodka_'
'vnto_'
'vladimir_'
'vivi'
'vito_'
'vitamins_'
'visually_'
'visa'
'vis'
'vingleenglish_'
'vinesaver_'
'vincen'
'villa'
'vigo'
'vietnamese_'
'vide_'
'vidalingua_'
'vibrant_'
'viaje_'
'vh'
'vets_'
'veteran_'
'vet_'
'vest_'
'vessel_'
'ves'
'versículo_'
'vers'
'verifica'
'verge_'
'verbosity_'
'verb'
'veracity_'
'venues_'
'vending_'
'ven_'
'vela'
'vel'
'veja_'
'veggie_'
'vegetable_'
'veetle_'
'vec'
'vea'
'vc'
'vase_'
'vas_'
'varied_'
'variants_'
'variant_'
'vanguard_'
'vana'
'vampires_'
'valuer_'
'vallejo_'
'valido_'
'vali'
'valet_'
'vai'
'v2'
'uts_'
'uto_'
'utc_'
'ushi'
'urls_'
'urine_'
'urg_'
'uras_'
'upvote_'
'upti'
'upport_'
'upl'
'unz'
'unveil'
'unu'
'untrusted_'
'untick_'
'unter_'
'unta'
'unt_'
'unsu'
'unset_'
'unselect_'
'uns_'
'unreachable_'
'unpasteurized_'
'unpack_'
'unpa'
'unp'
'uno'
'unm'
'univision_'
'unistalled_'
'ung'
'unforgiveness_'
'unfor'
'unfamiliar_'
'undi'
'underway_'
'understandings_'
'underline_'
'undelete_'
'uncomfortable_'
'uncom'
'uncertainty_'
'unbound_'
'unborn_'
'unar'
'unaffected_'
'unacceptable_'
'ums_'
'umm_'
'ully_'
'ulla'
'ula_'
'uko'
'uke'
'uiuc_'
'uh'
'uff'
'udo'
'uck_'
'uch'
'uber'
'u00'
'tür'
'tú_'
'tè'
'tyt'
'twoje_'
'twister_'
'twa'
'tutor_'
'turks_'
'turkmenistan_'
'ture_'
'turb'
'tupi_'
'tunduk_'
'tumbler_'
'tum_'
'tul'
'tudev_'
'tud'
'tubi_'
'tta'
'trò_'
'truyền_'
'true'
'trout_'
'trousers_'
'troubling_'
'troubled_'
'tron'
'trm'
'trit'
'triste_'
'trio_'
'trin'
'trimet_'
'trill_'
'trem'
'través_'
'transverse_'
'transplant_'
'transferrable_'
'transfer'
'transf'
'transcode_'
'trag'
'trac'
'trabajo_'
'trabaja'
'touched_'
'tottenham_'
'torres_'
'torrent_'
'tori'
'topping_'
'topmobile002_'
'tone'
'tomo'
'tomaten_'
'toledo_'
'toi_'
'toggling_'
'toe'
'toddlers_'
'tly_'
'tls_'
'tli'
'tlc_'
'tj'
'tiết_'
'tiếng_'
'tiān_'
'tito'
'tiramisu_'
'tipp'
'tipo_'
'tina_'
'times'
'timed_'
'timb'
'tim'
'til'
'tigers_'
'tiger_'
'tiff'
'tier_'
'tian_'
'tial_'
'tia_'
'thử_'
'tháng_'
'thurso_'
'thurs_'
'thro'
'thoại_'
'thorough_'
'thom'
'thiết_'
'this'
'thirst'
'thins_'
'thin'
'thermal_'
'thereafter_'
'theirs_'
'thc_'
'textnow_'
'textgram_'
'tet'
'testi'
'testdata_'
'tess_'
'terrorists_'
'termin'
'teri'
'tere'
'tenta'
'tension_'
'teng'
'tener_'
'tempura_'
'temperaments_'
'tem_'
'teil'
'teenage_'
'techno_'
'technic'
'techie'
'tec'
'tears_'
'tch_'
'tba'
'tb_'
'taxpayer_'
'taxi'
'tax'
'tawbah_'
'tav'
'taught_'
'tasmania_'
'tasa'
'tarifa_'
'tarde_'
'tapped_'
'taping_'
'tapes_'
'tanger_'
'tamper_'
'também_'
'tall'
'talkatone_'
'takealot_'
'tajweed_'
'tailor_'
'tail'
'tacoma_'
'tablespoon_'
't5_'
'sở_'
'sống_'
'sẻ_'
'süden_'
'sí_'
'sè'
'sys'
'syon'
'synapsepay_'
'symp'
'swe'
'swa'
'sv_'
'suzuki_'
'sut'
'susendeep_'
'sus'
'survivors_'
'survivor_'
'surveymini_'
'surveillance_'
'surround_'
'surprising_'
'suriname_'
'surimi_'
'superhero_'
'superc'
'sunlight_'
'sundays_'
'sunda'
'summon'
'sullivan_'
'suk'
'suis_'
'suh'
'suf'
'sue_'
'sue'
'succession_'
'suburbs_'
'subsist_'
'subs'
'subqueries_'
'subc'
'sua'
'style'
'stur'
'stumble'
'structures_'
'stron'
'stroble_'
'striped_'
'striker_'
'stretched_'
'strat'
'stran'
'straightforward_'
'str'
'stor'
'stones_'
'stockspy_'
'stle'
'stir_'
'stickotext_'
'stere'
'stephan_'
'stenberg_'
'stel'
'stein'
'stash_'
'stas'
'starving_'
'starshop_'
'stared_'
'stap'
'stani'
'standalone_'
'stairs_'
'stac'
'stabbing_'
'sst_'
'sqrt_'
'sqm_'
'spurs_'
'spu'
'spring'
'spree_'
'spreading_'
'spouse_'
'spotted_'
'spotlights_'
'sportsnet_'
'spoof_'
'spongebob_'
'spon'
'spin'
'spicejet_'
'spiced_'
'speak'
'spawn'
'spas_'
'spark'
'spare'
'span'
'soundscape_'
'sort'
'sooke_'
'somehow_'
'solve'
'soll'
'solid'
'solelio_'
'softly_'
'softball_'
'sof'
'sod'
'socially_'
'sobrante_'
'soa_'
'snore_'
'sniper_'
'snacking_'
'smu'
'smtp_'
'smoothies_'
'smooth'
'smi'
'smeiti_'
'smarttruckroute_'
'smartpicks_'
'sman_'
'slu'
'slow'
'slovenia_'
'sloven'
'slovakia_'
'slept_'
'sleipnir_'
'sleeves_'
'sleeveless_'
'sle'
'slaw_'
'slash_'
'slap'
'sla'
'skyscanner_'
'skin'
'skilled_'
'sketching_'
'sión_'
'siya'
'sity_'
'simulator_'
'signify_'
'significantly_'
'sights_'
'siempre_'
'side'
'shy_'
'showtime_'
'showdown_'
'shoutout_'
'shirious_'
'shikamaru_'
'sherry_'
'shelter_'
'shell'
'sheds_'
'shea'
'shayari_'
'shaw'
'shaving_'
'shat'
'share'
'shane_'
'sham'
'shady_'
'shaded_'
'sey_'
'severable_'
'seus_'
'setiap_'
'sergey_'
'serbia_'
'sents_'
'senti'
'semb'
'sema'
'seluruh_'
'selene_'
'selects_'
'sela'
'seizures_'
'sehun_'
'seh'
'según_'
'segunda_'
'segments_'
'sedentary_'
'seda'
'secukupnya_'
'sección_'
'sec'
'sebagai_'
'seasoning_'
'seas'
'sdmm_'
'sdf'
'sddot_'
'sdah_'
'sda'
'scu'
'scrolls_'
'scroll'
'scripting_'
'scri'
'screw'
'screamed_'
'scottish_'
'scorpio_'
'scopy_'
'sclerosis_'
'sciences_'
'schemes_'
'scheduling_'
'schal'
'scent_'
'scalp_'
'sca'
'sbb_'
'sba'
'saw'
'saturn_'
'saturation_'
'saturated_'
'sas_'
'saran'
'sara_'
'sapp'
'santapan_'
'sant_'
'sang'
'sandra_'
'sall'
'salida_'
'sales'
'sal_'
'sagnino_'
'safeguarding_'
'saeed_'
'sad'
'sacrifices_'
'sacred_'
'sachets_'
'sabres_'
'sabi'
'sabda_'
'saad'
's7_'
's5_'
's4'
's0'
'ría_'
'rí'
'rég'
'ré_'
'rushing_'
'ruin'
'rugs_'
'ruga'
'rug'
'rudy_'
'ruble_'
'rto'
'rti_'
'rsvp_'
'rrh'
'rre'
'rra_'
'rounding_'
'rounded_'
'rouines_'
'rota'
'rosemond121_'
'rosa_'
'rosa'
'ror'
'roots_'
'ront_'
'roni'
'ron'
'romo_'
'rom'
'roll'
'roles_'
'role'
'roj'
'roid_'
'rods_'
'rode'
'roby_'
'robot'
'roadrecorder_'
'roadmap_'
'rna'
'rmen_'
'rle'
'rl_'
'rks_'
'riz'
'rival_'
'rity_'
'rituals_'
'risky_'
'rine_'
'ril'
'rig'
'riders_'
'rib'
'rh'
'rf_'
'rex_'
'rewarding_'
'reuse_'
'reus_'
'reu'
'retra'
'retailer_'
'resurrected_'
'restricts_'
'restorations_'
'resting_'
'restaurar_'
'responded_'
'resist_'
'reputable_'
'repre'
'repos'
'repairs_'
'renters_'
'renova'
'renk_'
'renaissance_'
'removable_'
'remarks_'
'relive_'
'relatively_'
'relate_'
'relación_'
'reign_'
'regístrate_'
'regret_'
'registro_'
'regarded_'
'regain_'
'refuses_'
'reformed_'
'reflections_'
'reflect'
'refiling_'
'refacing_'
'reenter_'
'reel'
'reef_'
'redu'
'redlaser_'
'redial_'
'redes_'
'redemptions_'
'redd_'
'recycle'
'recupera'
'recovering_'
'recording001_'
'recon_'
'recalls_'
'rebooting_'
'reap'
'realm_'
'realiza'
'read'
'react_'
'rc4_'
'razr_'
'rayon_'
'raspberry_'
'rashid_'
'rapidly_'
'raphaeltan5_'
'rainy_'
'rail'
'rah'
'rag_'
'raft_'
'radio'
'radical_'
'radi'
'racist_'
'race'
'rabbits_'
'qxmd_'
'quyền_'
'qura_'
'qur_'
'quiz'
'quinta'
'quik_'
'quieres_'
'quickt'
'quez'
'quests_'
'quer'
'queda_'
'qued'
'quartz_'
'quarter'
'quantization_'
'quadr'
'qrs'
'qo'
'ql_'
'qeydiyyatdan_'
'qe'
'putnam_'
'purr_'
'purge_'
'punish'
'pumpkin'
'pull'
'pueden_'
'puede_'
'pud'
'puc'
'publically_'
'puan_'
'pty_'
'pta'
'psycho'
'psychiatrist_'
'psecu_'
'psb_'
'préstamos_'
'provi'
'proved_'
'proto'
'protective_'
'prospect_'
'proportions_'
'pronounced_'
'promised_'
'projection_'
'prohibiting_'
'progression_'
'programme_'
'prognosis_'
'profound_'
'profi'
'professor_'
'productivity_'
'productions_'
'product'
'procur'
'processors_'
'probe_'
'private'
'pris'
'print'
'principal'
'princeton_'
'primeira_'
'prim'
'prevails_'
'pretend_'
'prest'
'preserved_'
'preorder_'
'premi'
'prelude_'
'preloaded_'
'predator_'
'pred'
'precede'
'preamble_'
'prayed_'
'prairie_'
'pq'
'pper_'
'ppc_'
'pouch_'
'positioning_'
'portabilidade_'
'porta'
'pornography_'
'population_'
'popular'
'ponder_'
'pom'
'pols'
'pollen_'
'polite'
'polar_'
'pokédex_'
'poka'
'pok_'
'poi'
'pogue_'
'podr'
'pode_'
'pode'
'pockybop_'
'pocket'
'población_'
'pob'
'pn'
'plátano_'
'plz_'
'playkids_'
'plas'
'pixie_'
'pix'
'pivot'
'pirates_'
'pira'
'pipeline_'
'pino'
'pinnatta_'
'pinky_'
'pineapple_'
'pincode_'
'pilot'
'pile'
'pila'
'pik'
'pies_'
'pierre_'
'pica'
'phút_'
'photoshop_'
'photomath_'
'phosphor'
'phon'
'philly_'
'phil'
'phic'
'phhhoto_'
'phd_'
'phar'
'phal'
'peu'
'petal_'
'pes_'
'pertinent_'
'pertains_'
'personales_'
'persists_'
'perl_'
'perfume_'
'perfect365_'
'perf'
'pera'
'pentateuco_'
'penn_'
'peni'
'peng'
'penda'
'pencils_'
'penalties_'
'penal_'
'pem'
'pelo_'
'pell'
'peli'
'peel_'
'peek_'
'pedido_'
'pdc_'
'pcre2_'
'payee_'
'paulsmith64_'
'patrick_'
'pati'
'pate'
'passage_'
'pase'
'pasa'
'partition_'
'partida_'
'parte'
'part'
'parsley_'
'parsing_'
'parse_'
'pars'
'parf'
'parenthood_'
'pard'
'paratyphoid_'
'papel'
'papa'
'pap'
'pant'
'panning_'
'panini_'
'pane'
'pancakes_'
'pam_'
'palmer_'
'palm'
'pallets_'
'palladium_'
'pale_'
'paki'
'pain'
'page'
'packard_'
'packaged_'
'pacers_'
'p509_'
'oy'
'oxi'
'ownload'
'overweight_'
'overlook'
'overdrive_'
'overdose_'
'overcoming_'
'over'
'ove'
'ova_'
'outros_'
'outr'
'outp'
'outdated_'
'outages_'
'out'
'ous'
'ourgroceries_'
'oth'
'ote'
'otaku_'
'ose_'
'osco_'
'osa_'
'orp'
'originated_'
'org'
'orden'
'orchid_'
'orbit'
'oq_'
'optimum_'
'optimise_'
'optimisation_'
'openweathermap_'
'openc'
'opciones_'
'oon_'
'ool'
'ook'
'ood'
'ony_'
'onp'
'onia_'
'oni_'
'ones'
'oneplus_'
'onda_'
'oman_'
'oma'
'olo'
'olan'
'okc'
'oka_'
'ois_'
'oir_'
'ohne_'
'ogr'
'ogl'
'oga'
'oficial_'
'offs_'
'offi_'
'offend'
'offbeat_'
'oferta_'
'odi'
'ode_'
'oda'
'ocr_'
'ock'
'occurring_'
'occasional_'
'occa'
'occ'
'ocarina_'
'oc_'
'obo'
'objectives_'
'oauth2_'
'o2_'
'nǐ_'
'năng_'
'né'
'nzd_'
'nydfs_'
'nvidia_'
'nv_'
'nut'
'nuss'
'nus_'
'nur'
'numerology_'
'nti'
'nth'
'nte'
'nsi'
'nse'
'nsa'
'nox'
'nowhere_'
'nova'
'nouv'
'nougat_'
'notifica'
'notifi'
'note'
'nota'
'nosotros_'
'norsk_'
'nop'
'nonsmoking_'
'nominations_'
'nominated_'
'noi'
'noel_'
'nod'
'nni'
'nlt_'
'nj'
'nisā_'
'nisa_'
'nio_'
'nina_'
'nin_'
'nil'
'nikola_'
'nikko_'
'nik'
'nightlife_'
'nieto_'
'nier_'
'nicole_'
'nicolai_'
'nich'
'nicer_'
'nib'
'nhận_'
'nhất_'
'nhấn_'
'nhà_'
'nho'
'ngh'
'nge_'
'nfl'
'nf'
'nexus_'
'newst'
'newspapers_'
'neuro'
'netscapes_'
'netanyahu_'
'ness'
'nescafe_'
'nes'
'nepali_'
'nepal_'
'nehemías_'
'negocios_'
'needle_'
'nee'
'necro'
'neatrom_'
'nde_'
'ncu'
'nche'
'nce'
'nature'
'nate'
'natalie'
'nata'
'napping_'
'nanc'
'nami'
'name'
'nai_'
'nade'
'naciones_'
'nach_'
'nac'
'nabi_'
'n0_'
'mặt_'
'mạn_'
'música_'
'mí'
'mình_'
'métro_'
'mét'
'mà'
'mz'
'myw'
'myt'
'myspace_'
'mysh'
'myrewards_'
'mycontacts_'
'mycar'
'mybell_'
'mvp_'
'muz'
'murphy_'
'munch_'
'multil'
'multicolored_'
'multicolor_'
'multic'
'mujer_'
'mug_'
'mucus_'
'muc'
'mtv_'
'msisdn_'
'mrs_'
'mplus_'
'mpe'
'mpa'
'mp_'
'movedex_'
'mour'
'mounted_'
'motorists_'
'motor'
'moto_'
'motivity_'
'motiv'
'mostrar_'
'mosaic_'
'moonrise_'
'montenegro_'
'monta'
'monitored_'
'moneywise_'
'mone'
'mond_'
'momentów_'
'moline_'
'moldova_'
'mojave_'
'moha'
'modp_'
'modifi'
'model'
'mobilis_'
'mobil_'
'mobi'
'mni'
'mlg_'
'mk_'
'mitte_'
'mitsubishi_'
'mitchell_'
'misi'
'mirr'
'miracle_'
'mir'
'mint'
'ministries_'
'mindful_'
'minati'
'mina'
'mimic'
'mile'
'mik'
'miguel_'
'migration_'
'migra'
'mig'
'midfielder_'
'microphones_'
'mico_'
'mewe_'
'metro'
'meth'
'metal'
'metadata_'
'metabolic_'
'message'
'mesiánica_'
'mesa_'
'merit'
'merging_'
'merger_'
'mento_'
'menjadi_'
'mengi'
'mengh'
'mengakses_'
'memorizer_'
'memoires_'
'melakukan_'
'mega'
'meetups_'
'mee'
'medshr_'
'medal_'
'mechanics_'
'meantime_'
'mead'
'mdi'
'mcveggie_'
'mcneil_'
'mcg'
'mañana_'
'mayores_'
'maye'
'mauric'
'matthewnelson_'
'mati'
'matchup_'
'masu'
'masters_'
'massi'
'masks_'
'masi'
'masc'
'marshall_'
'marquis_'
'marquez_'
'marl'
'marketplaces_'
'marijuana_'
'mare'
'marble_'
'mapst'
'manifesta'
'mani_'
'mang'
'mane_'
'mand'
'makeu'
'mak_'
'mak'
'main'
'mahal_'
'mah'
'magnet_'
'magisk_'
'magenta_'
'mae_'
'mae'
'madera_'
'madden_'
'madagascar_'
'macro_'
'macr'
'machapp_'
'mach'
'm9_'
'lượng_'
'lưu_'
'lè_'
'lyric_'
'lynnmcm_'
'lycan_'
'lybrate_'
'lv'
'luv_'
'lutgarde_'
'luna_'
'lui_'
'lug'
'luca'
'luc'
'lua'
'lty_'
'lr'
'lq'
'lov_'
'lourens_'
'loudspeaker_'
'lott'
'lot'
'loser_'
'lore_'
'lore'
'lookout_'
'lonesome_'
'lon'
'lom'
'logan_'
'lof'
'lockdown_'
'locating_'
'localiser_'
'lman_'
'lm_'
'lli_'
'lleva'
'llas_'
'lj'
'lize'
'liu_'
'lita'
'lit'
'lionel_'
'lio_'
'linterna_'
'link'
'ling'
'line'
'lind'
'lilla'
'lik_'
'lih'
'lightweight_'
'lig'
'lifeway_'
'lifeless_'
'lich_'
'libre_'
'liberty_'
'lib_'
'lian_'
'lia_'
'lhash_'
'lgbackup_'
'leviticus_'
'leve_'
'leva'
'leu'
'letra_'
'lete'
'lern'
'lere'
'lengths_'
'leng'
'lem'
'lele_'
'leipzig_'
'leigh_'
'lego_'
'legal'
'left'
'lef'
'lech'
'leased_'
'learns_'
'learners_'
'learn'
'leandro_'
'lde'
'lcs_'
'law'
'lavil_'
'lava'
'laun'
'lauderdale_'
'latino_'
'latency_'
'lass'
'lashes_'
'largely_'
'lap'
'lanka_'
'lands'
'landmarks_'
'lana_'
'lament'
'lamb_'
'lal'
'lada_'
'laboratory_'
'labor'
'l1_'
'kü'
'kx'
'kurs_'
'którym_'
'kt_'
'kru'
'kro'
'koz'
'knobs_'
'knees_'
'kle'
'klar'
'kl_'
'kis'
'kirk'
'kilometres_'
'kilograms_'
'kills_'
'kill'
'kika_'
'kie'
'kib_'
'khá'
'khu'
'khaligraph_'
'keç_'
'keys'
'ketika_'
'ket_'
'kes_'
'kera'
'kent_'
'kelly_'
'kel'
'keepy_'
'kazakhstan_'
'kau'
'kath'
'kategorien_'
'kas'
'karm'
'karega_'
'kapoor_'
'kann'
'kana_'
'kal_'
'kac'
'jz'
'juntocast_'
'juni'
'jumped_'
'jumada_'
'juli'
'juicessh_'
'jug'
'judíos_'
'judá_'
'jounen_'
'jonathan_'
'johnsmith_'
'john'
'jod'
'job'
'jj'
'jewish_'
'jewellery_'
'jewel_'
'jetzt_'
'jetblue_'
'jet'
'jerusalén_'
'jelly_'
'jee'
'jedi_'
'jea'
'jdk'
'jb_'
'japan'
'jang'
'jamie_'
'jalapeño_'
'jalan_'
'jakewharton_'
'jakarta_'
'jak'
'jaipur_'
'jailbreak_'
'jacksonville_'
'jackrabbit_'
'j5'
'j2'
'iş'
'izz'
'iza'
'ixigo_'
'ix'
'ivo_'
'iu_'
'itha'
'iter'
'ited_'
'italo_'
'isti'
'ista'
'isp_'
'isla'
'isk'
'ise'
'isco'
'isabel_'
'ires_'
'iras'
'ipads_'
'ions'
'ioni'
'iol'
'investor_'
'investigators_'
'investigate_'
'invent'
'inva'
'inuse_'
'intuit_'
'intu'
'introductions_'
'intervention_'
'interm'
'interlocutor_'
'interiors_'
'interes'
'intercity_'
'intercession_'
'interce'
'interact'
'intention_'
'instrucciones_'
'insti'
'instances_'
'installers_'
'instal'
'insole_'
'ins'
'ino'
'inks_'
'initialization_'
'inhal'
'ingr'
'ingo_'
'ingly_'
'informs_'
'informal_'
'informa'
'infer'
'infa'
'induce_'
'indo'
'india'
'inda_'
'ind'
'incu'
'incre'
'inci'
'ination_'
'impr'
'impos'
'implement'
'impi'
'impacts_'
'img_'
'imdb_'
'iman'
'image'
'ils_'
'illustrations_'
'illuminate'
'ille_'
'ill'
'iko'
'ika'
'iia'
'ihre'
'iheartradio_'
'ih_'
'igu'
'igo'
'ignored_'
'ight_'
'ight'
'ifo'
'ifa'
'ies'
'iel_'
'idioma_'
'idi'
'idge_'
'idea'
'idah_'
'icu'
'iconic_'
'icon'
'ick_'
'icat'
'ibrahim_'
'ibi'
'i9'
'i17_'
'học_'
'hǎob'
'hǎo'
'hà'
'hypertext_'
'hyperlink_'
'hymns_'
'hyde_'
'hya'
'hv'
'hussein_'
'hurr'
'huntington_'
'humb'
'humanity_'
'humani'
'hum'
'hue'
'hudseeker_'
'hsi'
'howling_'
'houzz_'
'housew'
'house'
'hostels_'
'hospitalario_'
'hooray_'
'hook'
'hoo'
'homest'
'homer_'
'homebase_'
'hog'
'hma'
'hl_'
'hkg_'
'hk'
'históricos_'
'histo'
'hired_'
'hir'
'hilt_'
'highways_'
'highs'
'hic'
'hi5_'
'hewlett_'
'hest'
'hesi'
'hers'
'hero'
'hernandez_'
'heritage_'
'hera'
'helm'
'hello'
'helen'
'heir'
'heidlas_'
'hechos_'
'heb'
'heavyweight_'
'hea'
'hayward_'
'hawa'
'haus_'
'haunt'
'hatchback_'
'hashtags_'
'harvesting_'
'harsh_'
'harper_'
'harian_'
'hardw'
'hardcover_'
'harassment_'
'hara'
'hansen_'
'hans_'
'hannah_'
'hane'
'hamburg_'
'halle'
'hall'
'hali'
'hak_'
'hadn_'
'had'
'hacked_'
'hac'
'haba'
'hab'
'ha14_'
'gửi_'
'gz'
'gym'
'gwo_'
'gutenberg_'
'gusts_'
'gurgaon_'
'gum'
'gujarat_'
'guill'
'guild'
'guideline_'
'gui'
'guatemala_'
'guardians_'
'guardar_'
'guard'
'gtl_'
'grumpy_'
'grin'
'grenad'
'gratuit'
'grapes_'
'grace'
'grac'
'grabber_'
'gow'
'governorate_'
'goro_'
'google'
'gonzalez_'
'gonna_'
'gomez8_'
'gom'
'gob'
'goaltending_'
'goalkeeper_'
'goalie_'
'gno'
'gne'
'glowing_'
'glossary_'
'glob'
'gj'
'gizmo'
'giver_'
'girl'
'giriş_'
'gilt_'
'gig_'
'gift'
'gian'
'gia_'
'gge'
'gf_'
'ges'
'geometric_'
'geocaching_'
'gentlemen_'
'genie_'
'generations_'
'generalized_'
'gemini_'
'gei'
'gef'
'gee_'
'geben_'
'geary_'
'gear'
'gcm_'
'gast'
'gason_'
'gasket_'
'gasbuddy_'
'gardner_'
'gardenscapes_'
'garc'
'garam_'
'garagecloud_'
'gapps_'
'gangster_'
'gangs_'
'gand'
'gamers_'
'galveston_'
'gall'
'gained_'
'gabriel'
'gaana_'
'fórmula_'
'fw'
'futbol_'
'funktion'
'full'
'fug'
'fuel'
'fucked_'
'fthe'
'frying_'
'frost'
'front'
'frog_'
'friend'
'freq_'
'fremont_'
'freeware_'
'freelance_'
'freei'
'freddy_'
'freaking_'
'franco_'
'frances_'
'fra_'
'foxtertu_'
'fountain_'
'found'
'foto'
'forming_'
'form'
'forks_'
'foreseeable_'
'fore'
'foodie_'
'foo'
'follo_'
'folio_'
'foi'
'focuses_'
'fna'
'fn_'
'flute'
'fluff_'
'floppy_'
'flock_'
'flite_'
'flight'
'flies_'
'flick_'
'flee'
'flatmates_'
'flame_'
'fl'
'fitb'
'fishermans_'
'fiscal_'
'firstly_'
'firearm_'
'fino_'
'finn'
'financially_'
'fina'
'filme_'
'filip'
'fights_'
'fifteen_'
'fickley_'
'ficar_'
'fica_'
'fib'
'fiaba_'
'ffmpeg_'
'ffl'
'fet'
'fenerbahçe_'
'fence_'
'feld_'
'fef'
'feedly_'
'feats_'
'fearful_'
'fd_'
'fd'
'fcs_'
'favorito_'
'fatal_'
'faste'
'fastboot_'
'fast'
'faso_'
'faro'
'farmer_'
'farm'
'fara'
'fanned_'
'fandom_'
'fame_'
'fala'
'faithful_'
'fac'
'fabrica'
'fabia_'
'f0'
'ezekiel_'
'eyel'
'extending_'
'expres'
'exponential_'
'explosive_'
'explo'
'experi'
'exited_'
'exhausted_'
'exert'
'exe_'
'excitement_'
'excel'
'exceeds_'
'exceeding_'
'examobile_'
'examined_'
'everytime_'
'evernote_'
'ever'
'eve'
'evangelios_'
'eva_'
'eva'
'ev'
'etwas_'
'ette_'
'ethanol_'
'ete_'
'esté_'
'estiver_'
'esther_'
'esteem_'
'estamos_'
'estado_'
'establishing_'
'esta'
'especial'
'eshop_'
'escr'
'erst'
'erra'
'erma'
'erla'
'erie_'
'ered_'
'erdo'
'equally_'
'ept'
'epocrates_'
'epi_'
'eon'
'env'
'entènèt_'
'entra'
'enthusiast_'
'ensa'
'enrolling_'
'enquiries_'
'enquete_'
'enos_'
'enlarge_'
'enia_'
'enhances_'
'engish_'
'enf'
'ener_'
'endo_'
'endi'
'enda'
'encouragement_'
'encountered_'
'encontrar_'
'enb'
'emu'
'empower'
'empo'
'eme'
'embroidered_'
'embodied_'
'emba'
'emb'
'elm_'
'ellos_'
'elle_'
'elis'
'elif_'
'elevator_'
'elevated_'
'elegant_'
'electro_'
'electoral_'
'eleazar_'
'ela_'
'eke'
'eka'
'eis'
'einer_'
'efax_'
'eero_'
'eeri'
'eed'
'eda'
'ection'
'ect_'
'eco'
'eclesiastés_'
'eci'
'ebo'
'ebisu_'
'eather'
'earl_'
'earbuds_'
'ead'
'e911_'
'e5_'
'e5'
'e2_'
'e1'
'e'
'dü'
'dysfunction_'
'dynesty_'
'dwell_'
'dwa'
'dust'
'dusk_'
'dupatta_'
'dung_'
'dump_'
'dum_'
'duke_'
'duc'
'dublin_'
'dua'
'dryer_'
'drowning_'
'drones_'
'drink'
'drill_'
'drifting_'
'dries_'
'dream'
'draft'
'dq'
'downward_'
'downloadfreesound_'
'doth_'
'dormi_'
'dorm'
'doo'
'donut_'
'dono'
'dong_'
'donating_'
'domingo_'
'doda'
'dod_'
'documentary_'
'docu'
'dob'
'dns'
'dness_'
'dmv_'
'dly_'
'dle_'
'djs_'
'dji_'
'dixon_'
'divin'
'dividing_'
'divers'
'districts_'
'distract_'
'dist'
'disruption_'
'disponible_'
'disconnects_'
'discipline_'
'disciple_'
'disables_'
'direct'
'dip_'
'diogenes_'
'dinosaur_'
'dinners_'
'dillon_'
'dila'
'digital'
'digestive_'
'diets_'
'dieting_'
'diese_'
'did'
'diapason_'
'diamante_'
'dialect_'
'dhl_'
'dhcp_'
'dha_'
'dexter_'
'deut'
'determination_'
'destr'
'desnoguns_'
'designate_'
'desc_'
'deregister_'
'derechos_'
'deputies_'
'depot_'
'deployed_'
'depi'
'departures_'
'density_'
'denominational_'
'denomination_'
'demonstrates_'
'democracy_'
'deli_'
'delegate_'
'dela_'
'dej'
'deg'
'defining_'
'defending_'
'defe'
'deems_'
'deem_'
'deduct'
'decrypt_'
'decrement_'
'decode_'
'declar'
'decimal_'
'deci'
'dece'
'debut_'
'debited_'
'deal'
'deadline_'
'deadlift_'
'dead2me_'
'dead'
'ddi'
'dbs_'
'day'
'datuner_'
'datetime_'
'dated_'
'datastorage_'
'datas'
'dat'
'das'
'darts_'
'darthtalk_'
'dangal_'
'dang'
'dana'
'dalsan_'
'dai_'
'daf_'
'dadu_'
'dada_'
'd31'
'd1'
'cze'
'czas_'
'cysto'
'cyan_'
'cvo_'
'cutt'
'custodian_'
'cushion'
'curtains_'
'currents_'
'curr'
'curl'
'cured_'
'cur'
'cumulative_'
'cue'
'cte'
'cruises_'
'crowdin_'
'crow_'
'crossbody_'
'crm_'
'criticism_'
'crist'
'crimes_'
'cric'
'creep'
'credit'
'crawling_'
'craft'
'crab'
'cpr'
'cp_'
'cove'
'courageous_'
'cour'
'couples_'
'cough_'
'costumes_'
'cortex_'
'corta'
'corresponds_'
'corporal_'
'coronary_'
'corona_'
'copia_'
'copi'
'cope_'
'copacabana_'
'coors_'
'coon_'
'convinced_'
'conveniently_'
'controle_'
'contenido_'
'contemporaneous_'
'conte_'
'consum'
'consulting_'
'constrain'
'const'
'consonants_'
'considers_'
'considerations_'
'consec'
'consciousness_'
'cons_'
'cons'
'conquer_'
'connectbot_'
'connect'
'conjugator_'
'conjugate'
'congestion_'
'confront'
'confine'
'configura_'
'condo_'
'condi'
'cond'
'conch'
'concession_'
'compte_'
'compromised_'
'compress_'
'composition_'
'complying_'
'compliments_'
'complet'
'compe'
'compassion_'
'como'
'committing_'
'commissioner_'
'comicwalker_'
'cometh_'
'combines_'
'combin'
'colosenses_'
'colon'
'colle'
'collage_'
'cold'
'coin'
'cog'
'coch'
'coc'
'coats_'
'coast'
'cms_'
'clz_'
'clutch_'
'clu'
'cloud'
'close'
'clone_'
'clockwise_'
'cliff_'
'clientes_'
'clem'
'clauncher_'
'classmates_'
'class'
'clarity_'
'clap1_'
'clancy_'
'claire_'
'cket_'
'cker'
'ciu'
'citrus_'
'citibanamex_'
'circus_'
'cip'
'ciotti_'
'ciona'
'cinemas_'
'cinema'
'cide'
'cib'
'chu_'
'christians_'
'chr_'
'chr'
'chore_'
'chole'
'chlorpromazine_'
'chk'
'chipmunk_'
'ching_'
'china'
'chimes_'
'chill'
'childcare_'
'child'
'chicharito_'
'chem'
'chel'
'checkup_'
'checksum_'
'chatte_'
'charlene_'
'characterized_'
'chapter'
'chap'
'chaos_'
'chandler_'
'chandigarh_'
'chan'
'championnat_'
'champ'
'chalupa_'
'chak'
'chad'
'cg'
'ceviche_'
'cette_'
'cess'
'cervical_'
'centylowe_'
'centres_'
'centrally_'
'centigrade_'
'cel'
'cease'
'cbn_'
'caçamba_'
'cautious_'
'caughtdex_'
'cattle_'
'cation_'
'cater'
'catcher_'
'cata'
'cast'
'cass'
'case'
'carros_'
'carrera_'
'carre'
'carol_'
'carne_'
'caret_'
'cares_'
'caregivers_'
'caregiver_'
'cards'
'cardmember_'
'cardiology_'
'cardinal_'
'cardi'
'carbon'
'cara'
'capturing_'
'capsule_'
'capillary_'
'canto_'
'cantabria_'
'canned_'
'cani'
'candid_'
'cancels_'
'camsam_'
'came'
'cambiar_'
'calv'
'calle_'
'caldav_'
'calculates_'
'caja'
'cairo_'
'cage_'
'cafes_'
'c9_'
'c8'
'c63_'
'c3'
'c0'
'bücher_'
'bíblia_'
'bé_'
'bz'
'byyl_'
'bv'
'buy'
'butt'
'busuu_'
'busn'
'bus'
'burns_'
'burlington_'
'burlingame_'
'burkina_'
'bumpy_'
'bump'
'bulldogs_'
'bull'
'bugle_'
'buffering_'
'buff'
'bucks_'
'bry'
'brush'
'bruce_'
'broward_'
'brookings_'
'brook'
'brokered_'
'broadway_'
'broadcastify_'
'broadcasters_'
'brisket_'
'briscoe_'
'brink_'
'brighten_'
'brien_'
'briefs_'
'briefings_'
'briefing_'
'bridgestone_'
'brian'
'bri_'
'brewing_'
'brewed_'
'bret'
'breaths_'
'breathe'
'brandon_'
'branding_'
'brand'
'brake_'
'bournemouth_'
'bour'
'boundary_'
'bounc'
'bother'
'bosch_'
'bosa'
'bos_'
'boro_'
'boro'
'borne_'
'boris_'
'booted_'
'boomcap_'
'books'
'bonefish_'
'bombs_'
'bom_'
'boluses_'
'bold'
'bola_'
'bok'
'bogotá_'
'bogdan_'
'boeing_'
'bodycon_'
'bodycal_'
'bod'
'boca_'
'bobble_'
'boardwalk_'
'bm'
'blouse_'
'bloomz_'
'bloom_'
'bloody_'
'blood'
'blondie_'
'blocksite_'
'blo'
'blizzard_'
'bling_'
'blinded_'
'blessings_'
'blending_'
'bleat_'
'blazers_'
'blake_'
'bitz_'
'birth'
'biometrics_'
'biochemistry_'
'bina'
'billiards_'
'biller_'
'bik'
'bigg'
'bidirectional_'
'biceps_'
'bias_'
'betterbutter_'
'beth'
'bes_'
'berliner_'
'berd'
'bera'
'beo'
'benešov_'
'benefited_'
'bem'
'belt'
'belle_'
'bella'
'beli'
'bela'
'behaves_'
'begun_'
'beet'
'bed'
'bea'
'bbq_'
'bays'
'battle'
'basi'
'basement_'
'barium_'
'bargains_'
'barca_'
'barbara_'
'barba'
'baqara_'
'bancorp_'
'banc'
'bald'
'bak'
'bait_'
'bail'
'baik'
'bafana_'
'badoo_'
'bader_'
'bada'
'baconreader_'
'backpacks_'
'backaches_'
'bach_'
'bac_'
'babygogo_'
'babilónico_'
'baba'
'b8'
'b5_'
'aş'
'azul_'
'azu'
'aza'
'ayat_'
'aya'
'awoken_'
'aw_'
'aviso_'
'avis_'
'avi_'
'averages_'
'ave'
'avan'
'aval'
'avail_'
'autor'
'automático_'
'automute_'
'automati'
'ausge'
'ausführung_'
'aul'
'augment_'
'aug'
'auf'
'auditor'
'audiologist_'
'audiences_'
'audi'
'auckland_'
'auc'
'até_'
'atten'
'atta'
'att_'
'atro'
'atr'
'atos'
'ator'
'atc_'
'atan_'
'ata_'
'asy'
'assumption_'
'assistir_'
'assignments_'
'assess'
'asserting_'
'assert_'
'aspirin_'
'aspira'
'asp'
'asd'
'asa_'
'ará_'
'arz'
'artifacts_'
'arthur_'
'arthritis_'
'arte'
'arrowroot_'
'aroma'
'aro'
'arn'
'armband_'
'arka_'
'ark'
'aris'
'ariana_'
'arian_'
'argo_'
'archi'
'arche'
'arch'
'arbitra'
'arb'
'aqui_'
'apre_'
'apps2fire_'
'appropriately_'
'apples_'
'applause_'
'appearances_'
'appcr'
'apparently_'
'apns_'
'aplikacja_'
'aplica'
'apfel_'
'apex_'
'any'
'antib'
'ante'
'antar'
'ant'
'anos_'
'anno'
'anm'
'ank'
'anj'
'anis'
'anic_'
'angela_'
'anf'
'anew_'
'aneesprince_'
'anees_'
'androidgoogleplay_'
'android7settingsapp_'
'android7settings_'
'android7'
'andhra_'
'ances_'
'anc'
'anb'
'analytic'
'analgesic_'
'anal'
'amusing_'
'ams_'
'ams'
'amplifier_'
'amos_'
'amis'
'amigo_'
'amg_'
'ames_'
'americans_'
'ambien'
'alzheimer_'
'als'
'alphabets_'
'alopecia_'
'allyy_'
'alls'
'allies_'
'allie'
'alli'
'allegedly_'
'alle'
'alis'
'alia_'
'alg_'
'alfa_'
'alf'
'alexis_'
'alex'
'alba'
'alb'
'alam_'
'akt'
'aju'
'ajo_'
'aji'
'ait_'
'ait'
'airs'
'airdroid_'
'airb'
'aime'
'aheared_'
'agricultural_'
'agregar_'
'agra_'
'ago'
'agne'
'agentes_'
'afterwards_'
'afraid_'
'afe_'
'aesthetic'
'aeromar_'
'adware_'
'advices_'
'advert'
'adversely_'
'advancement_'
'adresse'
'adres'
'adr'
'ador'
[...]
