'<pad>_'
'<EOS>_'
', _'
'._'
'the_'
'_'
'in_'
'of_'
'and_'
'to_'
'die_'
'der_'
'und_'
'a_'
's_'
'-_'
'is_'
'that_'
'zu_'
'for_'
'den_'
'von_'
'on_'
'n_'
'ist_'
'für_'
'. _'
'an_'
'en_'
'The_'
'with_'
'are_'
'be_'
'es_'
'das_'
'e_'
'as_'
'auf_'
'des_'
'mit_'
'it_'
'eine_'
'dass_'
'have_'
'nicht_'
'by_'
'I_'
'im_'
'not_'
'this_'
' (_'
'sich_'
' – _'
'was_'
'ein_'
'from_'
'will_'
'Die_'
'werden_'
'’_'
'we_'
'dem_'
't_'
'has_'
': _'
'which_'
'or_'
'Sie_'
'at_'
'als_'
'er_'
'In_'
'you_'
'wir_'
'auch_'
'sind_'
'r_'
'um_'
'wird_'
'so_'
') _'
'ing_'
''_'
'all_'
'sie_'
'can_'
'd_'
' - _'
'einer_'
'haben_'
'also_'
'hat_'
'European_'
'wie_'
'their_'
'its_'
'more_'
'oder_'
'would_'
'über_'
'einen_'
'but_'
'?_'
'ed_'
'ich_'
'y_'
'our_'
'zur_'
'aus_'
'one_'
'been_'
'Das_'
'they_'
'bei_'
'einem_'
'; _'
'Union_'
'should_'
'It_'
'können_'
'nur_'
'durch_'
'This_'
'/_'
'diese_'
'EU_'
'nach_'
'do_'
'countries_'
'de_'
'zum_'
'am_'
'only_'
'We_'
' , _'
'1_'
'kann_'
'other_'
'there_'
'your_'
'o_'
'new_'
'war_'
'dieser_'
'than_'
'noch_'
'about_'
'ung_'
'Mr_'
'Der_'
'2_'
'like_'
'were_'
'Europe_'
'no_'
'President_'
'man_'
'wenn_'
'vor_'
'- _'
'must_'
'Ich_'
'us_'
'aber_'
'm_'
' "_'
'who_'
'these_'
'Es_'
'wurde_'
'up_'
'sein_'
'world_'
'very_'
'time_'
'if_'
'A_'
'ten_'
'US_'
'Hotel_'
'Commission_'
' “_'
'such_'
' ._'
'uns_'
'people_'
'his_'
'out_'
'mehr_'
'Wir_'
'into_'
'te_'
'But_'
'müssen_'
'5_'
'now_'
'when_'
'most_'
'ihre_'
'3_'
'sehr_'
'many_'
'China_'
'what_'
'some_'
'Kommission_'
'States_'
'!_'
'% _'
'he_'
'them_'
'ng_'
'ly_'
' „_'
'had_'
'l_'
'economic_'
'any_'
')._'
'4_'
'Herr_'
'need_'
'well_'
'years_'
'), _'
'eines_'
'even_'
',_'
'unter_'
'" _'
'diesem_'
'use_'
'muss_'
'alle_'
'over_'
'zwischen_'
'way_'
'make_'
'political_'
'first_'
'hotel_'
'because_'
'work_'
'i_'
'two_'
'Parliament_'
'those_'
'may_'
'bis_'
'keine_'
'policy_'
'my_'
'could_'
'government_'
'important_'
'between_'
'anderen_'
'system_'
'report_'
'Council_'
'gibt_'
'Präsident_'
'support_'
'gegen_'
'Europa_'
'Europäischen_'
'0_'
'vom_'
'just_'
'If_'
'year_'
'seine_'
'” _'
'made_'
'sowie_'
'being_'
'much_'
'ungen_'
'al_'
'able_'
'Member_'
'country_'
'take_'
'where_'
'public_'
'möchte_'
'dieses_'
'“ _'
'after_'
'how_'
'Welt_'
'market_'
'' _'
'Wenn_'
'Jahr_'
' _'
'Menschen_'
'global_'
'both_'
'g_'
'k_'
'(_'
'wurden_'
'international_'
'USA_'
'right_'
'good_'
'Im_'
'As_'
'sondern_'
'da_'
'ihrer_'
'last_'
':_'
'own_'
'Jahren_'
'part_'
'through_'
'Zeit_'
'immer_'
'social_'
'diesen_'
'dies_'
'financial_'
'United_'
'würde_'
'long_'
'For_'
'Diese_'
'Länder_'
'6_'
'S_'
'7_'
'same_'
're_'
'hier_'
'then_'
'unsere_'
'h_'
'growth_'
'andere_'
'damit_'
'against_'
'information_'
'Bericht_'
'jedoch_'
'does_'
'le_'
'end_'
'10_'
'high_'
'ohne_'
'heute_'
'Und_'
'sollten_'
'There_'
'dann_'
'sollte_'
'order_'
'seiner_'
'free_'
'too_'
'point_'
'8_'
'far_'
'’ _'
'under_'
'neue_'
'national_'
'fact_'
'Mitgliedstaaten_'
'europäischen_'
'see_'
'Regierung_'
'within_'
'rights_'
'area_'
'possible_'
'place_'
'ion_'
'her_'
'example_'
'bereits_'
'And_'
'20_'
'course_'
'Parlament_'
'z_'
'könnte_'
'already_'
'want_'
'room_'
'me_'
'great_'
'since_'
'set_'
'development_'
'Europäische_'
'Entwicklung_'
'number_'
'future_'
'power_'
'denen_'
'That_'
'before_'
' [[_'
'So_'
'neuen_'
'während_'
'still_'
'less_'
'ation_'
'Land_'
'without_'
'c_'
'You_'
'Ein_'
'used_'
'la_'
'ihren_'
'today_'
' | _'
'zwei_'
'Frage_'
'weil_'
'selbst_'
'say_'
'se_'
'wieder_'
'ihr_'
'including_'
'000_'
'! _'
'human_'
'jetzt_'
'dazu_'
'change_'
'problem_'
'large_'
'here_'
'wäre_'
'viele_'
'cannot_'
'therefore_'
'9_'
'find_'
'few_'
'Unternehmen_'
'30_'
'become_'
'Aber_'
'..._'
'trade_'
'America_'
' '_'
'economy_'
'state_'
'believe_'
'15_'
'while_'
'einige_'
'real_'
'Lage_'
'machen_'
'down_'
'level_'
'ers_'
'three_'
'Maßnahmen_'
'C_'
'denn_'
'case_'
'process_'
'next_'
'geht_'
'darauf_'
'better_'
'available_'
'Eine_'
'help_'
'wo_'
'view_'
'per_'
'viel_'
'issue_'
'dafür_'
'liegt_'
'et_'
'different_'
'means_'
'2009_'
'go_'
'clear_'
'E_'
'Japan_'
've_'
'They_'
'unserer_'
'however_'
'Ihnen_'
'00_'
'   _'
'st_'
'rs_'
'best_'
'Ländern_'
'Jahre_'
'waren_'
'services_'
'business_'
'ne_'
'areas_'
'Mit_'
'u_'
'mich_'
'allen_'
'Frau_'
'doch_'
'back_'
'Iran_'
'interest_'
'energy_'
'during_'
'crisis_'
'B_'
'finden_'
'why_'
'question_'
'daß_'
'lich_'
'lassen_'
'habe_'
'day_'
'based_'
'Dies_'
'security_'
'nun_'
'city_'
'D_'
'Committee_'
'private_'
'gut_'
'get_'
'current_'
'small_'
'service_'
'know_'
'problems_'
'access_'
'These_'
'Doch_'
'To_'
'role_'
'every_'
'Politik_'
'wollen_'
'ts_'
'ganz_'
'el_'
'making_'
'com_'
'bar_'
'Commissioner_'
'50_'
'offers_'
'besteht_'
'provide_'
'etwas_'
'common_'
'Staaten_'
'whether_'
'result_'
'letzten_'
'ce_'
'allem_'
'x_'
'seit_'
'politischen_'
'each_'
'come_'
'When_'
'Israel_'
'worden_'
'particular_'
'health_'
'Zimmer_'
'major_'
'law_'
'action_'
'Rat_'
'ch_'
'bietet_'
'Ende_'
'stellen_'
'politische_'
'Wie_'
'tion_'
'think_'
'rate_'
'ob_'
'At_'
'term_'
'Ziel_'
'Probleme_'
'put_'
'ge_'
'World_'
'Ihre_'
'seinen_'
'debate_'
'Russia_'
'Internet_'
'stay_'
'New_'
'Bereich_'
'non_'
'might_'
'measures_'
'citizens_'
'old_'
'markets_'
'given_'
'drei_'
'again_'
'On_'
'zwar_'
'schon_'
'policies_'
'page_'
'million_'
'main_'
'einfach_'
'did_'
'governments_'
'full_'
'Auch_'
'steht_'
'around_'
'American_'
'2008_'
'|_'
'weniger_'
'needs_'
'money_'
'Art_'
'situation_'
'further_'
'Unterstützung_'
'Euro_'
'12_'
'said_'
'que_'
'often_'
'little_'
'insbesondere_'
'erhalten_'
'Germany_'
'Fall_'
'rooms_'
'open_'
'life_'
'House_'
'Bank_'
'Arbeit_'
'2000_'
'11_'
'women_'
'ter_'
'rules_'
'ment_'
'institutions_'
'called_'
'With_'
'weiter_'
'taken_'
'give_'
'debt_'
'another_'
'Herrn_'
'Als_'
'sagen_'
'ns_'
'hatte_'
'beim_'
'System_'
'recent_'
'quality_'
'proposal_'
'issues_'
'Sicherheit_'
'systems_'
'rather_'
'mir_'
'T_'
'sten_'
'local_'
'increase_'
'ies_'
'deren_'
'data_'
'budget_'
'Namen_'
'members_'
'hope_'
'große_'
'du_'
'davon_'
'Problem_'
'All_'
'möglich_'
'kommen_'
'gen_'
'sector_'
'second_'
'military_'
'group_'
'continue_'
'close_'
'tun_'
'p_'
'others_'
'ons_'
'ersten_'
'ern_'
'bin_'
'agreement_'
'Teil_'
'German_'
'Bürger_'
'vote_'
'sehen_'
'geben_'
'eigenen_'
'children_'
'P_'
'He_'
'terms_'
'located_'
'What_'
'price_'
'großen_'
'gegenüber_'
'especially_'
'Rahmen_'
'Nach_'
'Millionen_'
'2005_'
'rates_'
'past_'
'necessary_'
'führen_'
']] _'
'Bei_'
'though_'
'stehen_'
'legal_'
'led_'
'least_'
'f_'
'away_'
'ab_'
'together_'
'short_'
'os_'
'low_'
'Informationen_'
' $_'
'once_'
'line_'
'investment_'
'basis_'
'Zusammenarbeit_'
'Recht_'
'yet_'
'weitere_'
'off_'
'einmal_'
'dort_'
'Bedeutung_'
'2006_'
'etwa_'
'companies_'
'Auf_'
'using_'
'soll_'
'ry_'
'itself_'
'ensure_'
'dabei_'
'conditions_'
'Für_'
'2001_'
'third_'
'leaders_'
'ieren_'
'central_'
'aller_'
'\u_'
'Community_'
'pro_'
'position_'
'particularly_'
'him_'
'century_'
'capital_'
'allerdings_'
'Weise_'
'Rolle_'
'One_'
'O_'
'Er_'
'2007_'
'100_'
' & _'
'risk_'
'greater_'
'certain_'
'banks_'
'2004_'
'region_'
'always_'
'Indeed_'
'öffentlichen_'
'ins_'
'innerhalb_'
'create_'
'chen_'
'bringen_'
'meisten_'
'location_'
'form_'
'efforts_'
'single_'
'könnten_'
'erreichen_'
'ago_'
'Zukunft_'
'France_'
'Fragen_'
'staff_'
'modern_'
'ic_'
'foreign_'
'democracy_'
'Was_'
'However_'
'unseren_'
'states_'
'sogar_'
'society_'
'resources_'
'.”_'
'working_'
'present_'
'key_'
'ihnen_'
'fully_'
'cooperation_'
'age_'
'Seite_'
'start_'
'costs_'
'control_'
'aid_'
'kein_'
'home_'
'done_'
'ble_'
'b_'
'among_'
'alles_'
'UN_'
'East_'
'reform_'
'needed_'
'indem_'
'going_'
'decision_'
'approach_'
'water_'
'prices_'
'Region_'
'M_'
' ..._'
'vielen_'
'hin_'
'excellent_'
'europäische_'
'environment_'
'almost_'
'Vorschlag_'
'Chinese_'
'würden_'
'unterstützen_'
'nd_'
'left_'
'internationalen_'
'Wirtschaft_'
'Europas_'
'tax_'
'really_'
'protection_'
'meine_'
'education_'
'centre_'
'Weg_'
'Wachstum_'
'Stadt_'
'Leben_'
' '
'whole_'
'fast_'
'account_'
' _'
'special_'
'period_'
'iert_'
'Deutschland_'
'wissen_'
'schen_'
'nt_'
'ja_'
'having_'
'Um_'
'Frauen_'
'25_'
'reason_'
'never_'
'ischen_'
'higher_'
'early_'
'until_'
'shall_'
'several_'
'nden_'
'name_'
'developing_'
'demand_'
'2003_'
'production_'
'möchten_'
'longer_'
'food_'
'cost_'
'aufgrund_'
'Kinder_'
'G_'
'welche_'
'kommt_'
'interests_'
'general_'
'Seiten_'
'Mrs_'
'Grund_'
'Beispiel_'
'16_'
'standards_'
'sowohl_'
'hand_'
'enough_'
'daher_'
'September_'
'Iraq_'
'wirtschaftlichen_'
'views_'
'play_'
'offer_'
'Group_'
'2002_'
'wirklich_'
'products_'
'nehmen_'
'meiner_'
'look_'
'land_'
'ihm_'
'billion_'
'Möglichkeit_'
'International_'
' % _'
'value_'
'taking_'
'seinem_'
'results_'
'remain_'
'progress_'
'plan_'
'peace_'
'matter_'
'darin_'
'No_'
'Dollar_'
';_'
'workers_'
'something_'
'simply_'
'side_'
'respect_'
'resolution_'
'keit_'
'gentlemen_'
'darüber_'
'bieten_'
'Zusammenhang_'
'18_'
'vielleicht_'
'ty_'
'sei_'
'regional_'
'management_'
'liche_'
'following_'
'em_'
'R_'
'Obama_'
'40_'
'un_'
'th_'
'stellt_'
'poor_'
'include_'
'ever_'
'climate_'
'U_'
'Landes_'
'India_'
'show_'
'sche_'
'proposals_'
'men_'
'income_'
'etc_'
'befindet_'
'State_'
'Parlaments_'
'24_'
'themselves_'
'ted_'
'research_'
'regard_'
'nuclear_'
'known_'
'entfernt_'
'economies_'
'difficult_'
'democratic_'
'N_'
'L_'
'Central_'
'site_'
'personal_'
'member_'
'breakfast_'
'big_'
'agree_'
'After_'
'Africa_'
'wish_'
'various_'
'things_'
'lead_'
'ity_'
'framework_'
'force_'
'beiden_'
'Service_'
'Richtlinie_'
'Regierungen_'
'November_'
'Moreover_'
'Bush_'
'wenig_'
'weiterhin_'
'thus_'
'makes_'
'list_'
'industry_'
'besonders_'
'ar_'
'across_'
'above_'
'Man_'
'Lösung_'
'Fraktion_'
'By_'
'wichtig_'
'weit_'
'traditional_'
'likely_'
'ihrem_'
'ie_'
'groups_'
'fall_'
'easy_'
'created_'
'Ziele_'
'Verfügung_'
'Kosten_'
'Investitionen_'
'French_'
'F_'
'programme_'
'oil_'
'found_'
'family_'
'dessen_'
'beispielsweise_'
'Macht_'
'serious_'
'rn_'
'related_'
'proposed_'
'months_'
'lichen_'
'hatten_'
'building_'
'Mittel_'
'transport_'
'nen_'
'macht_'
'keinen_'
'gehen_'
'enden_'
'direkt_'
'Situation_'
'Kommissar_'
'Geschichte_'
'words_'
'verschiedenen_'
'software_'
'schaffen_'
'provided_'
'projects_'
'population_'
'opportunity_'
'near_'
'll_'
'hinaus_'
'forward_'
'directive_'
'besser_'
'Programm_'
'Milliarden_'
'Daten_'
'Bevölkerung_'
'welcome_'
'strategy_'
'nationalen_'
'ihn_'
'changes_'
'ask_'
'allow_'
'Thema_'
'top_'
'questions_'
'les_'
'feel_'
'experience_'
'attention_'
'arbeiten_'
'Some_'
'GDP_'
'Form_'
'reforms_'
'points_'
'online_'
'nichts_'
'nde_'
'ls_'
'halten_'
'gemacht_'
'ben_'
'Russland_'
'Of_'
'21_'
'14_'
'young_'
'user_'
'stand_'
'specific_'
'seen_'
'run_'
'rapporteur_'
'ous_'
'nächsten_'
'light_'
'ierung_'
'freedom_'
'fiscal_'
'Western_'
'Even_'
'Auswirkungen_'
'2010_'
'version_'
'total_'
'times_'
'safety_'
'ren_'
'program_'
'ladies_'
'house_'
'ebenfalls_'
'bedeutet_'
'Treaty_'
'South_'
'Restaurant_'
'Our_'
'Dieses_'
'An_'
'wichtige_'
'true_'
'she_'
'sch_'
'rise_'
'hätte_'
'history_'
'half_'
'eurozone_'
'che_'
'behalf_'
'authorities_'
'achieve_'
'Krieg_'
'Kollegen_'
'Grundlage_'
'. _'
'towards_'
'technology_'
'success_'
'sicher_'
'seems_'
'relations_'
'ische_'
'gute_'
'gilt_'
'ende_'
'employment_'
'either_'
'cultural_'
'adopted_'
'West_'
'Paris_'
'Krise_'
'Ansicht_'
'Alle_'
'19_'
'strong_'
'sollen_'
'schnell_'
'positive_'
'pages_'
'ner_'
'due_'
'deal_'
'bzw_'
'bleibt_'
'Ukraine_'
'sense_'
'remains_'
'nämlich_'
'let_'
'language_'
'km_'
'funds_'
'deutlich_'
'call_'
'amendments_'
'Minister_'
'Institutionen_'
'Ebene_'
'British_'
'April_'
',” _'
'é_'
'à_'
'town_'
'sure_'
'statt_'
'significant_'
'regions_'
'range_'
'parties_'
'internationale_'
'individual_'
'euro_'
'erste_'
'ens_'
'ebenso_'
'days_'
'concerns_'
'company_'
'bekannt_'
'Madam_'
'London_'
'Gemeinschaft_'
'Demokratie_'
'ss_'
'setzen_'
'required_'
'ra_'
'levels_'
'lediglich_'
'jobs_'
'jeder_'
'impact_'
'gab_'
'focus_'
'everything_'
'content_'
'community_'
'cases_'
'art_'
'X_'
'Hotels_'
'Geld_'
'EUR_'
'Da_'
'Asia_'
'zurück_'
'whose_'
'upon_'
'solution_'
'solche_'
'kind_'
'globalen_'
'face_'
'enjoy_'
'currently_'
'consider_'
'competition_'
'Meinung_'
'Indien_'
'Ihr_'
'ting_'
'sen_'
'pay_'
'los_'
'leading_'
'later_'
'inflation_'
'gesagt_'
'fünf_'
'führt_'
'field_'
'address_'
'Schutz_'
'Members_'
'Jahres_'
'Greece_'
'60_'
' . _'
'step_'
'share_'
'restaurant_'
'quite_'
'natürlich_'
'keep_'
'growing_'
'four_'
'former_'
'eren_'
'environmental_'
'concerned_'
'center_'
'balance_'
'actually_'
'Windows_'
'Vereinigten_'
'II_'
'Hilfe_'
'Dieser_'
'ways_'
'values_'
'unserem_'
'understand_'
'thank_'
'son_'
'sea_'
'return_'
'minutes_'
'majority_'
'legislation_'
'indeed_'
'improve_'
'ia_'
'held_'
'genau_'
'game_'
'erreicht_'
'ent_'
'date_'
'bleiben_'
'benefit_'
'accept_'
'War_'
'TV_'
'Haus_'
'Gesellschaft_'
'1999_'
'station_'
'rule_'
'recently_'
'outside_'
'na_'
'importance_'
'appropriate_'
'Zugang_'
'V_'
'Turkey_'
'Menschenrechte_'
'Beziehungen_'
'BIP_'
'text_'
'subject_'
'responsibility_'
'popular_'
'move_'
'meeting_'
'live_'
'fundamental_'
'Italy_'
'ste_'
'spending_'
'scheint_'
'potential_'
'natural_'
'media_'
'involved_'
'five_'
'einigen_'
'daran_'
'clearly_'
'bring_'
'air_'
'Strategie_'
'Rates_'
'Office_'
'Interesse_'
'Ihrer_'
'Erfolg_'
')_'
'"_'
'wide_'
'weltweit_'
'reduce_'
'project_'
'party_'
'obwohl_'
'model_'
'keyword_'
'ive_'
'internal_'
'hard_'
'handelt_'
'developed_'
'deshalb_'
'conflict_'
'car_'
'ca_'
'benefits_'
'Liste_'
'Frankreich_'
'Dienstleistungen_'
'Bezug_'
'Aus_'
'type_'
'thing_'
'sprechen_'
'size_'
'politik_'
'opinion_'
'lot_'
'jeden_'
'ions_'
'increased_'
'huge_'
'hours_'
'hen_'
'heit_'
'heart_'
'gerade_'
'forces_'
'facilities_'
'dürfen_'
'beautiful_'
'addition_'
'Russian_'
'Nähe_'
'Mitglieder_'
'M'
' : _'
'wirtschaftliche_'
'w_'
'tatsächlich_'
'principle_'
'nutzen_'
'ness_'
'ging_'
'exchange_'
'ert_'
'comes_'
'certainly_'
'anti_'
'ability_'
'UK_'
'Präsidenten_'
'Grenzen_'
'13_'
'&_'
'via_'
'verwendet_'
'verhindern_'
'verfügt_'
'pool_'
'person_'
'parts_'
'mean_'
'lange_'
'ig_'
'effective_'
'effect_'
'care_'
'bed_'
'application_'
'amerikanischen_'
'T'
'Kampf_'
'Banken_'
'17_'
'"._'
'tes_'
'response_'
'reach_'
'product_'
'poverty_'
'integration_'
'bereit_'
'bank_'
'administration_'
'Tatsache_'
'Staat_'
'Spain_'
'Party_'
'Middle_'
'La_'
'Berlin_'
'Bemühungen_'
'Bedingungen_'
'B'
'vergangenen_'
'turn_'
'stark_'
'self_'
'rt_'
'provides_'
'ideal_'
'decisions_'
'civil_'
'add_'
'W_'
'Richtung_'
'Park_'
'Government_'
'Deshalb_'
'Bereichen_'
' ( _'
'weiß_'
'simple_'
'prevent_'
'living_'
'igen_'
'idea_'
'doing_'
'decades_'
'ck_'
'check_'
'Vor_'
'Von_'
'More_'
'Debatte_'
'Außerdem_'
' -_'
'wären_'
'v_'
'risks_'
'regulation_'
'oft_'
'klar_'
'erst_'
'directly_'
'direct_'
'computer_'
'besten_'
'ant_'
'along_'
'Verantwortung_'
'Terrorismus_'
'San_'
'Möglichkeiten_'
'Ergebnis_'
'Afghanistan_'
'standard_'
'stability_'
'require_'
'option_'
'meet_'
'job_'
'highly_'
'gemeinsamen_'
'file_'
'features_'
'cy_'
'currency_'
'complete_'
'co_'
'clean_'
'challenges_'
'body_'
'While_'
'Wert_'
'Umsetzung_'
'Tatsächlich_'
'Tag_'
'Gruppe_'
'Fortschritte_'
'December_'
'Aussprache_'
'23_'
'zeigen_'
'wahrscheinlich_'
'terrorism_'
'strategic_'
'space_'
'rest_'
'responsible_'
'nothing_'
'neu_'
'movement_'
'moment_'
'image_'
'gemeinsame_'
'gegeben_'
'domestic_'
'di_'
'develop_'
'dar_'
'contains_'
'capacity_'
'alten_'
'York_'
'Wahl_'
'Schritt_'
'Preis_'
'Hier_'
'“, _'
'tragen_'
'sub_'
'stop_'
'reviews_'
'regime_'
'post_'
'opportunities_'
'nature_'
'ke_'
'del_'
'consequences_'
'complex_'
'commitment_'
'border_'
'My_'
'How_'
'Booking_'
'Abstimmung_'
' ''_'
'   – _'
'zusammen_'
'ur_'
'unser_'
'table_'
'sozialen_'
'similar_'
'road_'
'reasons_'
'perhaps_'
'network_'
'lack_'
'kleinen_'
'heißt_'
'favour_'
'extremely_'
'customers_'
'comfortable_'
'brauchen_'
'Partei_'
'Mal_'
'K_'
'Irak_'
'Aufgabe_'
'500_'
'weiteren_'
'wegen_'
'unterstützt_'
'shown_'
'red_'
'politics_'
'notwendig_'
'liegen_'
'initiative_'
'increasingly_'
'gas_'
'existing_'
'elections_'
'ding_'
'darf_'
'culture_'
'challenge_'
'built_'
'betrifft_'
'below_'
'beach_'
'ary_'
'activities_'
'Yet_'
'Türkei_'
'Punkt_'
'Prozess_'
'National_'
'January_'
'Interessen_'
'Druck_'
'August_'
'Abkommen_'
'80_'
'ziehen_'
'visit_'
'training_'
'ta_'
'protect_'
'performance_'
'night_'
'ma_'
'looking_'
'friendly_'
'effects_'
'came_'
'cal_'
'befinden_'
'became_'
'amount_'
'Zu_'
'Seit_'
'Prozent_'
'Platz_'
'O'
'Initiative_'
'Gewalt_'
'G'
'Eurozone_'
'Ergebnisse_'
'Chinas_'
'Ausschuss_'
'wichtigen_'
'walk_'
'verstehen_'
'try_'
'took_'
'takes_'
'pressure_'
'nie_'
'negotiations_'
'konnte_'
'je_'
'il_'
'größten_'
'gleichzeitig_'
'geführt_'
'essential_'
'einzelnen_'
'design_'
'derzeit_'
'cause_'
'asked_'
'anderer_'
'Software_'
'Presidency_'
'Ort_'
'Ihren_'
'", _'
'�_'
'structural_'
'schließlich_'
'probably_'
'ors_'
'news_'
'lässt_'
'infrastructure_'
'included_'
'glaube_'
'ful_'
'events_'
'entwickelt_'
'election_'
'credit_'
'creating_'
'choice_'
'ally_'
'Website_'
'Verhandlungen_'
'Security_'
'Nationen_'
'H'
'Artikel_'
' ‘_'
'zeit_'
'wohl_'
'violence_'
'vier_'
'verschiedene_'
'unternehmen_'
'threat_'
'successful_'
'soziale_'
'soon_'
'receive_'
'largest_'
'isch_'
'hold_'
'gehört_'
'findet_'
'entwickeln_'
'despite_'
'deficit_'
'card_'
'answer_'
'Z'
'Vorschläge_'
'Version_'
'Verfahren_'
'Verbindung_'
'Regionen_'
'Personen_'
'Pakistan_'
'Markt_'
'Kunden_'
'Enterprise_'
'90_'
'27_'
'sustainable_'
'style_'
'politischer_'
'net_'
'ling_'
'leadership_'
'labor_'
'kaum_'
'gemeinsam_'
'fight_'
'eher_'
'effort_'
'don_'
'context_'
'committee_'
'chinesischen_'
'board_'
'behind_'
'ate_'
'although_'
'alone_'
'advanced_'
'act_'
'according_'
'Zum_'
'Während_'
'Verfassung_'
'V'
'Uhr_'
'North_'
'NATO_'
'May_'
'General_'
'Finally_'
'Entscheidung_'
'City_'
'Blick_'
'22_'
'. - (_'
'Öffentlichkeit_'
'zehn_'
'x'
'werde_'
'week_'
'video_'
'v'
'unique_'
'steps_'
'sound_'
'six_'
'purpose_'
'programs_'
'practice_'
'partner_'
'nor_'
'nice_'
'monetary_'
'mind_'
'massive_'
'lt_'
'lower_'
'limited_'
'leben_'
'internet_'
'industrial_'
'failed_'
'event_'
'distribution_'
'designed_'
'darum_'
'basic_'
'Since_'
'Hinblick_'
'Handel_'
'Hand_'
'Gebiet_'
'Förderung_'
'Court_'
'Bar_'
'Armut_'
'Arab_'
'-, _'
'wichtigsten_'
'toward_'
'started_'
'spielen_'
'rund_'
'rich_'
'reality_'
'previous_'
'places_'
'music_'
'jedes_'
'instead_'
'ings_'
'includes_'
'guests_'
'goods_'
'funding_'
'front_'
'expect_'
'death_'
'consumers_'
'brought_'
'bisher_'
'bad_'
'Zahl_'
'Tage_'
'K'
'Forschung_'
'Bekämpfung_'
'Antwort_'
'Allerdings_'
'Abgeordneten_'
'..." _'
' / _'
'ze_'
'seines_'
'recht_'
'perfect_'
'nahe_'
'matters_'
'ken_'
'jede_'
'implementation_'
'ger_'
'failure_'
'established_'
'erster_'
'decided_'
'cut_'
'cs_'
'average_'
'aktuellen_'
'] _'
'Regeln_'
'Obwohl_'
'Now_'
'Großbritannien_'
'From_'
'Behörden_'
'Anfang_'
'Am_'
'öffentliche_'
'ändern_'
'weapons_'
'quickly_'
'official_'
'negative_'
'lives_'
'i'
'guest_'
'guarantee_'
'gebracht_'
'enthalten_'
'double_'
'damage_'
'consumer_'
'completely_'
'beginning_'
'Reformen_'
'March_'
'June_'
'Berichterstatter_'
'160_'
'zed_'
'weltweiten_'
'produce_'
'principles_'
'objective_'
'note_'
'mentioned_'
'latest_'
'häufig_'
'hätten_'
'helfen_'
'emissions_'
'beyond_'
'base_'
'annual_'
'alternative_'
'agreements_'
'achieved_'
'University_'
'St_'
'Ressourcen_'
'Gelegenheit_'
'Führung_'
'Development_'
'Darüber_'
'Damit_'
'D'
'Amerika_'
'1998_'
'1990_'
' " _'
'trotz_'
'thought_'
'tell_'
'request_'
'presented_'
'please_'
'month_'
'late_'
'ht_'
'generation_'
'final_'
'erforderlich_'
'effectively_'
'concern_'
'con_'
'cher_'
'ces_'
'categories_'
'bus_'
'avoid_'
'ations_'
'X'
'Wort_'
'Today_'
'Schlusselwortern_'
'Reihe_'
'Produkte_'
'Many_'
'Erklärung_'
'E'
'Dialog_'
'Datei_'
'Bildung_'
'Beginn_'
'Barcelona_'
'Amerikas_'
'200_'
'verbunden_'
'union_'
'supported_'
'study_'
'speak_'
'secure_'
'procedure_'
'opposition_'
'mus_'
'hoffe_'
'guten_'
'ground_'
'gar_'
'emerging_'
'einschließlich_'
'digital_'
'd'
'coming_'
'choose_'
'Zentrum_'
'Umwelt_'
'Qualität_'
'Politiker_'
'Nations_'
'Kontrolle_'
'IMF_'
'Here_'
'Gesundheit_'
'Gefahr_'
'Entscheidungen_'
'English_'
'70_'
'zeigt_'
'wobei_'
'voll_'
'unemployment_'
'throughout_'
'technical_'
'stärker_'
'solutions_'
'setting_'
'schaft_'
'rising_'
'programmes_'
'package_'
'p'
'mobile_'
'mal_'
'lost_'
'increasing_'
'hinsichtlich_'
'gleichen_'
'gesamten_'
'gehören_'
'ft_'
'forms_'
'follow_'
'famous_'
'fair_'
'erwarten_'
'entire_'
'enthält_'
'dollar_'
'danken_'
'considered_'
'child_'
'book_'
'banking_'
'aware_'
'allowed_'
'allein_'
'Wann_'
'Schaffung_'
'Rights_'
'Osten_'
'Herren_'
'Funktion_'
'First_'
'Erweiterung_'
'Einsatz_'
'Debian_'
'Daher_'
'übernachten_'
'works_'
'ut_'
'submitted_'
'später_'
'sometimes_'
'situated_'
'richtig_'
'restaurants_'
'reached_'
'mail_'
'len_'
'ker_'
'hinter_'
'ganzen_'
'function_'
'finance_'
'fest_'
'fen_'
'ermöglichen_'
'enable_'
'doubt_'
'closed_'
'cities_'
'cht_'
'charge_'
'caused_'
'campaign_'
'bekommen_'
'agricultural_'
'agenda_'
'actions_'
'Unsere_'
'Such_'
'Spanien_'
'Opfer_'
'Only_'
'Nutzung_'
'Lösungen_'
'Greek_'
'Einfluss_'
'Damen_'
'Dabei_'
'CD_'
'Ansatz_'
'Afrika_'
'äußerst_'
'wrong_'
'web_'
'völlig_'
'verwenden_'
'status_'
'sorgen_'
'shows_'
'served_'
'productivity_'
'privaten_'
'politicians_'
'offered_'
'independent_'
'files_'
'est_'
'einzige_'
'began_'
'aspects_'
'anything_'
'ans_'
'accommodation_'
'Viele_'
'Spiel_'
'Rechte_'
'Putin_'
'Minuten_'
'Korea_'
'Jahrhunderts_'
'Economic_'
'Durch_'
'Dank_'
'DE_'
'Bild_'
'Ausschusses_'
'1791_'
'überhaupt_'
'Änderungsantrag_'
'zudem_'
'voted_'
'treatment_'
'speed_'
'server_'
'send_'
'reduction_'
'promote_'
'plus_'
'original_'
'objectives_'
'nation_'
'n'
'lose_'
'ler_'
'larger_'
'j'
'instruments_'
'ihres_'
'globale_'
'gewährleisten_'
'genug_'
'fishing_'
'external_'
'ermöglicht_'
'enlargement_'
'eigene_'
'ds_'
'demands_'
'consumption_'
'confidence_'
'commercial_'
'build_'
'b'
'Y_'
'Wahlen_'
'W'
'Risiken_'
'Natürlich_'
'Mitglied_'
'Mehrheit_'
'Meer_'
'Integration_'
'Industrie_'
'F'
'Dezember_'
'Dazu_'
'45_'
', '
' % _'
'worked_'
'verfügen_'
'verbessern_'
'ure_'
'tra'
'test_'
'search_'
'scale_'
'requires_'
'received_'
'prepared_'
'plans_'
'paid_'
'ks_'
'konnten_'
'jene_'
'helpful_'
'giving_'
'falls_'
'facing_'
'eben_'
'class_'
'bevor_'
'bestehen_'
'ated_'
'additional_'
'Text_'
'Services_'
'Server_'
'Schulden_'
'S'
'Republic_'
'Palestinian_'
'Märkte_'
'Kingdom_'
'Italian_'
'Gästebewertungen_'
'Furthermore_'
'Frieden_'
'Folgen_'
'Federal_'
'Fed_'
'Familie_'
'CO2_'
'Anwendung_'
'Angesichts_'
'Although_'
'1781_'
'zone_'
'zahlen_'
'won_'
'website_'
'warum_'
'trust_'
'story_'
'stable_'
'setzt_'
'requirements_'
'refugees_'
'read_'
'options_'
'nimmt_'
'minister_'
'lang_'
'item_'
'ine_'
'getting_'
'gestellt_'
'fragen_'
'fear_'
'extra_'
'expected_'
'dadurch_'
'critical_'
'bitte_'
'au_'
'apartment_'
'active_'
'Zudem_'
'Syria_'
'Kraft_'
'Jahrhundert_'
'Israeli_'
'I'
'His_'
'Fund_'
'Europeans_'
'Convention_'
'C'
'Britain_'
'Ausgaben_'
'28_'
'worldwide_'
'wealth_'
'tic_'
'thousands_'
'speech_'
'sign_'
'ses_'
'sectors_'
'sechs_'
'saying_'
'sagte_'
'players_'
'neben_'
'links_'
'legislative_'
'leader_'
'knowledge_'
'jedem_'
'influence_'
'großer_'
'geworden_'
'genommen_'
'efficient_'
'creation_'
'contact_'
'concerning_'
'carried_'
'c'
'braucht_'
'bereich_'
'ber_'
'attack_'
'airport_'
'added_'
'Verbraucher_'
'Programme_'
'Portugal_'
'Kosovo_'
'Information_'
'Dinge_'
'Center_'
'Aufmerksamkeit_'
'Affairs_'
'300_'
'ying_'
'versuchen_'
'team_'
'strengthen_'
'star_'
'raise_'
'quiet_'
'providing_'
'neuer_'
'möglicherweise_'
'lines_'
'kleine_'
'kam_'
'ism_'
'ierte_'
'happen_'
'gt_'
'größte_'
'gleich_'
'gewesen_'
'frei_'
'folgt_'
'fallen_'
'exports_'
'evidence_'
'distance_'
'changed_'
'businesses_'
'borders_'
'angesichts_'
'Zeitpunkt_'
'Wasser_'
'WTO_'
'Verbesserung_'
'Rechts'
'Prime_'
'People_'
'Organisation_'
'Mediterranean_'
'Lisbon_'
'Linux_'
'Linie_'
'L'
'July_'
'Ihrem_'
'Hamas_'
'Fehler_'
'Einführung_'
'DVD_'
'Ausdruck_'
'African_'
'“._'
'ß_'
'zweiten_'
'ves_'
'versucht_'
'tions_'
'supply_'
'stage_'
'source_'
'solidarity_'
'sh_'
'seem_'
'school_'
'safe_'
'relationship_'
'reducing_'
'parking_'
'ngen_'
'nbsp_'
'nations_'
'morning_'
'meinen_'
'map_'
'lle_'
'leicht_'
'leave_'
'join_'
'investors_'
'inter'
'insurance_'
'ideas_'
'hohen_'
'hoch_'
'goal_'
'gesamte_'
'erklären_'
'dangerous_'
'ausgestattet_'
'applications_'
'allows_'
'[_'
'Verwendung_'
'Themen_'
'Tagen_'
'Room_'
'Raum_'
'Not_'
'John_'
'Infrastruktur_'
'Idee_'
'IT_'
'Herausforderung_'
'Given_'
'Frühstück_'
'Flughafen_'
'During_'
'Aktivitäten_'
' ) _'
'Änderungsanträge_'
'   ._'
'   . _'
'zweite_'
'wenige_'
'usually_'
'uses_'
'users_'
'structure_'
'stock_'
'spend_'
'solchen_'
'schützen_'
'reports_'
'recovery_'
'provisions_'
'possibility_'
'organisation_'
'office_'
'nationale_'
'medical_'
'mainly_'
'm'
'justice_'
'ise_'
'innovation_'
'illegal_'
'ier_'
'getan_'
'geschaffen_'
'extent_'
'erklärt_'
'e'
'discussion_'
'direction_'
'connection_'
'concept_'
'communication_'
'bit_'
'anders_'
'Zeiten_'
'Werte_'
'Vertrauen_'
'Unter_'
'Systems_'
'Stunden_'
'Social_'
'So'
'Schließlich_'
'Präsidentin_'
'Please_'
'Oktober_'
'Notwendigkeit_'
'Nahen_'
'Muslim_'
'Latin_'
'Juni_'
'Its_'
'Haushalts'
'H_'
'Gaza_'
'Fällen_'
'Constitution_'
'Arbeitnehmer_'
'Anzahl_'
'29_'
'2011_'
' "..._'
'Änderungen_'
'written_'
'writing_'
'ties_'
'technologies_'
'target_'
'statement_'
'rten_'
'religious_'
'regards_'
'primary_'
'played_'
'mission_'
'material_'
'leisten_'
'joint_'
'immigration_'
'immediately_'
'hohe_'
'gs_'
'gewinnen_'
'fördern_'
'firms_'
'fe_'
'farmers_'
'f'
'everyone_'
'erneut_'
'enter_'
'elements_'
'efficiency_'
'difference_'
'circumstances_'
'buy_'
'bringt_'
'bare_'
'authority_'
'anti'
'activity_'
'Wettbewerb_'
'Web_'
'Vergangenheit_'
'Station_'
'Schritte_'
'Saudi_'
'Parteien_'
'P'
'Nur_'
'Microsoft_'
'Mai_'
'Lissabon_'
'Let_'
'Kultur_'
'J'
'George_'
'ECB_'
'Conference_'
'Club_'
'Chance_'
'Bad_'
'? _'
'4'
'35_'
'win_'
'wichtiger_'
'ver_'
'talk_'
'suggest_'
'students_'
'si_'
'sed_'
'save_'
'round_'
'regarding_'
'produced_'
'path_'
'pass_'
'partners_'
'park_'
'officials_'
'networks_'
'nach'
'mis'
'meinem_'
'lösen_'
'ka_'
'implemented_'
'ien_'
'hotels_'
'historical_'
'genießen_'
'genannten_'
'equal_'
'encourage_'
'degree_'
'darstellt_'
'construction_'
'chance_'
'ch'
'cally_'
'britischen_'
'aufzu'
'attacks_'
'asset_'
'ance_'
'Waffen_'
'Vertrag_'
'Stelle_'
'Status_'
'Spanish_'
'Preise_'
'Person_'
'Mail_'
'Japanese_'
'Herzen_'
'Herausforderungen_'
'Great_'
'Erstens_'
'Design_'
'Centre_'
'Bestimmungen_'
'Article_'
'Anti'
'--_'
', “_'
'). _'
'“_'
'zumindest_'
'wanted_'
'variety_'
'treffen_'
'transfer_'
'train_'
'somit_'
'sieht_'
'shared_'
'section_'
'scientific_'
'regulations_'
'priority_'
'priorities_'
'powerful_'
'phone_'
'mit'
'minute_'
'message_'
'ments_'
'loss_'
'kurz_'
'ige_'
'hoch'
'head_'
'handeln_'
'h'
'größere_'
'gi'
'financing_'
'erte_'
'equipped_'
'equipment_'
'durchgeführt_'
'dialogue_'
'denke_'
'committed_'
'außer_'
'apply_'
'aim_'
'agreed_'
'Westen_'
'Vorteile_'
'Technologien_'
'Tat_'
'Soviet_'
'She_'
'Ra'
'Position_'
'Nutzen_'
'März_'
'Just_'
'Juli_'
'Islamic_'
'Ireland_'
'Griechenland_'
'Grand_'
'Finanzierung_'
'Directive_'
'Clinton_'
'Bitte_'
'Auffassung_'
'Asien_'
'Anstieg_'
'According_'
': '
'31_'
'zen_'
'word_'
'wants_'
'vor'
'vermeiden_'
'ue_'
'types_'
'treten_'
'travel_'
'transparent_'
'tor_'
'te'
'task_'
'ster_'
'ssen_'
'schwierig_'
'rural_'
'property_'
'professional_'
'precisely_'
'practical_'
'powers_'
'par'
'operations_'
'ning_'
'method_'
'meines_'
'mein_'
'mehrere_'
'maintain_'
'las_'
'improving_'
'gezeigt_'
'geschlossen_'
'feature_'
'express_'
'establish_'
'entspricht_'
'easily_'
'drive_'
'diejenigen_'
'developments_'
'core_'
'code_'
'bar'
'aufgenommen_'
'attempt_'
'angenommen_'
'analysis_'
'Zweitens_'
'Währung_'
'Washington_'
'Vielfalt_'
'Umgebung_'
'Street_'
'Star_'
'Site_'
'Selbst_'
'Schwierigkeiten_'
'Personal_'
'PC_'
'Management_'
'Ko'
'Italien_'
'Inflation_'
'Guest_'
'Geschäfts'
'Freiheit_'
'Energie_'
'EN_'
'Co'
'Auswahl_'
': "_'
'2015_'
'1997_'
'* _'
' [_'
'übernehmen_'
'Änderung_'
'® _'
'zahlreiche_'
'white_'
'weisen_'
'weder_'
'tabled_'
'res_'
'record_'
'procedures_'
'pleased_'
'participation_'
'ones_'
'nder_'
'modified_'
'moderne_'
'lichkeit_'
'ität_'
'ismus_'
'island_'
'instrument_'
'insgesamt_'
'impossible_'
'historischen_'
'hands_'
'freien_'
'expensive_'
'erzielt_'
'erwartet_'
'draft_'
'demokratischen_'
'decline_'
'comprehensive_'
'carry_'
'carbon_'
'bestimmten_'
'beide_'
'becoming_'
'ar'
'ang_'
'ad_'
'Veränderungen_'
'Vereinten_'
'Therefore_'
'Solidarität_'
'Sea_'
'Punkte_'
'Poland_'
'Plan_'
'Lebens'
'Küche_'
'IWF_'
'Heute_'
'Haupt'
'Gruppen_'
'Forum_'
'Do_'
'Bereiche_'
'Augen_'
'Amsterdam_'
'Americans_'
'%._'
'zunächst_'
'zentrale_'
'z'
'worth_'
'votes_'
'vision_'
'ums_'
'turned_'
'trading_'
'starting_'
'sites_'
'reserves_'
'reflect_'
'reference_'
'ps_'
'press_'
'presidential_'
'pre_'
'pe_'
'ory_'
'opening_'
'numerous_'
'normal_'
'nce_'
'maßnahmen_'
'linked_'
'keiten_'
'kannst_'
'k'
'gesetzt_'
'export_'
'enen_'
'ell_'
'do'
'deutschen_'
'details_'
'deine_'
'corporate_'
'benötigen_'
'begann_'
'appear_'
'amerikanische_'
'ale_'
'akzeptieren_'
'affected_'
'adopt_'
'Woche_'
'Verordnung_'
'Unabhängigkeit_'
'Technologie_'
'Te'
'Tagesordnung_'
'Secondly_'
'Rooms_'
'Revolution_'
'Reform_'
'October_'
'Nachfrage_'
'Most_'
'Markt'
'Le_'
'High_'
'Folge_'
'England_'
'El_'
'EZB_'
'Barack_'
'Also_'
'A'
'.)_'
'zusätzliche_'
'worse_'
'wer_'
'walking_'
'voting_'
'um'
'ton_'
'told_'
'tischen_'
'taxes_'
'suchen_'
'stets_'
'seek_'
'screen_'
'scher_'
'running_'
'review_'
'representatives_'
'relevant_'
'relativ_'
'quote_'
'president_'
'plant_'
'planet_'
'parliamentary_'
'medium_'
'managed_'
'licher_'
'ley_'
'leider_'
'introduced_'
'ice_'
'hält_'
'hour_'
'holiday_'
'heard_'
'got_'
'gives_'
'gefunden_'
'folgen_'
'erkennen_'
'easier_'
'durchaus_'
'described_'
'deep_'
'decade_'
'daily_'
'conference_'
'competitiveness_'
'colleagues_'
'beitragen_'
'begin_'
'becomes_'
'atmosphere_'
'aimed_'
'Wirtschafts'
'Steuer'
'Stabilität_'
'Sozial'
'Sektor_'
'Restaurants_'
'Nicht_'
'Neu'
'Museum_'
'Konferenz_'
'Human_'
'He'
'Haltung_'
'Global_'
'Free_'
'Forschungs'
'Diskussion_'
'Code_'
'Berichte_'
'Beitrag_'
'Because_'
'Airport_'
'., _'
'. '
''' _'
'ys_'
'unten_'
'trying_'
'territory_'
'summer_'
'smaller_'
'sing_'
'sides_'
'shopping_'
'ship_'
'series_'
'saw_'
'reichen_'
'police_'
'paar_'
'offen_'
'legen_'
'kosten_'
'ju'
'jeweiligen_'
'investments_'
'increases_'
'improved_'
'il'
'green_'
'gekommen_'
'floor_'
'erfüllen_'
'erfolgreich_'
'elsewhere_'
'eindeutig_'
'draw_'
'documents_'
'disease_'
'corruption_'
'continent_'
'consensus_'
'congratulate_'
'bathroom_'
'außerhalb_'
'associated_'
'assets_'
'appears_'
'advantage_'
'Why_'
'Vor'
'Vo'
'Unterkategorien_'
'Syrien_'
'Sicht_'
'Resort_'
'Reserve_'
'R'
'Pro'
'Policy_'
'Per'
'NEW_'
'N'
'Mexico_'
'Maße_'
'Kommissarin_'
'Google_'
'Einigung_'
'Du'
'Da'
'Austria_'
'Am'
'Al_'
'Ad'
'3'
'26_'
'2013_'
'2'
'zunehmend_'
'zuletzt_'
'zation_'
'wing_'
'wesentlich_'
'weise_'
'warm_'
'vorgeschlagen_'
'vital_'
'verfolgen_'
'vast_'
'useful_'
'tools_'
'terrorist_'
't'
'sales_'
'rung_'
'ring_'
'regionale_'
'refer_'
'presence_'
'po'
'per'
'paper_'
'overall_'
'org_'
'ons'
'offering_'
'oben_'
'modernen_'
'letzte_'
'learn_'
'lag_'
'inzwischen_'
'initiatives_'
'ial_'
'historic_'
'haus_'
'greatest_'
'goes_'
'gelangen_'
'ganze_'
'gain_'
'g'
'friends_'
'fahren_'
'document_'
'district_'
'dagegen_'
'crucial_'
'controls_'
'contribution_'
'contrary_'
'compromise_'
'competitive_'
'boost_'
'bewusst_'
'assessment_'
'apartments_'
'agriculture_'
'addressed_'
'ably_'
'Weltwirtschaft_'
'Unser_'
'Trade_'
'Team_'
'Standards_'
'Spa_'
'RE'
'Natur_'
'Land'
'Kredit'
'Kolleginnen_'
'Kindern_'
'Innovation_'
'Höhe_'
'Hälfte_'
'Golf_'
'Egypt_'
'Den_'
'Dateien_'
'Costa_'
'Bra'
'Bewegung_'
'Besuch_'
'Beschäftigung_'
'Angebot_'
'A5_'
'9'
'.  _'
'überzeugt_'
'ßen_'
'www_'
'tis'
'thinking_'
'targets_'
'stimmen_'
'sse_'
'specifically_'
'so'
'seeking_'
'reading_'
'rapidly_'
'pursue_'
'prime_'
'politisch_'
'otherwise_'
'nächste_'
'nis_'
'ni_'
'nachdem_'
'muß_'
'moral_'
'minimum_'
'mass_'
'log_'
'limits_'
'laws_'
'largely_'
'ja'
'ite_'
'innen_'
'ierten_'
'ied_'
'ical_'
'hören_'
'hin'
'hear_'
'glauben_'
'games_'
'freie_'
'forced_'
'finally_'
'families_'
'eventually_'
'era_'
'entweder_'
'entsprechenden_'
'endlich_'
'eigentlich_'
'dürfte_'
'derartige_'
'darstellen_'
'connected_'
'conclusion_'
'calling_'
'box_'
'bezüglich_'
'betrachtet_'
'bald_'
'außerdem_'
'applied_'
'amendment_'
']], _'
'Welt'
'Versuch_'
'Urlaub_'
'USS_'
'Sorge_'
'Sicherheits'
'Rück'
'Public_'
'Projekt_'
'Pa'
'Lu'
'Le'
'Januar_'
'J_'
'Is_'
'Inter'
'Installation_'
'IS'
'Health_'
'Gründen_'
'Globalisierung_'
'Generation_'
'Gegensatz_'
'Einige_'
'Benutzer_'
'Beitritt_'
'Amendment_'
': „_'
'32_'
'1980_'
'и'
'zufolge_'
'za'
'wiederum_'
'weeks_'
'verbundenen_'
'ultimately_'
'tz_'
'tu'
'transition_'
'to'
'signed_'
'serve_'
'ser_'
'separate_'
'sent_'
'sanctions_'
'respond_'
'resolve_'
'released_'
'release_'
'relation_'
'reduced_'
'raum_'
'profitieren_'
'port_'
'planning_'
'phase_'
'payments_'
'owing_'
'monitoring_'
'models_'
'migration_'
'mag_'
'lies_'
'interesting_'
'immediate_'
'icht_'
'host_'
'holding_'
'hit_'
'helped_'
'globalization_'
'ger'
'genuine_'
'gen'
'fuel_'
'französischen_'
'followed_'
'finanzielle_'
'film_'
'expression_'
'expressed_'
'establishing_'
'erung_'
'erhöhen_'
'einiger_'
'economics_'
'dra'
'determined_'
'cross_'
'clients_'
'chinesische_'
'buffet_'
'aktuelle_'
'Wochen_'
'Wirtschaftswachstum_'
'Warum_'
'Vorschriften_'
'Vielleicht_'
'Tu'
'Strand_'
'Sache_'
'Regierungs'
'Red_'
'Präsidentschaft_'
'Prodi_'
'Partner_'
'Nun_'
'Musik_'
'Leute_'
'Konzept_'
'Konflikt_'
'Justice_'
'Instead_'
'Ger'
'Financial_'
'Erfahrung_'
'Brazil_'
'Bedrohung_'
'Arbeitslosigkeit_'
'Angelegenheiten_'
'75_'
'400_'
'2012_'
'150_'
'... _'
'%, _'
'„_'
'Ä'
'went_'
'wa'
've'
'urban_'
'une_'
'unbedingt_'
'tro'
'tool_'
'thereby_'
'struggle_'
'societies_'
'science_'
'sa_'
'ready_'
'rapid_'
'perspective_'
'output_'
'operating_'
'no'
'nearly_'
'namely_'
'multi_'
'moving_'
'mittel_'
'menu_'
'mention_'
'lo_'
'jüngsten_'
'interested_'
'innovative_'
'highest_'
'hi'
'gs'
'größeren_'
'grounds_'
'governance_'
'gelten_'
'fixed_'
'exclusive_'
'estimated_'
'entsprechende_'
'else_'
'ei_'
'dringend_'
'download_'
'discussed_'
'difficulties_'
'default_'
'criticism_'
'color_'
'ck'
'che'
'candidate_'
'camera_'
'broad_'
'beste_'
'bessere_'
'behavior_'
'begrüßen_'
'barkeit_'
'assistance_'
'army_'
'approved_'
'announced_'
'ahead_'
'achten_'
'Zustimmung_'
'Wohn'
'Wohlstand_'
'Unfortunately_'
'Umwelt'
'Turkish_'
'Tri'
'Su'
'San'
'Saddam_'
'Royal_'
'Risiko_'
'Produktion_'
'No'
'Monaten_'
'Mo'
'Mer'
'Meine_'
'Irland_'
'Initiativen_'
'Informations'
'Grund'
'Gesamt'
'Gegenteil_'
'Friedens'
'Einkommen_'
'Despite_'
'Bis_'
'Behandlung_'
'Atom'
'Anteil_'
'Anstrengungen_'
'Annahme_'
'.._'
'.'
'+_'
'" (_'
'wählen_'
'wo'
'wider_'
'whom_'
'wert_'
'welfare_'
'weg_'
'verlassen_'
'verantwortlich_'
'tung_'
'ts'
'treated_'
'track_'
'television_'
'summit_'
'spirit_'
'speaking_'
'slow_'
'skills_'
'sitting_'
'saving_'
'raised_'
'post'
'ng'
'ming_'
'middle_'
'merely_'
'lernen_'
'kaufen_'
'ium_'
'isierung_'
'introduce_'
'intended_'
'integrated_'
'inequality_'
'industries_'
'industrie_'
'helping_'
'heiten_'
'halte_'
'großes_'
'generally_'
'gelegen_'
'gave_'
'führte_'
'fund_'
'flight_'
'fields_'
'extreme_'
'exist_'
'evening_'
'entwickelten_'
'einander_'
'cover_'
'continued_'
'comfort_'
'click_'
'claims_'
'break_'
'bilden_'
'biggest_'
'back'
'as'
'anderem_'
'accession_'
'Zunächst_'
'Win'
'Video_'
'Vereinbarung_'
'U'
'Transparenz_'
'Sterne_'
'See'
'Secretary_'
'Se'
'Robert_'
'Online_'
'Nice_'
'Nachdem_'
'Ist_'
'In'
'Home_'
'Gäste_'
'Erfahrungen_'
'Entschließung_'
'Ent'
'El'
'Eindruck_'
'Ebenso_'
'Do'
'Depression_'
'Christian_'
'Bundes'
'Bilder_'
'Bank'
'Arbeits'
'36_'
'1996_'
')'
' -, _'
'—_'
'ı'
'Öl'
'zo'
'ys'
'victims_'
'veröffentlicht_'
'unbe'
'uf'
'trägt_'
'tried_'
'tomorrow_'
'thanks_'
'ter'
'suffering_'
'su'
'strategies_'
'staatliche_'
'sierung_'
'regionalen_'
'reception_'
'purchase_'
'prosperity_'
'programm_'
'primarily_'
'pre'
'permanent_'
'parents_'
'outcome_'
'obvious_'
'nts_'
'morgen_'
'met_'
'mark_'
'manage_'
'loans_'
'listed_'
'laid_'
'laden_'
'individuals_'
'independence_'
'ier'
'höher_'
'hundreds_'
'himself_'
'granted_'
'gold_'
'gleiche_'
'gesehen_'
'fordern_'
'fellow_'
'extension_'
'europäischer_'
'eu'
'ess_'
'erlaubt_'
'ere_'
'entstehen_'
'enormous_'
'ence_'
'emphasis_'
'el'
'eingesetzt_'
'dollars_'
'divided_'
'display_'
'danach_'
'cutting_'
'criteria_'
'constitutional_'
'conflicts_'
'comments_'
'collapse_'
'closely_'
'benutzt_'
'begrüße_'
'bear_'
'baren_'
'arms_'
'ard_'
'absolutely_'
'Zentralbank_'
'Wer_'
'Wasser'
'Volkswirtschaften_'
'Vertreter_'
'Trotz_'
'Tra'
'Thus_'
'Strategien_'
'Stimme_'
'Steuern_'
'Standard_'
'Square_'
'Sinne_'
'Produktions'
'NA'
'Monat_'
'Mitgliedschaft_'
'Methode_'
'Me'
'Krankheiten_'
'Ju'
'Islam_'
'Insel_'
'Industrie'
'Homepage_'
'Hinsicht_'
'Falle_'
'Erachtens_'
'Einrichtungen_'
'Einrichtung_'
'Ca'
'Business_'
'Breakfast_'
'Arbeitsplätze_'
'Another_'
'Air_'
'5'
'39_'
'195'
'. (_'
', "_'
'überall_'
'är'
'­_'
'za_'
'wollte_'
'willing_'
'werk_'
'waste_'
'w'
'verloren_'
'us'
'understanding_'
'technological_'
'swimming_'
'suggests_'
'sufficient_'
'street_'
'staatlichen_'
'sm_'
'sho'
'shift_'
'ser'
'seien_'
'schwer_'
'schließen_'
'root_'
'richtige_'
'rer_'
'relatively_'
'relating_'
'relate_'
'rd_'
'qua'
'practices_'
'pour_'
'placed_'
'persönlichen_'
'ourselves_'
'ort_'
'operation_'
'olitik_'
'möglichen_'
'musste_'
'millions_'
'mid_'
'measure_'
'lo'
'lis'
'institutional_'
'ichen_'
'har'
'happy_'
'happened_'
'gern_'
'funktioniert_'
'fort'
'formal_'
'flexible_'
'fish_'
'fine_'
'ff'
'fand_'
'fail_'
'erhöht_'
'erfordert_'
'enormen_'
'elected_'
'earlier_'
'dly_'
'directives_'
'deutsche_'
'dennoch_'
'deliver_'
'contain_'
'conclude_'
'compared_'
'coffee_'
'co'
'ci'
'ches_'
'charged_'
'character_'
'changing_'
'cation_'
'bonds_'
'bly_'
'betrachten_'
'besondere_'
'balanced_'
'automatisch_'
'animals_'
'actual_'
'Zweifel_'
'Zentralbanken_'
'Vorteil_'
'Volk_'
'Then_'
'Stärkung_'
'Sorgen_'
'Sonder'
'Schul'
'Ro'
'Republik_'
'Privat'
'Pe'
'Or'
'Netherlands_'
'Nachbarn_'
'MySQL_'
'Monetary_'
'Mitte_'
'Medien_'
'Macht'
'Lo'
'Liberalisierung_'
'Landwirtschaft_'
'Ku'
'Klicken_'
'Irish_'
'Instrument_'
'IP_'
'ID_'
'Hoffnung_'
'Groß'
'Euro'
'Entwicklungsländer_'
'Eastern_'
'Dr_'
'Democrats_'
'Bu'
'Basis_'
'Barroso_'
'Aspekt_'
'Angriff_'
'1995_'
'1989_'
'01_'
'0'
'а'
'äre_'
'Über'
'wor'
'war'
'vorhanden_'
'van_'
'va_'
'unto_'
'unterschiedlichen_'
'unless_'
'tät_'
'transparency_'
'theory_'
'supports_'
'supporting_'
'stress_'
'stated_'
'significantly_'
'sicherzustellen_'
'schneller_'
'says_'
'revenue_'
'resulting_'
'published_'
'provision_'
'protected_'
'processes_'
'presidency_'
'player_'
'ping_'
'oral_'
'numbers_'
'neues_'
'named_'
'membership_'
'lung_'
'looks_'
'll'
'liberal_'
'lesen_'
'leads_'
'laufen_'
'latter_'
'lagen_'
'kennen_'
'j_'
'io_'
'introduction_'
'identity_'
'hol'
'guidelines_'
'griechischen_'
'gleich'
'format_'
'folgenden_'
'flexibility_'
'fire_'
'finanziellen_'
'factors_'
'extended_'
'expectations_'
'examples_'
'exactly_'
'email_'
'ef'
'dynamic_'
'disc'
'der'
'denken_'
'delegation_'
'decide_'
'criminal_'
'crime_'
'courses_'
'collective_'
'bi'
'berücksichtigt_'
'ben'
'bars_'
'ba'
'article_'
'ank'
'anderes_'
'and'
'agencies_'
'absolute_'
'Your_'
'Währungs'
'Wettbewerbsfähigkeit_'
'Vergleich_'
'Unternehmens'
'Teilen_'
'Spieler_'
'Rezession_'
'Regel_'
'Realität_'
'RI'
'Post'
'Po'
'Open_'
'Nachfolgend_'
'Na'
'NE'
'Modell_'
'Mitteilung_'
'Militär'
'Michael_'
'Mi'
'Mat'
'Mal'
'Konflikte_'
'Ja'
'Her'
'Handels'
'Han'
'Gesundheits'
'Firmen_'
'Film_'
'Fe'
'Emissionen_'
'EADS_'
'Dar'
'Congress_'
'Che'
'CA'
'Bürgern_'
'Bio'
'Best_'
'Ausland_'
'Ar'
'Apartments_'
'Abschluss_'
'AIDS_'
'8'
'13'
' –, _'
' = _'
' ... _'
'с'
'ée_'
'yourself_'
'wirtschaftlicher_'
'voters_'
'vo'
'victory_'
'vertreten_'
'verringern_'
'verpflichtet_'
'vehicles_'
'unge'
'unde'
'u'
'truly_'
'tive_'
'tionen_'
'tests_'
'tasks_'
'sun_'
'substantial_'
'starken_'
'standing_'
'st'
'ss'
'spread_'
'species_'
'southern_'
'sources_'
'someone_'
'ski_'
'signal_'
'shops_'
'seven_'
'seriously_'
'selection_'
'selbstverständlich_'
'russischen_'
'restrictions_'
'relative_'
'reaching_'
'rea'
'promoting_'
'profit_'
'physical_'
'partly_'
'occur_'
'ob'
'nte_'
'nis'
'nationaler_'
'militärische_'
'meaning_'
'materials_'
'maintained_'
'länger_'
'llen_'
'link_'
'limit_'
'leaving_'
'launched_'
'launch_'
'languages_'
'langfristige_'
'l'
'komplett_'
'ked_'
'kan'
'jo'
'jener_'
'implement_'
'geändert_'
'gerecht_'
'garden_'
'gar'
'exercise_'
'euch_'
'ets_'
'et'
'entscheiden_'
'ein'
'duty_'
'dir_'
'detailed_'
'database_'
'danger_'
'cuts_'
'contrast_'
'contract_'
'contemporary_'
'combination_'
'closer_'
'claim_'
'cha'
'causes_'
'calls_'
'burden_'
'born_'
'bodies_'
'bestimmte_'
'bestand_'
'benutzen_'
'behandelt_'
'aus'
'anyone_'
'angeht_'
'alt'
'allowing_'
'ages_'
'acht_'
'accounts_'
'accepted_'
'absence_'
'Wähler_'
'Worte_'
'Wein'
'Verhältnis_'
'Time_'
'Stadt'
'Sehr_'
'Sehenswürdigkeiten_'
'Rotary_'
'RA'
'Projekte_'
'Prioritäten_'
'Polen_'
'Pi'
'Perhaps_'
'NI_'
'Leistung_'
'Last_'
'Kombination_'
'Kas'
'Jo'
'III_'
'HIV_'
'God_'
'Gebieten_'
'Foreign_'
'Forderung_'
'Ereignisse_'
'Entwicklungsländern_'
'Dennoch_'
'Beschreibung_'
'Bas'
'Aufgrund_'
'Aufbau_'
'Argentina_'
'Anfrage_'
'Amerikaner_'
'Alliance_'
'Agreement_'
'AT'
'AR'
'95_'
''._'
'т'
'ó'
'äu'
'ät_'
'ären_'
'Ökonomen_'
'zurückge'
'zimmer_'
'zero_'
'zeit'
'wrote_'
'write_'
'wodurch_'
'westlichen_'
'weiterer_'
'weg'
'vollständig_'
'voice_'
'ving_'
'up'
'unlikely_'
'ungs'
'umfassende_'
'ual_'
'traffic_'
'ten'
'survive_'
'surrounding_'
'supposed_'
'super'
'sts_'
'spent_'
'sis_'
'signs_'
'riesigen_'
'resort_'
'represents_'
'represent_'
'raising_'
'putting_'
'prüfen_'
'prospects_'
'promotion_'
'producers_'
'picture_'
'nes_'
'motion_'
'läuft_'
'lu'
'king_'
'ke'
'iti'
'ionen_'
'implementing_'
'ian_'
'housing_'
'historische_'
'hardly_'
'grundlegende_'
'gone_'
'goals_'
'gli'
'gestimmt_'
'geschehen_'
'gemäß_'
'führenden_'
'fähigkeit_'
'functions_'
'founded_'
'focused_'
'feststellen_'
'faces_'
'faced_'
'extensive_'
'except_'
'establishment_'
'erhält_'
'erfolgen_'
'entsprechend_'
'enterprises_'
'ensuring_'
'ene_'
'ehemaligen_'
'echte_'
'du'
'discussions_'
'differences_'
'di'
'desire_'
'deeply_'
'darunter_'
'da'
'conventional_'
'continues_'
'constitution_'
'completed_'
'communities_'
'cat'
'cast_'
'bottom_'
'ber'
'beginnen_'
'ban_'
'aufzunehmen_'
'auf'
'asking_'
'arrangements_'
'angezeigt_'
'ad'
'Y'
'Wohl'
'Wege_'
'Wahl'
'Voraussetzungen_'
'Verhalten_'
'Unter'
'UNO_'
'Transport_'
'THE_'
'Straße_'
'Ste'
'Standpunkt_'
'Si'
'Schulden'
'SA'
'Regime_'
'Re'
'Pre'
'Option_'
'Old_'
'Oder_'
'Neben_'
'Mit'
'MI'
'Kunst_'
'Kompromiss_'
'Kar'
'Kapital_'
'James_'
'Hu'
'Hong_'
'Gold_'
'Gebäude_'
'Fähigkeit_'
'Foundation_'
'Familien_'
'Every_'
'Erholung_'
'Ei'
'Denn_'
'Chi'
'Brasilien_'
'Beispiele_'
'Bau'
'Ba'
'Assad_'
'Aspekte_'
'Asian_'
'Arten_'
'33_'
'30'
'1'
','
' /_'
'о'
'über'
'ón_'
'á_'
'ß'
'Über_'
'Öl_'
'  _'
'zusätzlich_'
'zurück'
'ya_'
'window_'
'widely_'
'wichtigste_'
'whatever_'
'verlieren_'
'vergessen_'
'unver'
'unable_'
'umfassenden_'
'ub'
'treaty_'
'tradition_'
'terrace_'
'stärken_'
'studies_'
'stone_'
'spacious_'
'spa'
'sovereign_'
'sort_'
'shower_'
'ships_'
'select_'
'seitens_'
'sa'
'ru'
'recognize_'
'rasch_'
'r'
'producing_'
'pp'
'policymakers_'
'platz_'
'peaceful_'
'participate_'
'ordnung_'
'opposed_'
'on'
'ok_'
'offensichtlich_'
'north_'
'nisse_'
'niemand_'
'niemals_'
'neither_'
'ne'
'mussten_'
'ms_'
'militärischen_'
'maximum_'
'mar'
'machine_'
'losses_'
'lokale_'
'letztlich_'
'lessons_'
'le'
'ld_'
'langen_'
'labour_'
'jährlich_'
'ji'
'ing'
'improvements_'
'improvement_'
'iger_'
'ierungs'
'höhere_'
'hundred_'
'household_'
'he'
'gezwungen_'
'getroffen_'
'gesprochen_'
'gefallen_'
'gap_'
'flows_'
'fisheries_'
'firm_'
'figures_'
'fe'
'faster_'
'eye_'
'extend_'
'erten_'
'ersch'
'ern'
'equally_'
'ep'
'entschieden_'
'entry_'
'enk'
'element_'
'elegant_'
'eight_'
'discuss_'
'demokratische_'
'deaths_'
'dealing_'
'daten_'
'dank_'
'cuisine_'
'contracts_'
'considerable_'
'compatible_'
'coal_'
'charges_'
'cas'
'car'
'britische_'
'books_'
'bestimmt_'
'beschlossen_'
'beds_'
'außerordentlich_'
'automatically_'
'aten_'
'air'
'accordance_'
']] [[_'
'Zur_'
'Ziel'
'Verwaltungs'
'Verwaltung_'
'Verpflichtung_'
'Un'
'Umständen_'
'Tre'
'Tod_'
'Teile_'
'Systeme_'
'Staats'
'Sprache_'
'Sieg_'
'See_'
'Sarkozy_'
'Q_'
'Organisationen_'
'Name_'
'Männer_'
'Mar'
'Leistungen_'
'LE'
'Kyoto_'
'Kong_'
'Jetzt_'
'Indian_'
'Haushalt_'
'Gro'
'Grenze_'
'Gra'
'Frankfurt_'
'Flug'
'Fahr'
'Entwicklungs'
'Drittens_'
'De_'
'David_'
'Copenhagen_'
'Click_'
'Bus'
'Bre'
'Both_'
'Board_'
'Berichts_'
'Ban'
'Angst_'
'Anforderungen_'
'Agenda_'
'48_'
'25'
'2014_'
'', _'
' -- _'
'ö'
'ätzen_'
'Übereinstimmung_'
'zahlreichen_'
'wirtschaft_'
'wenigen_'
'weak_'
'warming_'
'wall_'
'wages_'
'vieler_'
'verstärkt_'
'verfahren_'
'usw_'
'ur'
'und'
'täglich_'
'tä'
'tz'
'turning_'
'translation_'
'touch_'
'ti_'
'ti'
'the'
'th'
'talking_'
'stands_'
'smoking_'
'sion_'
'siehe_'
'schlagen_'
'scheme_'
's'
'ringen_'
'reservation_'
'ren'
'punkt_'
'proved_'
'por_'
'piece_'
'photos_'
'partnership_'
'para_'
'opened_'
'omi'
'older_'
'nennen_'
'ned_'
'nachhaltige_'
'methods_'
'memory_'
'mehreren_'
'manchmal_'
'machte_'
'ln_'
'legt_'
'learning_'
'konzentrieren_'
'kle'
'ker'
'keinerlei_'
'itu'
'intervention_'
'internationaler_'
'installation_'
'ins'
'initial_'
'id_'
'hot_'
'hauptsächlich_'
'gerne_'
'garantiert_'
'ft'
'französische_'
'fle'
'felt_'
'father_'
'est'
'ens'
'ended_'
'employees_'
'ea'
'drugs_'
'driving_'
'destruction_'
'defined_'
'defense_'
'debates_'
'damals_'
'counter_'
'communications_'
'commitments_'
'combating_'
'combat_'
'bt_'
'benötigt_'
'bei'
'beachten_'
'bath_'
'auszu'
'ausdrücklich_'
'au'
'at'
'anzu'
'animal_'
'Zeit'
'Za'
'Vietnam_'
'Vielzahl_'
'Um'
'Tro'
'Times_'
'Tal'
'Ta'
'TA'
'Strom'
'Stand_'
'Sta'
'Sinn_'
'Shi'
'Schlüssel'
'Santa_'
'Roman_'
'Rezeption_'
'Regierungschefs_'
'Rede_'
'Reaktion_'
'Private_'
'PT_'
'PHP_'
'Other_'
'Mont'
'Mexiko_'
'Mag'
'Located_'
'Live_'
'Las_'
'Kritik_'
'Kinder'
'Jahres'
'Inseln_'
'Hotel'
'Hoch'
'Hause_'
'Handels_'
'Grad_'
'Gleichzeitig_'
'Gi'
'Gesellschaften_'
'Gerichts'
'Finanz'
'February_'
'Falls_'
'Fach'
'Erde_'
'Du_'
'Dra'
'Deutsche_'
'Dann_'
'DI'
'Ce'
'Bild'
'Ber'
'Aufenthalt_'
'Anerkennung_'
'Andere_'
'Altstadt_'
'Alternative_'
'Abend_'
'64_'
'10'
'és_'
'è'
'ähnliche_'
'Überwachung_'
'wind_'
'widespread_'
'welches_'
'verlangt_'
'urgent_'
'ures_'
'unternommen_'
'unseres_'
'uner'
'umzusetzen_'
'umgesetzt_'
'truth_'
'trouble_'
'trends_'
'tourist_'
'tische_'
'threats_'
'ständig_'
'strategischen_'
'stimulus_'
'stations_'
'sta'
'sovereignty_'
'sought_'
'solcher_'
'sieben_'
'sicherlich_'
'season_'
'scope_'
'sal'
'rt'
'roughly_'
'ries_'
'rest'
'responsibilities_'
'relaxing_'
'relax_'
'regulatory_'
'referred_'
'ref'
'reasonable_'
'proper_'
'print_'
'pon'
'pictures_'
'pi'
'phrase_'
'photo_'
'persons_'
'over'
'ou'
'organizations_'
'organisations_'
'oren_'
'ongoing_'
'oa'
'nu'
'nt'
'nge_'
'mountain_'
'mode_'
'mi'
'meetings_'
'mechanism_'
'markt_'
'manner_'
'länder_'
'lp'
'len'
'ld'
'kürzlich_'
'kt'
'kitchen_'
'ka'
'je'
'ition_'
'ish_'
'ir_'
'ig'
'ide_'
'hy'
'humanitarian_'
'ht'
'hrt_'
'honourable_'
'heutigen_'
'her'
'happens_'
'guter_'
'go'
'gezogen_'
'geschützt_'
'ges_'
'gains_'
'früher_'
'fla'
'fighting_'
'ff_'
'fer'
'experts_'
'estate_'
'erscheint_'
'erk'
'entered_'
'ele'
'einzigen_'
'einge'
'ei'
'distributed_'
'disa'
'dinner_'
'dia'
'declared_'
'cycle_'
'crises_'
'cing_'
'cho'
'cheap_'
'buildings_'
'brings_'
'bra'
'bound_'
'block_'
'beziehen_'
'betreffen_'
'bestehenden_'
'besseren_'
'berücksichtigen_'
'berg_'
'believed_'
'bedarf_'
'ausschließlich_'
'argue_'
'ana'
'alte_'
'alliance_'
'ale'
'aims_'
'achieving_'
'a'
'Zweck_'
'YORK_'
'Worten_'
'Without_'
'Wissen_'
'West'
'Wegen_'
'Unterschied_'
'Trump_'
'Treffen_'
'Those_'
'Suche_'
'Stimmen_'
'Sol'
'She'
'Seine_'
'Sand'
'SI'
'Rome_'
'Richtlinien_'
'Rest_'
'Report_'
'Regulation_'
'Rechtsvorschriften_'
'Prä'
'Phase_'
'Pan'
'Norden_'
'Miss'
'Merkel_'
'Mas'
'Mann_'
'MA'
'Leider_'
'Kultur'
'Kriegs'
'Klimawandel_'
'Klein'
'King_'
'Karte_'
'Inhalt_'
'Hand'
'HA'
'Größe_'
'Gemeinsamen_'
'Fu'
'Formen_'
'Forderungen_'
'Familien'
'Faktoren_'
'Earth_'
'EL'
'Dadurch_'
'Computer_'
'Cho'
'Chancen_'
'Car'
'Blair_'
'Binnenmarkt_'
'Bahn_'
'BO'
'BMW_'
'BA'
'Auto'
'Ausbildung_'
'Atmosphäre_'
'Armee_'
'Anwendungen_'
'Anspruch_'
'An'
'Amt_'
'Alt'
'AG_'
'AC'
'194'
'15'
'11'
' €_'
' — _'
'á'
'   . – _'
'zusammenge'
'zurückzu'
'zugleich_'
'ya'
'wine_'
'wei'
'ven_'
'usual_'
'tte_'
'tt_'
'trotzdem_'
'teilen_'
'systeme_'
'sugar_'
'suffered_'
'subsidies_'
'stronger_'
'statements_'
'square_'
'south_'
'sky_'
'severe_'
'selected_'
'schools_'
'sch'
'revolution_'
'reported_'
'remove_'
'remote_'
'remember_'
'records_'
'recorded_'
'recommend_'
'recognise_'
'race_'
'quarter_'
'promise_'
'pro'
'pollution_'
'perfectly_'
'payment_'
'patients_'
'pa'
'origin_'
'onen_'
'ommen_'
'offiziellen_'
'obviously_'
'obligations_'
'ni'
'mutual_'
'moved_'
'mm_'
'mittlerweile_'
'miles_'
'marked_'
'manufacturing_'
'manche_'
'love_'
'leg'
'learned_'
'lau'
'land'
'kommenden_'
'ko'
'keits'
'kation_'
'kamen_'
'ization_'
'ir'
'instance_'
'inside_'
'ingly_'
'höchsten_'
'hostels_'
'hoher_'
'hn_'
'hip_'
'hau'
'gung_'
'gla'
'ged_'
'führende_'
'fresh_'
'frage_'
'fordert_'
'finding_'
'figure_'
'fi'
'federal_'
'fa'
'expense_'
'exists_'
'erfolgreichen_'
'equality_'
'entirely_'
'enorme_'
'electoral_'
'einfachen_'
'ee_'
'door_'
'doesn_'
'discover_'
'device_'
'destroyed_'
'den'
'definition_'
'deficits_'
'defence_'
'currencies_'
'couple_'
'convinced_'
'consultation_'
'compete_'
'combined_'
'cohesion_'
'coalition_'
'chi'
'cars_'
'carefully_'
'cards_'
'capable_'
'button_'
'budgetary_'
'bu'
'bo'
'bilateral_'
'bewegen_'
'bemüht_'
'beinahe_'
'background_'
'attractive_'
'ating_'
'arrival_'
'arbeitet_'
'agency_'
'agen_'
'advance_'
'administrative_'
'ade_'
'addressing_'
'ach_'
'[[_'
'Zi'
'Zeitraum_'
'Wissenschaft_'
'Weltbank_'
'Verpflichtungen_'
'Verkehrs'
'Verbindungen_'
'Ver'
'UN'
'Tour_'
'Thank_'
'Stu'
'Standard'
'Staates_'
'Sprachen_'
'Spiel'
'Spar'
'Sha'
'Second_'
'Safety_'
'SQL_'
'Produkt'
'Pri'
'Pin'
'Patienten_'
'Ohne_'
'Niveau_'
'Mu'
'Mor'
'Monate_'
'Man'
'Madrid_'
'Kra'
'Jeder_'
'Investoren_'
'Instrumente_'
'Identität_'
'Har'
'Gründe_'
'Good_'
'Gespräche_'
'Gesetz_'
'Flüchtlinge_'
'Find_'
'Februar_'
'FR_'
'Europäer_'
'Erd'
'Energie'
'En'
'Each_'
'Durchführung_'
'Dienste_'
'Di'
'DE'
'DA'
'Can_'
'Boden_'
'Bildungs'
'Beweis_'
'Berichterstatterin_'
'Bel'
'Before_'
'Beach_'
'Bau_'
'Aussicht_'
'Au'
'Arabia_'
'AM'
'1994_'
'192'
'.” _'
', „_'
'  _'
'ä'
'zusätzlichen_'
'ze'
'xi'
'west_'
'welcher_'
'weight_'
'wars_'
'vulnerable_'
'vous_'
'verändert_'
'vere'
'universal_'
'unit_'
'ungefähr_'
'une'
'unacceptable_'
'umfasst_'
'trend_'
'tre'
'tor'
'tin'
'testing_'
'terror_'
'telephone_'
'technischen_'
'talks_'
'sz'
'swe'
'super_'
'succeed_'
'stimmt_'
'steigen_'
'ste'
'stand'
'ssi'
'spielt_'
'sozial'
'sofort_'
'sized_'
'situations_'
'sha'
'sets_'
'session_'
'serves_'
'seemed_'
'seats_'
'scheinen_'
'sbe'
'sar'
'sage_'
'rä'
'rs'
'rn'
'rental_'
'registered_'
'rechts'
'pt_'
'productive_'
'prison_'
'precise_'
'plants_'
'passed_'
'parliaments_'
'parliament_'
'pan'
'packages_'
'out'
'ou_'
'ol'
'newly_'
'neu'
'names_'
'möglichkeiten_'
'myself_'
'ms'
'mostly_'
'mo_'
'miteinander_'
'min_'
'maintaining_'
'luxury_'
'lten_'
'liquidity_'
'leisure_'
'legitimate_'
'legitimacy_'
'laut_'
'kämpfen_'
'ku'
'kor'
'kon'
'ko_'
'ip'
'investieren_'
'intellectual_'
'informiert_'
'impressive_'
'impose_'
'imports_'
'images_'
'igkeit_'
'höheren_'
'houses_'
'hinweisen_'
'golf_'
'gewisse_'
'genannt_'
'gel'
'ga'
'fällt_'
'fu'
'fit_'
'falsch_'
'explanation_'
'experienced_'
'expansion_'
'exit_'
'ex_'
'eten_'
'essen_'
'erinnern_'
'ergreifen_'
'ergeben_'
'erg'
'equivalent_'
'emergency_'
'ely_'
'eln_'
'ellen_'
'eingerichtet_'
'dé'
'dritten_'
'don'
'died_'
'derzeitigen_'
'depend_'
'delay_'
'define_'
'covered_'
'contributions_'
'conce'
'colleague_'
'club_'
'chten_'
'category_'
'candidates_'
'cancer_'
'bringing_'
'black_'
'bezahlt_'
'bestimmen_'
'besonderen_'
'bekämpfen_'
'bek'
'beaches_'
'battle_'
'bal'
'ausge'
'attempts_'
'appreciate_'
'ang'
'alt_'
'allgemeinen_'
'all'
'abroad_'
'abge'
'Zinsen_'
'Zentral'
'Women_'
'Wandel_'
'Wachstums_'
'Villa_'
'Very_'
'VI'
'Trek_'
'Tradition_'
'To'
'Their_'
'Texte_'
'Tele'
'Sweden_'
'Städte_'
'Studie_'
'Sollte_'
'Skype_'
'Rückkehr_'
'Ri'
'Research_'
'Reise'
'Regelung_'
'Polizei_'
'Opposition_'
'OS_'
'OR_'
'Noch_'
'Mitteln_'
'Mitgliedern_'
'Mel'
'Media_'
'Ma'
'MO'
'Luft'
'Lebanon_'
'Kurs_'
'Krankheit_'
'Kontakt_'
'Kommunikations'
'Kommunikation_'
'Ki'
'Kenntnis_'
'Institute_'
'Insbesondere_'
'Ideen_'
'IT'
'Hussein_'
'Hostel_'
'Ho'
'Hel'
'Grundrechte_'
'Green_'
'Go'
'Gesetze_'
'Geschäftsordnung_'
'Gefühl_'
'Gefahren_'
'Gast'
'Fähigkeiten_'
'Funktionen_'
'Front_'
'Fest'
'Fax_'
'Executive_'
'Ex'
'Download_'
'Diskussionen_'
'Day_'
'Daten'
'Czech_'
'Ci'
'Charta_'
'Bä'
'Buch_'
'Brüssel_'
'Bo'
'Ans'
'Airbus_'
'Administration_'
'44_'
'21'
'191'
'190'
'188'
'186'
' ('
'™ _'
'”._'
'“'
'е'
'в'
'überprüfen_'
'ägen_'
'zuvor_'
'zufrieden_'
'zing_'
'yesterday_'
'wünschen_'
'weltweite_'
'weiteres_'
'wait_'
'vorschlagen_'
'vorgelegt_'
'village_'
'verfolgt_'
'verdient_'
'va'
'ura'
'unmöglich_'
'under'
'una'
'trillion_'
'tourism_'
'title_'
'tend_'
'substances_'
'sub'
'structures_'
'stre'
'strategische_'
'stellung_'
'stattfinden_'
'starke_'
'sports_'
'sport_'
'solange_'
'shape_'
'sensitive_'
'senior_'
'sektor_'
'schönen_'
'sb'
'savings_'
'sam'
'sagt_'
'ré'
'runs_'
'rr'
'ro_'
'representative_'
'reject_'
'reicht_'
'referendum_'
'reden_'
'recognition_'
'rechts_'
'rechte_'
'rat'
'ral_'
'radical_'
'que'
'protecting_'
'prevention_'
'positions_'
'politisches_'
'pol'
'pick_'
'phenomenon_'
'peri'
'paying_'
'our'
'ot_'
'ori'
'ora'
'opposite_'
'of'
'o'
'notwendigen_'
'ney_'
'nen'
'nearby_'
'nan'
'nahme_'
'mp'
'mindestens_'
'metro_'
'merk'
'meist_'
'medi'
'mechanisms_'
'marketing_'
'lovely_'
'li'
'lands_'
'lage_'
'konkrete_'
'killed_'
'kept_'
'keiner_'
'kar'
'journalists_'
'jeweils_'
'ities_'
'is'
'intensive_'
'institution_'
'install_'
'informed_'
'imagine_'
'igung_'
'ia'
'hr'
'hoffen_'
'ho'
'head'
'ha_'
'guide_'
'guaranteed_'
'gruppen_'
'gruppe_'
'grow_'
'gro'
'greenhouse_'
'gets_'
'geleistet_'
'garantieren_'
'ga_'
'funktionieren_'
'formed_'
'forget_'
'fantastic_'
'ez_'
'expenditure_'
'exclusively_'
'ete_'
'erzielen_'
'erscheinen_'
'entlang_'
'ent'
'endorse_'
'emphasise_'
'einzusetzen_'
'einsetzen_'
'eingeführt_'
'drug_'
'disp'
'discrimination_'
'discovered_'
'dienen_'
'devices_'
'determine_'
'detail_'
'depends_'
'demanding_'
'declaration_'
'cre'
'court_'
'coordination_'
'contributed_'
'contribute_'
'consequence_'
'confirmed_'
'comment_'
'cken_'
'centuries_'
'capitalism_'
'booking_'
'bitten_'
'bislang_'
'besuchen_'
'bestätigen_'
'beg'
'bedeuten_'
'bau_'
'ausreichend_'
'asylum_'
'aside_'
'arbeits'
'anstatt_'
'ani'
'ana_'
'abhängig_'
'abe_'
'ab'
'Wettbewerbs'
'Waren_'
'Vision_'
'Ur'
'Untersuchung_'
'Ungleichheit_'
'Under_'
'Tor'
'Tier'
'Süden_'
'Swedish_'
'Summit_'
'Stil_'
'Start_'
'Sport_'
'Sport'
'Spitze_'
'Sommer_'
'Signal_'
'Serbia_'
'Sa'
'SE'
'Reise_'
'Rahmen'
'Rad'
'Prozesses_'
'Produkt_'
'Pro_'
'Preis'
'Pra'
'Pen'
'Par'
'Paket_'
'PS'
'Ordnung_'
'Nutzer_'
'Not'
'Nach'
'Musik'
'Mitarbeiter_'
'Men'
'Meiner_'
'Massen'
'Los_'
'Leit'
'Königreich_'
'Kräfte_'
'Kriterien_'
'Kontinent_'
'Kapital'
'Ji'
'Je'
'Hä'
'Hintergrund_'
'Ha'
'Gre'
'Gewinne_'
'Gericht_'
'Geldpolitik_'
'Foto_'
'Fortschritt_'
'Export'
'Erwartungen_'
'Erfolge_'
'Enjoy_'
'Engagement_'
'EC_'
'Definition_'
'Data_'
'Cor'
'Con'
'Charakter_'
'CO'
'Budget_'
'Book_'
'Bon'
'Bi'
'Beziehung_'
'Beihilfen_'
'Balkan_'
'Auge_'
'Auf'
'Atlantic_'
'@_'
'> _'
'98_'
'80'
'20'
'1991_'
'1970_'
'14'
'06_'
') '
'ür'
'öffentlich_'
'í'
'é'
'zentrum_'
'wesentlichen_'
'wer'
'wave_'
'wahren_'
'wachsen_'
'vir'
'verlangen_'
'verbessert_'
'ven'
'van'
'ust'
'upper_'
'uli'
'ul_'
'ud'
'tzen_'
'traditionellen_'
'teilweise_'
'teil_'
'tal_'
'tag'
'suite_'
'suffer_'
'stra'
'spa_'
'sonst_'
'sold_'
'smus_'
'sight_'
'shi'
'sharing_'
'sen'
'se'
'schreiben_'
'schlecht_'
'rta'
'roads_'
'ro'
'rischen_'
'richten_'
'rejected_'
'regular_'
'railway_'
'rag'
'radio_'
'quick_'
'qui'
'profits_'
'preis'
'praktisch_'
'playing_'
'planned_'
'ped_'
'paragraph_'
'outdoor_'
'or'
'nz_'
'nb'
'naturally_'
'möglichst_'
'mögen_'
'minority_'
'metres_'
'mer_'
'mandate_'
'lokalen_'
'lit'
'linie_'
'lin_'
'lesson_'
'leiden_'
'kurzem_'
'ktion_'
'krise_'
'kinds_'
'jungen_'
'junge_'
'ischer_'
'ire_'
'ingen_'
'imposed_'
'implications_'
'ill_'
'ik_'
'ien'
'ians_'
'hostel_'
'hing_'
'halt_'
'ha'
'guarantees_'
'greatly_'
'gre'
'gradually_'
'gewissen_'
'gestalten_'
'gegenwärtigen_'
'gegenwärtig_'
'ge'
'gained_'
'führung_'
'furniture_'
'fruit_'
'forum_'
'fo'
'finanzieren_'
'fewer_'
'festgestellt_'
'false_'
'fairly_'
'eyes_'
'existence_'
'erwähnt_'
'ernst_'
'erfahren_'
'entf'
'en'
'elo'
'ek'
'eingehen_'
'einfacher_'
'ed'
'driven_'
'dramatic_'
'diplomatic_'
'dining_'
'deserves_'
'des'
'defend_'
'ded_'
'deb'
'credibility_'
'cra'
'cooperate_'
'continuing_'
'consideration_'
'considerably_'
'confirm_'
'con'
'command_'
'classes_'
'cher'
'channels_'
'ce'
'cash_'
'briefly_'
'bon'
'bild_'
'bezahlen_'
'beruht_'
'bedroom_'
'bed'
'be'
'ban'
'aut_'
'aufge'
'ative_'
'association_'
'armed_'
'ara'
'apart_'
'angeboten_'
'an'
'al'
'aktiv_'
'affects_'
'af'
'ae'
'accompanied_'
'accessible_'
'acceptable_'
'abgeschlossen_'
']]_'
'Zweiten_'
'Zwar_'
'Z_'
'Wunsch_'
'Wo'
'Wirkung_'
'Wirklichkeit_'
'Willen_'
'Wall_'
'Verträge_'
'Verbraucher'
'Verb'
'VO'
'Umfeld_'
'Two_'
'Test_'
'TNG_'
'Süd'
'Strukturen_'
'Strategy_'
'Stellen_'
'Staats_'
'Sprach'
'Speicher'
'Sonnen'
'Son'
'Sohn_'
'Sitzung_'
'Schulen_'
'Schi'
'Sanktionen_'
'Quelle_'
'Puerto_'
'Pu'
'Problems_'
'Premierminister_'
'Palace_'
'Over_'
'Op'
'Nor_'
'Non_'
'Ni'
'Moment_'
'Mission_'
'Ministers_'
'Menge_'
'Location_'
'Li'
'League_'
'Lassen_'
'Labour_'
'LI'
'Kur'
'Kredite_'
'Kor'
'Kontroll'
'Klimaanlage_'
'Kirk_'
'Ke'
'Ka'
'JavaScript_'
'Israels_'
'Island_'
'Investitions'
'IR'
'IN'
'Hinweis_'
'Hin'
'Hilfs'
'Hauptstadt_'
'Handeln_'
'Grunde_'
'Glück_'
'Glaubwürdigkeit_'
'Geist_'
'Firma_'
'Fi'
'Facilities_'
'FA'
'Express_'
'Erklärungen_'
'Environment_'
'Entwurf_'
'End'
'Dor'
'Dimension_'
'Deutschlands_'
'Del'
'Dan'
'Cuba_'
'Control_'
'Check_'
'Cameron_'
'CAMBRIDGE_'
'Bus_'
'Brussels_'
'Bill_'
'Beschäftigungs'
'Ben'
'Bedenken_'
'Bay_'
'Ausweitung_'
'Ausnahme_'
'Association_'
'Argentinien_'
'Antrag_'
'Allgemeinen_'
'Ale'
'Akteure_'
'Ag'
'Ac'
': “_'
'800_'
'3D_'
'22'
'1992_'
'05_'
'03_'
'...'
'''
' > _'
'– _'
'č_'
'ührung_'
'übrigen_'
'übertragen_'
'öffnen_'
'ía_'
'zieren_'
'zen'
'wollten_'
'wesentliche_'
'wan'
'wagen_'
'vors'
'vorgesehen_'
'virus_'
'vier'
'verwende_'
'verfügbar_'
'vehicle_'
'val'
'update_'
'unfortunately_'
'unabhängig_'
'una_'
'ums'
'typical_'
'tly_'
'ther_'
'tent'
'technische_'
'tat'
'tar'
'sur_'
'supplies_'
'stri'
'sto'
'sti'
'stayed_'
'stance_'
'spoke_'
'soft_'
'sion'
'sel'
'sation_'
'russische_'
'rti'
'rie'
'ri_'
'revenues_'
'returned_'
'remind_'
'remained_'
'refugee_'
'qualität_'
'purposes_'
'pt'
'propose_'
'propaganda_'
'profound_'
'processing_'
'poorest_'
'pointed_'
'plenty_'
'platform_'
'patterns_'
'pattern_'
'para'
'owned_'
'ordinary_'
'opinions_'
'ol_'
'og'
'offenen_'
'occasions_'
'nte'
'nta'
'none_'
'nf'
'nar'
'my'
'museums_'
'mus'
'multiple_'
'mu'
'movements_'
'motor'
'monitor_'
'momentan_'
'mo'
'ministers_'
'micro'
'menschliche_'
'mbi'
'ma'
'luxurious_'
'logical_'
'lly_'
'listen_'
'lig'
'ließ_'
'lier'
'li_'
'lending_'
'künftige_'
'kulturellen_'
'kulturelle_'
'kostet_'
'kleiner_'
'klare_'
'keeping_'
'kat'
'joined_'
'it'
'ists_'
'investiert_'
'initially_'
'inevitable_'
'incentives_'
'immigrants_'
'ility_'
'ile_'
'ie'
'identified_'
'hs_'
'hon'
'hervor_'
'heavy_'
'happening_'
'hand'
'grundlegenden_'
'gewährleistet_'
'gewählt_'
'gestärkt_'
'geo'
'gender_'
'gegründet_'
'gefordert_'
'früheren_'
'freue_'
'fel'
'favor_'
'falling_'
'ey_'
'explain_'
'ethnic_'
'erinnert_'
'eri'
'erforderlichen_'
'erfolgt_'
'erf'
'equity_'
'entitled_'
'engineering_'
'enables_'
'ena'
'emi'
'ement_'
'em'
'elle_'
'eliminate_'
'eli'
'ek_'
'effectiveness_'
'economists_'
'drink_'
'diverse_'
'dishes_'
'dis'
'dient_'
'didn_'
'daraus_'
'danke_'
'dal'
'dahin_'
'cy'
'customer_'
'coup_'
'cor'
'controlled_'
'connections_'
'conducted_'
'conclusions_'
'compensation_'
'client_'
'classic_'
'ckt_'
'chosen_'
'bor'
'blood_'
'bildung_'
'bildet_'
'belief_'
'availability_'
'ausgezeichneten_'
'aufnehmen_'
'assume_'
'art'
'arguments_'
'argued_'
'appointed_'
'ans'
'anbieten_'
'amounts_'
'allgemeine_'
'allgemein_'
'ai'
'ah'
'advantages_'
'adoption_'
'adjustment_'
'ade'
'Ziffer_'
'Zeichen_'
'Within_'
'Wahrheit_'
'WLAN_'
'WI'
'Völker_'
'Vom_'
'Vienna_'
'Verteidigung_'
'Unternehmens_'
'Universität_'
'Teil'
'Taiwan_'
'Stein'
'Stadtzentrum_'
'Sowjetunion_'
'Selbst'
'Schäden_'
'Sat'
'Rückgang_'
'Romania_'
'Roma_'
'Regelungen_'
'Referendum_'
'Rechts_'
'Raum'
'Q'
'Protokoll_'
'Priorität_'
'Port'
'Plaza_'
'Player_'
'Peter_'
'Paul_'
'Paper_'
'Palestinians_'
'Palestine_'
'Page_'
'Pact_'
'Or_'
'Ob'
'ON'
'Nie'
'Nicht'
'Nevertheless_'
'Nachrichten_'
'Muslims_'
'Munich_'
'Mindest'
'Mess'
'Mari'
'Malaysia_'
'Mac'
'La'
'Kunst'
'Korruption_'
'Klima'
'Kind_'
'Kil'
'Key'
'Katastrophe_'
'Java_'
'Ja_'
'Israelis_'
'Ins'
'Innovationen_'
'Inflations'
'Hy'
'Hill_'
'Gu'
'Grenz'
'GmbH_'
'Gleichgewicht_'
'Gen'
'Garten_'
'Form'
'Firstly_'
'Film'
'Far'
'Fa'
'Entwicklungen_'
'Entscheidungsträger_'
'Energien_'
'Einklang_'
'ER'
'Drittel_'
'Chile_'
'Cap'
'CIA_'
'CAN'
'Bürger'
'Brexit_'
'Botschaft_'
'Bor'
'Bewertung_'
'Besides_'
'Bedürfnisse_'
'Bar'
'Bade'
'Ava'
'Außen'
'Austrian_'
'Aussch'
'Aufgaben_'
'Apartment_'
'Angaben_'
'Analyse_'
'Ak'
'Agency_'
'Adresse_'
'Absicht_'
'Abgeordnete_'
'52_'
'49_'
'37_'
'.  _'
'."_'
'-/_'
'," _'
' € _'
'д'
'ün'
'öl'
'zustimmen_'
'zugunsten_'
'zentralen_'
'yes_'
'ws_'
'worst_'
'worry_'
'wonach_'
'wireless_'
'wieder'
'wi'
'welt'
'weiter'
'weather_'
'weapon_'
'warten_'
'wage_'
'vorgesehenen_'
'vorge'
'volle_'
'verpflichten_'
'ver'
'underlying_'
'umfangreiche_'
'uh'
'typically_'
'turns_'
'tter'
'traditionelle_'
'totally_'
'topic_'
'tief_'
'tel_'
'tan_'
'tage_'
'tag_'
'surrounded_'
'sun'
'substance_'
'su_'
'stag'
'sst_'
'spricht_'
'sprach_'
'spot_'
'somewhat_'
'sol'
'sk'
'sinnvoll_'
'sichern_'
'si'
'seite_'
'schwierigen_'
'schriftlich_'
'schnelle_'
'rweise_'
'rum_'
'rou'
'rose_'
'richtigen_'
'resolved_'
'resistance_'
'residential_'
'reply_'
'removed_'
'regimes_'
'reflects_'
'recession_'
'reagieren_'
'rd'
'pushed_'
'prä'
'properly_'
'prop'
'promises_'
'prior_'
'preis_'
'pra'
'potentially_'
'pleasure_'
'personally_'
'permitted_'
'percent_'
'pension_'
'parks_'
'parallel_'
'osi'
'operate_'
'op_'
'ona_'
'olin'
'oe'
'occasion_'
'nötig_'
'noted_'
'normalerweise_'
'nights_'
'nc'
'müssten_'
'müsste_'
'mögliche_'
'mö'
'multilateral_'
'mini'
'migrants_'
'mes_'
'mental_'
'mel'
'match_'
'lt'
'losing_'
'looked_'
'lived_'
'les'
'la'
'konzentriert_'
'ki_'
'keineswegs_'
'ized_'
'italienischen_'
'ita'
'israelischen_'
'islands_'
'interface_'
'interessiert_'
'ino_'
'ine'
'indicate_'
'index_'
'in'
'import_'
'ign'
'ight_'
'iel'
'höchste_'
'hur'
'http_'
'hren_'
'homes_'
'hilft_'
'helps_'
'gutes_'
'grown_'
'gor'
'globalisation_'
'glo'
'gh_'
'genauso_'
'gelegt_'
'gele'
'gegenwärtige_'
'gan'
'gal'
'fun_'
'frei'
'fore'
'foot_'
'fonds_'
'flow_'
'flat_'
'fer_'
'feld_'
'fees_'
'fashion_'
'faith_'
'excessive_'
'ete'
'essentially_'
'esi'
'es'
'erstellt_'
'erm'
'erleben_'
'era'
'er'
'ending_'
'electronic_'
'einzu'
'educational_'
'east_'
'driver_'
'drawn_'
'diversity_'
'disputes_'
'diseases_'
'dimension_'
'derart_'
'dep'
'dem'
'delivered_'
'dar'
'ction_'
'cri'
'crew_'
'counter'
'corporations_'
'convenient_'
'constantly_'
'considering_'
'conservative_'
'concluded_'
'commodity_'
'cold_'
'church_'
'choices_'
'charming_'
'cal'
'ca'
'burg_'
'browser_'
'breite_'
'blocks_'
'blo'
'blind_'
'bio'
'bility_'
'betroffen_'
'besitzen_'
'besch'
'bequem_'
'bekannten_'
'begonnen_'
'beginnt_'
'bee'
'bedeutende_'
'badly_'
'ausgesetzt_'
'ausger'
'audio_'
'arbeit_'
'applies_'
'applicable_'
'appeal_'
'andererseits_'
'ancient_'
'amerikanischer_'
'allies_'
'ali'
'alen_'
'akzeptiert_'
'aircraft_'
'afrikanischen_'
'affect_'
'advertising_'
'abkommen_'
']]._'
'Zusammenbruch_'
'Zug_'
'Zu'
'Yu'
'Yes_'
'Who_'
'Web'
'War'
'Vorschlägen_'
'Vorbereitung_'
'Verständnis_'
'Verf'
'Verbesserungen_'
'Venezuela_'
'Var'
'Us'
'Umfang_'
'USB_'
'Tru'
'Ton'
'Taliban_'
'Städten_'
'Stellung_'
'Stability_'
'Schwerpunkt_'
'School_'
'Sau'
'Samsung_'
'Saint_'
'SS_'
'Rom'
'Road_'
'Regulierungs'
'Regimes_'
'Reform'
'Rechnung_'
'Real'
'Ratsvorsitz_'
'Problemen_'
'Prinzipien_'
'Plan'
'Pla'
'Ph'
'Perspektive_'
'Partnership_'
'Pacific_'
'PPE_'
'Optionen_'
'Open'
'ON_'
'Nr_'
'Note_'
'Nos_'
'Nord'
'Nigeria_'
'News_'
'Nein_'
'Nacht'
'Multi'
'Mol'
'Mao_'
'MEPs_'
'Lin'
'Liefer'
'Leistungs'
'Laufe_'
'LA'
'Kurz_'
'Kurz'
'Kopf_'
'Konvent_'
'Kan'
'Je_'
'Jahrzehnten_'
'Jacques_'
'Internationale_'
'IC'
'Hostelsclub_'
'Holz'
'Haushalte_'
'Haus'
'Hamburg_'
'Gipfel_'
'Gesch'
'Gerichtshof_'
'Gemeinschafts'
'Gegner_'
'Geb'
'Frühstücksbuffet_'
'Frankreichs_'
'Fonds_'
'Finanzkrise_'
'Fin'
'Erhöhung_'
'Einheit_'
'EA'
'Due_'
'Doha_'
'Disk'
'Datenbank_'
'Cold_'
'Class_'
'Charter_'
'Canada_'
'Bos'
'Blog_'
'Betriebs'
'Berg'
'Bedarf_'
'Ball'
'BI'
'Außenpolitik_'
'Audio_'
'Asyl'
'Arbeitsplätzen_'
'Arbeiter_'
'Anreize_'
'Al'
'Aktion_'
'Abschließend_'
'AI'
'AB'
'://_'
'85_'
'60'
'6'
'42_'
'41_'
'24'
'1967_'
'12'
'08_'
'03'
'/ _'
'/'
') - _'
'() _'
'!'
' )._'
'”, _'
'к'
'änge_'
'Ü'
'zuzu'
'zust'
'zunehmenden_'
'zuerst_'
'zu'
'zit'
'zi'
'zer_'
'wonderful_'
'wishes_'
'wisdom_'
'wirtschaftlich_'
'wirken_'
'winter_'
'willkommen_'
'wider'
'whi'
'weit'
'wachsenden_'
'vorstellen_'
'vorgeschlagenen_'
'vollen_'
'visitors_'
'visited_'
'visible_'
'verändern_'
'verurteilt_'
'ute'
'usly_'
'urs_'
'unmittelbar_'
'unlike_'
'unity_'
'understood_'
'unc'
'twenty_'
'trip_'
'treat_'
'tele'
'symbol_'
'sur'
'supporters_'
'submit_'
'store_'
'steigern_'
'sser'
'spi'
'speakers_'
'solve_'
'solid_'
'solely_'
'sin'
'siert_'
'side'
'sh'
'sf'
'sell_'
'sei'
'seeks_'
'seat_'
'sea'
'scho'
'schie'
'schi'
'saved_'
'sauna_'
'rü'
'ruling_'
'rufen_'
'rte_'
'route_'
'rit'
'ris'
'restructuring_'
'restore_'
'reporting_'
'remaining_'
'rely_'
'reflected_'
'ree'
'rece'
'rec'
'read'
'rb'
'raw_'
'raten_'
'rank'
'ra'
'pri'
'prefer_'
'ports_'
'plays_'
'pie'
'phi'
'pha'
'perform_'
'patent_'
'palästinensischen_'
'ow'
'oo'
'onto_'
'oni'
'om'
'ogen_'
'obtain_'
'northern_'
'nl'
'nie'
'neighbors_'
'necessarily_'
'nd'
'natürlichen_'
'nal_'
'nahmen_'
'mont'
'mon_'
'mini_'
'meant_'
'meaningfully_'
'meals_'
'manchen_'
'macroeconomic_'
'loo'
'liked_'
'lie_'
'liberalisation_'
'let'
'lem'
'leistung_'
'lea'
'layer_'
'kt_'
'kostenlos_'
'konfrontiert_'
'kel'
'kas'
'jemand_'
'japanische_'
'iva'
'items_'
'intention_'
'informieren_'
'inform_'
'ina_'
'ideological_'
'ics_'
'ian'
'hängt_'
'hor'
'hof_'
'hl_'
'hinzu'
'hingegen_'
'hall_'
'hab'
'größer_'
'groß_'
'grammatically_'
'geöffnet_'
'gez'
'gering_'
'genutzt_'
'generated_'
'genannte_'
'gemein'
'gang_'
'fühlen_'
'fying_'
'fy_'
'fs_'
'frühen_'
'freundlich_'
'freiheit_'
'flo'
'flights_'
'firstly_'
'fertig_'
'fehlt_'
'feeling_'
'feed_'
'farming_'
'facto_'
'eva'
'estimates_'
'ero'
'erheblich_'
'enti'
'enth'
'enta'
'eng_'
'end'
'ements_'
'eller_'
'electricity_'
'einzigartigen_'
'einst_'
'eg'
'eastern_'
'ear'
'durchzuführen_'
'drop_'
'division_'
'dit'
'discipline_'
'det_'
'derer_'
'deiner_'
'dat'
'dans_'
'dan'
'cted_'
'correct_'
'copy_'
'convergence_'
'contextually_'
'conditioning_'
'condition_'
'concrete_'
'components_'
'citizen_'
'cies_'
'cht'
'chen'
'cable_'
'broken_'
'breiten_'
'bond_'
'ble'
'birth_'
'bez'
'bes_'
'behalten_'
'bas'
'baby_'
'außen_'
'ausb'
'aufgezahlt_'
'atz_'
'att'
'ath'
'arti'
'armen_'
'arise_'
'arabischen_'
'album_'
'akt'
'ag_'
'afternoon_'
'afford_'
'ace'
'abgesch'
'\\_'
'Zo'
'Year_'
'Wieder'
'Weitere_'
'Weiter'
'Wa'
'Videos_'
'Verfassungs'
'Verein'
'Verbreitung_'
'Unterschiede_'
'Though_'
'Terroristen_'
'Teilnahme_'
'TI'
'TE'
'Straßen_'
'Sti'
'Stattdessen_'
'Spiele_'
'Sin'
'Sim'
'Schluss_'
'Schau'
'SP'
'Ru'
'Ratschlag_'
'Prüfung_'
'Programms_'
'Pool_'
'Pf'
'Partnerschaft_'
'Palästinenser_'
'Ost'
'Os'
'Ol'
'Northern_'
'Nordkorea_'
'Neben'
'Nation_'
'Moscow_'
'Mittelmeer_'
'Mittel'
'Minderheiten_'
'Mikro'
'Mein_'
'Mc'
'Maßnahme_'
'Lord_'
'Like_'
'Law_'
'Körper_'
'Krisen_'
'Krisen'
'Konsens_'
'Komfort_'
'Klima_'
'Kla'
'KDE_'
'Internationalen_'
'Hal'
'Haft'
'HE'
'Geschäfte_'
'Gas'
'Gang_'
'Frei'
'Fra'
'Fo'
'Fla'
'Finde_'
'FO'
'Exporte_'
'Empire_'
'Eisenbahn'
'Einwanderung_'
'Einstellungen_'
'Einstellung_'
'Einkommens'
'Ein'
'Dynamik_'
'Druck'
'Din'
'Dienstleistungs'
'Details_'
'Dem_'
'Datei'
'DO'
'DC_'
'Consider_'
'Company_'
'Com'
'Clo'
'Charles_'
'Char'
'Chairman_'
'Card'
'Cam'
'CI'
'CF'
'C5_'
'Bro'
'Block'
'Bes'
'Belarus_'
'Beim_'
'Begriff_'
'Bauern_'
'Bal'
'Back'
'BE'
'Auto_'
'As'
'Arbeitsmarkt_'
'Apple_'
'Any_'
'Ant'
'Angelegenheit_'
'Amendments_'
'Aktionen_'
'Aktien'
'Adobe_'
'Ab'
'AN'
'; '
'65_'
'350_'
'34_'
'250_'
'2030_'
'1990er_'
'16'
'07_'
') (_'
'"'
' ….. _'
'ст'
'überprüft_'
'ú'
'ès_'
'ätze_'
'ão_'
'Übersetzung_'
'Übergang_'
'Ägypten_'
'zählen_'
'zuständig_'
'zusammen'
'zuges'
'zt_'
'ziemlich_'
'ystem_'
'ye_'
'wonder_'
'wohnen_'
'wissenschaftlichen_'
'wirkt_'
'wirksam_'
'windows_'
'wiederholt_'
'whereby_'
'wesen_'
'welt_'
'welchem_'
'we'
'waiting_'
'wachsende_'
'vis'
'vielmehr_'
'via'
'verstärken_'
'verehrte_'
'variable_'
'unre'
'university_'
'ule'
'uk'
'ug_'
'uchen_'
'uch'
'ua'
'türkischen_'
'tü'
'tut_'
'ture_'
'tten_'
'trifft_'
'treiben_'
'tors_'
'tom'
'tik_'
'tig'
'teil'
'tau'
'sämtliche_'
'surplus_'
'stu'
'stru'
'strongly_'
'strengthening_'
'strength_'
'streets_'
'storage_'
'stoff'
'stic_'
'sterben_'
'stellte_'
'spring_'
'spectrum_'
'soweit_'
'son'
'sofern_'
'sma'
'sla'
'sing'
'sieren_'
'showing_'
'she'
'shares_'
'settlement_'
'serviert_'
'selten_'
'schlägt_'
'satellite_'
'sale_'
'ry'
'rop'
'rma'
'rin'
'responses_'
'replaced_'
'replace_'
'renewable_'
'religiösen_'
'religion_'
'reliable_'
'regularly_'
'regeln_'
'regardless_'
'reconstruction_'
'reb'
'realistic_'
'rated_'
'rare_'
'ran_'
'quer'
'push_'
'purchases_'
'pur'
'prove_'
'proposing_'
'promised_'
'previously_'
'preparation_'
'premi'
'ppi'
'posed_'
'pleasant_'
'persönlich_'
'personnel_'
'periods_'
'percentage_'
'perceived_'
'passiert_'
'participants_'
'overcome_'
'ov'
'ose_'
'os'
'organised_'
'opt_'
'operational_'
'op'
'oma'
'ok'
'og_'
'offices_'
'offen'
'oc'
'obligation_'
'ns'
'nochmals_'
'nk_'
'nine_'
'nge'
'mächtig'
'mut'
'mobility_'
'ml'
'meter_'
'mea'
'markt'
'manufacturers_'
'managing_'
'maintenance_'
'locations_'
'lla'
'lists_'
'lf'
'legacy_'
'leaves_'
'lay_'
'lautet_'
'kurze_'
'kur'
'kontrollieren_'
'knows_'
'key'
'jährigen_'
'judicial_'
'jpg_'
'joining_'
'jenen_'
'itt_'
'ist'
'iranischen_'
'involve_'
'invest_'
'integriert_'
'installed_'
'ines_'
'indicated_'
'inden_'
'ina'
'identify_'
'ible_'
'hä'
'hn'
'hilfreich_'
'highlight_'
'hel'
'heißen_'
'heim'
'greifen_'
'grateful_'
'governing_'
'ght_'
'gge'
'geringe_'
'geraten_'
'gep'
'fuels_'
'frequently_'
'free'
'foundation_'
'for'
'finanziert_'
'fen'
'female_'
'fell_'
'fears_'
'fate_'
'failing_'
'explore_'
'exciting_'
'escape_'
'erlauben_'
'erklärte_'
'ering_'
'erfordern_'
'erfolg'
'entscheidender_'
'entscheidende_'
'ents_'
'enf'
'enabling_'
'els_'
'eiten_'
'einzelne_'
'einfache_'
'eil'
'ehen_'
'echten_'
'echn'
'dy_'
'dro'
'discussing_'
'disaster_'
'direkten_'
'ding'
'derartigen_'
'depending_'
'dependent_'
'del'
'definiert_'
'decisive_'
'ct_'
'crimes_'
'credible_'
'creative_'
'constitute_'
'cons'
'concentrate_'
'computers_'
'collection_'
'collaboration_'
'coast_'
'clubs_'
'claimed_'
'cer'
'causing_'
'catch_'
'bur'
'budgets_'
'bro'
'bridge_'
'brand_'
'brachte_'
'bi_'
'bezeichnet_'
'beschränkt_'
'beinhaltet_'
'beenden_'
'bau'
'bathrooms_'
'basiert_'
'ball_'
'author_'
'austerity_'
'ausländischen_'
'ausgehen_'
'ates_'
'argument_'
'are'
'approximately_'
'ant'
'annehmen_'
'angel'
'angegebenen_'
'ange'
'anf'
'ambitious_'
'alternatives_'
'alis'
'ain_'
'ain'
'adequate_'
'aci'
'aba'
'Zustand_'
'Zahlen_'
'Will_'
'Wien_'
'Where_'
'Webseite_'
'Wald'
'Wachstums'
'WE'
'Vorstellung_'
'Voraussetzung_'
'Vice_'
'Vi'
'Veränderung_'
'Verteidigungs'
'Verst'
'Verringerung_'
'Verbot_'
'Valencia_'
'Val'
'Uni'
'UR'
'Titel_'
'The'
'Thailand_'
'Syrian_'
'Switzerland_'
'Super'
'Stärke_'
'Straf'
'Stra'
'Steuerzahler_'
'Stellungnahme_'
'Star'
'Spa'
'Ski'
'Similarly_'
'Sierra_'
'Shanghai_'
'Sep'
'Schutz'
'Scheitern_'
'Sam'
'Russlands_'
'Runde_'
'Roll'
'Rei'
'Rechten_'
'Ratspräsidentschaft_'
'Quellen_'
'Prinzip_'
'Premier_'
'Preisen_'
'Plat'
'Place_'
'Pat'
'Para'
'Orten_'
'Organe_'
'Once_'
'OK_'
'Ne'
'Natur'
'Nacht_'
'Märkten_'
'Mon'
'Ministerpräsident_'
'Menschenrechts'
'Menschen'
'Medi'
'Martin_'
'MS_'
'ME'
'Luc'
'Loc'
'Licht_'
'Lebens_'
'Laut_'
'LONDON_'
'LL'
'Kulturen_'
'Kre'
'Konvention_'
'Konsequenzen_'
'Jordan_'
'Jedes_'
'Jede_'
'Jean_'
'Jahrzehnt_'
'Inn_'
'Immobilien'
'Ihres_'
'IP'
'Hi'
'Herstellung_'
'Herrschaft_'
'Having_'
'Hauptbahnhof_'
'Großteil_'
'Gew'
'Ges'
'Gerichte_'
'Georgia_'
'General'
'Ge'
'Gas_'
'GNU_'
'GA'
'Fuß_'
'Freuen_'
'Foto'
'Finanzierungs'
'Fernseh'
'Fer'
'Fenster_'
'Fas'
'Experten_'
'Energy_'
'Elemente_'
'ES_'
'Durch'
'Does_'
'Democratic_'
'Dass_'
'Cyprus_'
'College_'
'Chris_'
'Card_'
'Burma_'
'Burg'
'Bur'
'Bulgarien_'
'Buch'
'Blo'
'Beschluss_'
'Bereitschaft_'
'Beiträge_'
'Beide_'
'Be'
'Bars_'
'Armen_'
'Arm'
'Anpassung_'
'Anlage_'
'And'
'Ambiente_'
'Alles_'
'All'
'Air'
'Action_'
'Abst'
'Abe_'
'A3'
'?'
'97_'
'700_'
'50'
'47_'
'26'
'193'
'187'
'09_'
'02'
'.“_'
'): _'
'({{_'
'('
'''_'
'' '
'$_'
'”'
'’, _'
'‘_'
'р'
'š'
'üsse_'
'überw'
'übernommen_'
'´_'
' – _'
'zweifellos_'
'zer'
'zeiten_'
'zeichen_'
'zar'
'yp'
'y'
'wood_'
'wirkliche_'
'wiederholen_'
'werte_'
'waters_'
'wake_'
'vorher_'
'vorbei_'
'volume_'
'vit'
'virtually_'
'vi'
'verursacht_'
'verteilt_'
'verstanden_'
'versi'
'vern'
'valid_'
'urge_'
'uren_'
'unterge'
'uncertainty_'
'ul'
'uc'
'tun'
'tri'
'transportation_'
'tons_'
'time'
'tie'
'tens_'
'tea_'
'tari'
'tackle_'
'systemen_'
'surf'
'sum_'
'suitable_'
'successfully_'
'succeeded_'
'stärkere_'
'strike_'
'steigende_'
'sso'
'sse'
'spect'
'specified_'
'soil_'
'sit_'
'sharply_'
'sexual_'
'selbst'
'secret_'
'sd'
'scientists_'
'sches_'
'ruhig_'
'rom'
'ride_'
'richtlinie_'
'rg'
'rfen_'
'rf'
'returns_'
'respected_'
'reserve_'
'res'
'requirement_'
'represented_'
'repa'
'rent'
'remarkable_'
'rel'
'reich_'
'rei'
'regionaler_'
'reflection_'
'recognized_'
'reaction_'
'quit'
'quantitative_'
'prospect_'
'proposes_'
'proceedings_'
'prec'
'pose_'
'populations_'
'plenary_'
'pit'
'photograph'
'phones_'
'passengers_'
'passenger_'
'outstanding_'
'ously_'
'ought_'
'orders_'
'ong_'
'offiziell_'
'offene_'
'occurred_'
'ny_'
'nti'
'notice_'
'not'
'normalen_'
'nord'
'noise_'
'nnen_'
'nken_'
'nke'
'niedrigen_'
'nicht'
'ngs_'
'ner'
'natur'
'na'
'mountains_'
'mmel'
'mittels_'
'mittel'
'messen_'
'mer'
'men'
'medicines_'
'me'
'mb'
'marquis_'
'mann_'
'manager_'
'magnificent_'
'ländern_'
'ls'
'like'
'ließen_'
'lie'
'length_'
'lam'
'kraft_'
'komp'
'kol'
'km'
'klein_'
'kes_'
'kernel_'
'karte_'
'jüngste_'
'issued_'
'israelische_'
'iso'
'isi'
'iron_'
'involves_'
'intelligence_'
'insufficient_'
'insist_'
'input_'
'implies_'
'illi'
'idi'
'ide'
'holds_'
'hit'
'hinder'
'hierbei_'
'heraus'
'hed_'
'hearing_'
'harmful_'
'ham_'
'griechische_'
'gn'
'gewähren_'
'gewa'
'gespielt_'
'gese'
'ges'
'geplant_'
'gelöst_'
'gelungen_'
'gek'
'gardens_'
'fördert_'
'freuen_'
'formen_'
'finde_'
'films_'
'filled_'
'festgelegt_'
'fest'
'fare_'
'familiar_'
'failures_'
'facilitate_'
'excess_'
'exceptional_'
'este'
'esta'
'ess'
'esch'
'eröffnet_'
'erstmals_'
'erreichbar_'
'erfüllt_'
'ered_'
'ere'
'erbe'
'entsch'
'enten_'
'enjoyed_'
'eni'
'enhanced_'
'engine_'
'enabled_'
'emp'
'emotional_'
'ell'
'elite_'
'einerseits_'
'eh'
'egen_'
'ege'
'eco'
'earth_'
'durch'
'dritte_'
'dispute_'
'disco'
'dic'
'destination_'
'demonstrate_'
'def'
'dd'
'critics_'
'copyright_'
'cope_'
'convert_'
'containing_'
'contained_'
'constant_'
'cken'
'chu'
'centres_'
'cells_'
'cc'
'castle_'
'capita_'
'buying_'
'bul'
'bri'
'bie'
'beträgt_'
'betroffenen_'
'beste'
'besitzt_'
'beschränken_'
'beschleunigen_'
'bemühen_'
'bekommt_'
'beige'
'behoben_'
'behaupten_'
'behandeln_'
'bedeutenden_'
'backed_'
'ausl'
'ausgesprochen_'
'aufmerksam_'
'attractions_'
'attitude_'
'ator_'
'ast'
'assure_'
'aspect_'
'app'
'anywhere_'
'ante_'
'angesprochen_'
'anderswo_'
'amenities_'
'aggressive_'
'adults_'
'adapt_'
'acts_'
'actors_'
']]'
'Zugleich_'
'Zug'
'Zimmern_'
'Zahlungs'
'Yo'
'Würde_'
'Währungen_'
'Wirtschafts_'
'Widerstand_'
'Wesentlichen_'
'Welche_'
'Wei'
'Vorsitzenden_'
'Volkes_'
'Verz'
'Versorgung_'
'Verlust_'
'Verkehr_'
'Verhandlungs'
'Verfolgung_'
'Verbündeten_'
'Vel'
'Valley_'
'Ums'
'USD_'
'Trotzdem_'
'Tiere_'
'Three_'
'Third_'
'Thanks_'
'Test'
'Terrasse_'
'Termin'
'Telefon'
'Tar'
'Tages_'
'TO'
'TH'
'Support_'
'Suite_'
'Sub'
'Stunde_'
'Statt_'
'Sony_'
'Soldaten_'
'Sind_'
'Set_'
'Sektoren_'
'Science_'
'Schule_'
'Schiff_'
'Sc'
'SM'
'SA_'
'River_'
'Rhetorik_'
'Regional_'
'RT'
'Projekt'
'Produkten_'
'Potenzial_'
'Pol'
'Poker_'
'Planeten_'
'Pas'
'Pala'
'PRO'
'PD'
'Off'
'Ob_'
'Nu'
'Nonetheless_'
'National'
'NGOs_'
'Mus'
'Mos'
'Morocco_'
'Module_'
'Mitgliedstaat_'
'Met'
'Menü_'
'Menschheit_'
'Mark_'
'Mac_'
'Len'
'Leitung_'
'Lebensmittel'
'Lang'
'Küste_'
'Kritiker_'
'Koalition_'
'Kluft_'
'Klasse_'
'Kir'
'Kilometer_'
'Kern'
'Ken'
'Kat'
'Justiz_'
'Jerusalem_'
'Japans_'
'Iraqi_'
'Intervention_'
'Index_'
'IS_'
'IL'
'IG'
'Hindernisse_'
'Henry_'
'Hea'
'Grundsatz_'
'Großen_'
'Gelder_'
'Geld'
'Gegenstand_'
'Gegen'
'GE'
'Führer_'
'Funds_'
'Fun'
'Freunde_'
'Fotos_'
'Fischerei_'
'Ferner_'
'Federation_'
'Eltern_'
'Ele'
'Education_'
'Ed'
'ET'
'Distribution_'
'Dis'
'Digital_'
'Desk_'
'Design'
'Des'
'Den'
'Declaration_'
'Constitutional_'
'Common_'
'Climate_'
'Cha'
'Captain_'
'Call'
'Bug'
'Blue_'
'Black_'
'Big_'
'Bewältigung_'
'Bevölkerungs'
'Beteiligung_'
'Bestandteil_'
'Berücksichtigung_'
'Bemerkung_'
'Beijing_'
'Auftrag_'
'Ap'
'Anst'
'Anschluss_'
'Anliegen_'
'Anleihen_'
'Anlass_'
'Angebote_'
'Anders_'
'Anbetracht_'
'Ai'
'Agrar'
'Agentur_'
'Acc'
'Ablehnung_'
'AS'
'AP'
':'
'79'
'237'
'23'
'1993_'
'1986_'
'00'
'-'
'); _'
') – _'
' !_'
'• _'
'’._'
'у'
'überaus_'
'ü'
'ör'
'älteren_'
' '
'zählt_'
'zugänglich_'
'zieht_'
'zentren_'
'zahl_'
'zahl'
'youth_'
'yo'
'ym'
'ye'
'wächst_'
'work'
'win'
'whereas_'
'western_'
'weitgehend_'
'warning_'
'wa_'
'vorlegen_'
'voraus_'
'voluntary_'
'voller_'
'voll'
'vis_'
'violent_'
'vin'
'verwe'
'verw'
'verteidigen_'
'versions_'
'verleihen_'
'verh'
'valuable_'
'ursprünglichen_'
'urs'
'unwi'
'unterzeichnet_'
'unions_'
'ungsbe'
'unf'
'undoubtedly_'
'umwelt'
'ult'
'ug'
'tätig_'
'tum_'
'tti'
'tter_'
'tte'
'tst'
'trag'
'tours_'
'tobacco_'
'tier'
'tic'
'threatening_'
'terrible_'
'tern'
'tennis_'
'temporary_'
'teams_'
'taten_'
'taste_'
'tables_'
'sver'
'surprise_'
'surface_'
'suggested_'
'subsequent_'
'stylish_'
'steuer'
'stelle_'
'stein_'
'spezielle_'
'speichern_'
'spe'
'sole_'
'soldiers_'
'sme'
'slo'
'sive_'
'shadow_'
'seri'
'senken_'
'sending_'
'scenario_'
'sauber_'
'sai'
'rly_'
'rightly_'
'rig'
'ri'
'revolutionary_'
'reu'
'reputation_'
'repeated_'
'renowned_'
'relief_'
'rein'
'regret_'
'registration_'
'rede'
'recommended_'
'recommendations_'
'recht'
'reagiert_'
'react_'
'rating_'
'rat_'
'rasche'
'ras'
'ranging_'
'ps'
'präsentiert_'
'profile_'
'produziert_'
'pressures_'
'pres'
'prepare_'
'possibly_'
'possibilities_'
'pla'
'ph'
'pen'
'pays_'
'password_'
'passieren_'
'pass'
'pal'
'pace_'
'owners_'
'overlooking_'
'ordered_'
'oppose_'
'opi'
'omm'
'ome'
'ology_'
'oll'
'ole'
'oh'
'offizielle_'
'obtained_'
'nunmehr_'
'non'
'nin'
'neighbouring_'
'namen_'
'nachge'
'multi'
'motor_'
'mother_'
'minor_'
'minimal_'
'mid'
'mes'
'mba'
'marks_'
'machines_'
'ländlichen_'
'lug'
'loved_'
'lounge_'
'lobby_'
'lieber_'
'letzter_'
'ler'
'lb'
'lag'
'lad'
'könne_'
'kö'
'kurz'
'kri'
'kre'
'knew_'
'klaren_'
'jemals_'
'jegliche_'
'ise'
'involvement_'
'invested_'
'introducing_'
'int'
'inl'
'inge'
'inde'
'incentive_'
'immense_'
'ila'
'ij'
'igu'
'iger'
'ified_'
'iet'
'households_'
'hielt_'
'heritage_'
'hergestellt_'
'heran'
'hardware_'
'gte_'
'größerer_'
'graphics_'
'granting_'
'gewonnen_'
'gesellschaft_'
'geschieht_'
'gerät_'
'gerichtet_'
'gent'
'generations_'
'gefördert_'
'gefährden_'
'geeignet_'
'geb'
'furnished_'
'fri'
'fossil_'
'financed_'
'fails_'
'factor_'
'fache'
'exploitation_'
'exclusion_'
'ewi'
'ever'
'evaluation_'
'eur_'
'etzt_'
'erstellen_'
'entscheidenden_'
'ente_'
'ensi'
'engagement_'
'ener'
'encouraging_'
'emerged_'
'emerge_'
'elli'
'ektor_'
'eite_'
'eit_'
'einzuführen_'
'einheitlichen_'
'eich'
'ehr'
'effektive_'
'edited_'
'edge_'
'eck'
'dung_'
'dream_'
'dre'
'direkte_'
'determination_'
'designs_'
'demokratischer_'
'demo'
'dead_'
'cut'
'cru'
'creates_'
'cosy_'
'corner_'
'conse'
'composed_'
'communist_'
'colours_'
'col'
'cks_'
'ción_'
'chain_'
'cen'
'cameras_'
'boot_'
'boom_'
'blue_'
'blieb_'
'bla'
'bewa'
'betreffenden_'
'beteiligt_'
'besorgt_'
'beschäftigt_'
'bela'
'beigetragen_'
'behaviour_'
'behauptet_'
'begins_'
'bedrooms_'
'ba_'
'az'
'ausländische_'
'ausgezeichnete_'
'attempted_'
'ationen_'
'ati'
'ass'
'articles_'
'arian_'
'ari_'
'applying_'
'appe'
'anzuzeigen_'
'ante'
'ano'
'angen_'
'amp'
'amongst_'
'amm'
'ama'
'am'
'alo'
'alcohol_'
'ak'
'ah_'
'aging_'
'affairs_'
'adjustments_'
'acy_'
'acting_'
'ack'
'ach'
'abzu'
'absch'
'Zusammenhalt_'
'Zusammen'
'Zugriff_'
'Zuge_'
'Zivilgesellschaft_'
'Zeitung_'
'Xi_'
'Währungsunion_'
'Wr'
'Winter_'
'Wikitravel_'
'Wiki'
'Weltkrieg_'
'Wal'
'Vorbe'
'View_'
'Viel'
'Vermögens'
'Update_'
'Traditionen_'
'Tonnen_'
'Ticket_'
'Tibet_'
'Ti'
'Tests_'
'Tau'
'Südkorea_'
'Sus'
'Sudan_'
'Studio_'
'Strasbourg_'
'Steigerung_'
'Staff_'
'Staatsanleihen_'
'Spezialitäten_'
'Special_'
'Spannungen_'
'Sou'
'Sitz_'
'Sho'
'Serie_'
'Sen'
'Sel'
'Sektors_'
'Schätzungen_'
'Schlussfolgerungen_'
'Sche'
'Sach'
'Saa'
'SU'
'SO'
'Rumänien_'
'Ruf_'
'Regulierung_'
'Regierungskonferenz_'
'Rea'
'Rather_'
'Ram'
'RD'
'Que'
'Project_'
'Presse'
'Power_'
'Positionen_'
'Politik'
'Pläne_'
'Pay'
'Palästina_'
'Pal'
'Pakete_'
'PSE_'
'PL_'
'Ober'
'OECD_'
'Netzwerk_'
'Nero_'
'NI'
'Mädchen_'
'Mur'
'Morgen_'
'Moo'
'Mobile_'
'Mittelpunkt_'
'Mitgliedsstaaten_'
'Millennium_'
'Mensch_'
'Mehr_'
'Mehr'
'Meanwhile_'
'Mau'
'Maria_'
'Malaria_'
'Mah'
'Maastricht_'
'Luft_'
'Lie'
'LabVIEW_'
'Küsten'
'Korean_'
'Koordinierung_'
'Kooperation_'
'Kongress_'
'Kohle'
'Kim_'
'Keine_'
'Karten_'
'KE'
'Jahrzehnte_'
'Iranian_'
'Interessen'
'Institution_'
'Innenstadt_'
'Indonesia_'
'IM'
'IF'
'IA'
'Hungary_'
'Hol'
'Hersteller_'
'Has'
'Haftung_'
'HTML_'
'Gründung_'
'Growth_'
'Governments_'
'Golden_'
'Glauben_'
'Gesetzgebung_'
'Gerechtigkeit_'
'Gef'
'Gedanken_'
'Gebiete_'
'Garden_'
'Gara'
'Ga'
'Fälle_'
'Fur'
'Freude_'
'Fort'
'Format_'
'Fle'
'Finnish_'
'Fil'
'Fat'
'Fal'
'Existenz_'
'Est'
'Einzel'
'Einwohner_'
'Effizienz_'
'EM'
'EF'
'Deutschen_'
'Des_'
'Department_'
'Denmark_'
'Dec'
'De'
'Davos_'
'Darfur_'
'Cy'
'Cro'
'Cra'
'Civil_'
'Chinesen_'
'Camp'
'Cab'
'CE_'
'CC'
'Börse_'
'Budgets_'
'Bru'
'Box_'
'Bla'
'Besucher_'
'Besitz'
'Beschlüsse_'
'Belgium_'
'Beitritts'
'Balkans_'
'Bahnhof_'
'Bag'
'B5_'
'Automobil'
'Aufnahme_'
'Atomwaffen_'
'At'
'Are_'
'Arbeiten_'
'Anzeichen_'
'Anti_'
'Ansichten_'
'Anlagen_'
'Anhänger_'
'Alter_'
'Abhängigkeit_'
'78_'
'72_'
'55_'
'43_'
'38_'
'31'
'27'
'1945_'
'180_'
'17'
'04_'
'.“ _'
'...._'
''''
'" '
' ), _'
' $ _'
'” – _'
'” (_'
'л'
'е_'
'ž'
'üssen_'
'üh'
'überzeugen_'
'überrascht_'
'ó_'
'ña_'
'ét'
'änder_'
'ßt_'
'ßer'
'Übereinkommen_'
'Österreich_'
'Öffnung_'
'{{_'
'zwei'
'zus'
'zulassen_'
'zin'
'yi'
'yer_'
'woman_'
'willingness_'
'wife_'
'welchen_'
'ware_'
'wahr'
'vorliegenden_'
'voran'
'vert'
'verschärft_'
'verschiedener_'
'verringert_'
'verhindert_'
'venture_'
'vel'
'ux_'
'ust_'
'usi'
'ursprünglich_'
'uri'
'urgently_'
'upgrade_'
'unterschiedliche_'
'untern'
'unstable_'
'unpa'
'universities_'
'undi'
'un'
'uld'
'uer_'
'uel'
'tru'
'troops_'
'trip'
'trial_'
'towns_'
'top'
'tm'
'tisch_'
'threshold_'
'tested_'
'territories_'
'teile_'
'teachers_'
'taxpayers_'
'tas'
'targeted_'
'tant'
'sustainability_'
'suites_'
'sucht_'
'ständigen_'
'stä'
'studio_'
'stocks_'
'steel_'
'statistics_'
'stadt_'
'stabile_'
'spezifischen_'
'spezifische_'
'spar'
'spaces_'
'sounds_'
'sor'
'some'
'sna'
'smooth_'
'smo'
'sli'
'sleep_'
'simultaneously_'
'sim'
'selben_'
'seeing_'
'sec'
'schöne_'
'schutz'
'sau'
'sand'
'san'
'sam_'
'run'
'ruled_'
'ruhigen_'
'rts_'
'roll_'
'rken_'
'rk'
'ress_'
'respective_'
'reso'
'rer'
'requiring_'
'requested_'
'representing_'
'repeatedly_'
'render'
'rend'
'remarks_'
'religiöse_'
'regarded_'
'reg'
'rechtzeitig_'
'rechtlichen_'
'recall_'
'realen_'
'reale_'
'rapporteurs_'
'ragen_'
'punkte_'
'providers_'
'prominent_'
'progressive_'
'professionals_'
'produktion_'
'prim'
'prevented_'
'preise_'
'predict_'
'praktische_'
'politically_'
'ple'
'planung_'
'pic'
'phon'
'pet'
'performed_'
'par_'
'pack'
'oy'
'ote'
'organization_'
'ora_'
'ona'
'ological_'
'od_'
'näher_'
'ny'
'nto'
'nten_'
'nst'
'nom'
'nm'
'nk'
'nik_'
'neun_'
'ndo_'
'ndern_'
'nationalist_'
'narrow_'
'moralische_'
'mod'
'mix_'
'mistake_'
'ministeri'
'mess'
'meal_'
'mati'
'mas'
'mali'
'mainstream_'
'losen_'
'lor'
'log'
'load_'
'llt_'
'ller_'
'llen'
'leu'
'lets_'
'leistungen_'
'legend'
'legally_'
'lat'
'lasting_'
'langfristigen_'
'landscape_'
'lac'
'kti'
'kosten'
'kop'
'kin'
'killing_'
'ki'
'jährlichen_'
'justified_'
'japanischen_'
'jahr_'
'ively_'
'iv_'
'isten_'
'internen_'
'intentions_'
'installiert_'
'indi'
'incomes_'
'inci'
'impe'
'imp'
'ik'
'igt_'
'ignore_'
'iel_'
'iche_'
'hydro'
'humans_'
'hu'
'hte'
'hre'
'holen_'
'hle'
'hire_'
'hi_'
'heutige_'
'herzlich_'
'herrscht_'
'hen'
'heavily_'
'has'
'handel_'
'grant_'
'gos'
'golden_'
'gle'
'gewo'
'gestern_'
'gesellschaften_'
'geschrieben_'
'gesch'
'genetic_'
'gel_'
'gehalten_'
'gebiet_'
'gangen_'
'functioning_'
'frische'
'fourth_'
'forest_'
'focusing_'
'flying_'
'flu'
'floors_'
'fitness_'
'finish_'
'ferner_'
'fat'
'extrem_'
'exposed_'
'expanded_'
'evi'
'etz'
'esti'
'erzeugt_'
'error_'
'erleichtern_'
'erlangen_'
'erb'
'eo_'
'enz'
'entsteht_'
'entschlossen_'
'enterprise_'
'entering_'
'ening_'
'enhance_'
'enge_'
'enemies_'
'endo'
'enco'
'enb'
'emb'
'electric_'
'einzig_'
'einverstanden_'
'eingegangen_'
'eigenes_'
'eigener_'
'egung_'
'eat_'
'dt_'
'drei'
'dominated_'
'doctrine_'
'doctors_'
'doctor_'
'distinguish_'
'disk_'
'disasters_'
'difficulty_'
'departure_'
'defizit_'
'definitely_'
'dea'
'de'
'dates_'
'cu'
'ct'
'cro'
'cop'
'contents_'
'conta'
'constructive_'
'consistent_'
'conduct_'
'comply_'
'compliance_'
'com'
'colour'
'cleaning_'
'checking_'
'channel_'
'cell_'
'cart'
'carrying_'
'cad'
'bs_'
'bs'
'bru'
'broader_'
'bot_'
'bot'
'black'
'betreiben_'
'betonen_'
'beseitigen_'
'beschließen_'
'berühmten_'
'bere'
'beraten_'
'beobachten_'
'bel_'
'bekam_'
'beeinflusst_'
'beauty_'
'beantworten_'
'bauen_'
'basieren_'
'barriers_'
'backing_'
'autumn_'
'auto'
'auswählen_'
'ausgaben_'
'auftreten_'
'auftr'
'aufgegeben_'
'ata'
'assumed_'
'asi'
'arten_'
'arrived_'
'arrested_'
'array_'
'ards_'
'architecture_'
'anten_'
'anschließend_'
'anhand_'
'angest'
'angesehen_'
'anerkannt_'
'alter_'
'alongside_'
'allo'
'agr'
'adopting_'
'adi'
'ada'
'acknowledge_'
'achen_'
'accused_'
'abuse_'
']'
'Zwei'
'Zuständigkeit_'
'Zusatz'
'Zeitalter_'
'Ze'
'Wolf'
'Wirtschaftss'
'William_'
'Wild'
'Wikicars_'
'Wider'
'Wi_'
'Wi'
'White_'
'Weiß'
'Webseiten_'
'Wahrnehmung_'
'Vorsch'
'Vorausschau_'
'Volkswirtschaft_'
'Viertel_'
'Vielen_'
'Versuche_'
'Verk'
'Verfügbarkeit_'
'Verd'
'Ve'
'Use_'
'Unterkunft_'
'Une'
'Umgang_'
'Truppen_'
'Treaties_'
'Tip_'
'Terror_'
'Ter'
'Tee'
'Technology_'
'Tat'
'Tages'
'TER'
'System'
'Swiss_'
'Sun'
'Strukturfonds_'
'Structural_'
'Straßen'
'Str'
'Start'
'Standort_'
'Sommer'
'Situationen_'
'Sid'
'Show_'
'Selbstverständlich_'
'Sein_'
'Sea'
'Schuld'
'Scho'
'Schnell'
'Schlag'
'Schei'
'Schaden_'
'Sauna_'
'SD'
'Ruhe_'
'Rou'
'Roman'
'Rock_'
'Risiko'
'Rettungs'
'Reagan_'
'Rand_'
'Qui'
'Praxis_'
'Portuguese_'
'Politikern_'
'Politiken_'
'Polish_'
'Point_'
'Otherwise_'
'Opera_'
'Nord_'
'Nobel_'
'Niederlage_'
'Nic'
'NT'
'NO'
'Muster_'
'Monopol'
'Mittelmeer'
'Minute_'
'Micro'
'Methoden_'
'Mei'
'May'
'Market_'
'Mark'
'Mani'
'Mangel_'
'MB_'
'Logik_'
'Likewise_'
'Lib'
'Lernen_'
'Lei'
'Lauf'
'LateRooms_'
'Lake_'
'Künstler_'
'Kunden'
'Konvents_'
'Konto_'
'Konsum_'
'Konsum'
'Konflikten_'
'Kon'
'Kompromiss'
'Kauf'
'Kampf'
'KO'
'Joseph_'
'Jones_'
'Ironi'
'Indonesien_'
'Import'
'ISO_'
'ISIS_'
'Hollande_'
'Hir'
'Helsinki_'
'Hei'
'Hauses_'
'HI'
'Guests_'
'Griechenlands_'
'Gr'
'Gir'
'Geschwindigkeit_'
'Georg'
'Gentoo_'
'GS'
'GI'
'Freizeit'
'Frank_'
'Force_'
'For'
'Finanzsystem_'
'Fi_'
'Festlegung_'
'Fernsehen_'
'Fehl'
'Faktor_'
'FT'
'Eu'
'Ess'
'Erwachsene_'
'Erk'
'Ents'
'Empfehlungen_'
'Emissions'
'Eg'
'Dubai_'
'Direkt'
'Delegation_'
'Darin_'
'DER_'
'Country_'
'Communist_'
'Colo'
'Chávez_'
'Chirac_'
'Cat'
'Cas'
'Cambridge_'
'Cal'
'CS'
'CON'
'CH'
'CE'
'CA_'
'Boot_'
'Blut'
'Besorgnis_'
'Bern'
'Bemerkungen_'
'Bedrohungen_'
'Band'
'BR'
'Ave'
'Authority_'
'Australia_'
'Ausführungen_'
'Assembly_'
'Ari'
'Arch'
'Annehmlichkeiten_'
'Ann'
'Angriffe_'
'Ala'
'Airlines_'
'AU'
'AL'
'90'
'56_'
'2020_'
'200'
'189'
'182'
'01'
'. „_'
''' (_'
'&#_'
' ,,_'
'… _'
'–_'
'м'
'з'
'überh'
'öt'
'éa'
'äten_'
'ät'
'är_'
'ält'
'ähr'
'ähnlich_'
'äge_'
'Übrigen_'
'Überprüfung_'
'Überg'
'  '
'}} **{{_'
'zuf'
'zie'
'zes_'
'zerstört_'
'zahlt_'
'yr'
'yg'
'xa'
'wünsche_'
'wunder'
'wirk'
'whilst_'
'wenden_'
'well'
'welcoming_'
'web'
'watch_'
'walls_'
'wal'
'vorgenommen_'
'vollständige_'
'vollkommen_'
'vie'
'victim_'
'versorgung_'
'versichern_'
'versetzt_'
'verdienen_'
'vent'
'vely_'
'ut'
'unterstützte_'
'unterstütze_'
'unterliegen_'
'unter'
'unt'
'uni'
'ungs_'
'unden_'
'uncertain_'
'unabhängigen_'
'ump'
'umgeben_'
'ular_'
'ufen_'
'ude'
'tö'
'tze'
'ttel'
'träger_'
'tra_'
'tour'
'tot'
'ton'
'tiv'
'tions'
'til'
'ticket_'
'threatened_'
'tha'
'texts_'
'tes'
'terrorists_'
'tern_'
'teri'
'tera'
'teilnehmen_'
'tbar'
'taxi_'
'tar_'
'tal'
'sé'
'switch_'
'swi'
'surely_'
'summe'
'subs'
'string_'
'sten'
'stem_'
'staaten_'
'ssu'
'spoken_'
'sph'
'sp'
'sorgt_'
'sodass_'
'sobald_'
'sit'
'sicherheit_'
'shortage_'
'shop_'
'sheet_'
'serving_'
'sensible_'
'sens'
'sehe_'
'seg'
'see'
'schön_'
'schätzen_'
'schweren_'
'schutz_'
'schlimmsten_'
'schlechte_'
'schl'
'schein'
'rre'
'row_'
'rke'
'rk_'
'rival'
'ria_'
'rhetoric_'
'revers'
'ress'
'respects_'
'resource_'
'reserved_'
'rescue_'
'repeat_'
'rent_'
'renoviert_'
'remo'
'rein_'
'reich'
'refusal_'
'red'
'recover_'
'recommendation_'
'rechten_'
'rder'
'rch'
'rational_'
'ratifiziert_'
'rati'
'radi'
'rach'
'qui_'
'qualified_'
'q_'
'pursuit_'
'pu'
'pti'
'prüf'
'prozess_'
'programm'
'presents_'
'power'
'potenziellen_'
'porta'
'por'
'polls_'
'plötzlich_'
'pli'
'persönliche_'
'pens'
'pec'
'partnerships_'
'ost'
'ossen_'
'ort'
'orit'
'oriented_'
'organized_'
'organisationen_'
'ore_'
'optimal_'
'opti'
'ont'
'onal_'
'ock'
'occupation_'
'obstacles_'
'observers_'
'nz'
'ntie'
'nter'
'nted_'
'nomi'
'niveau_'
'nist'
'nish'
'niedrig_'
'nic'
'netz_'
'nde'
'nces_'
'nahm_'
'mä'
'mos'
'mor'
'mono'
'moni'
'moments_'
'modify_'
'mode'
'mixed_'
'milk_'
'meters_'
'messages_'
'mere_'
'menschlichen_'
'mein'
'medicine_'
'med_'
'mat'
'male_'
'lä'
'lunch_'
'lter_'
'lots_'
'llig'
'lle'
'lity_'
'lichkeiten_'
'liches_'
'lic'
'library_'
'lev'
'lenken_'
'lec'
'last'
'langsam_'
'lake_'
'ky_'
'kun'
'ktor'
'ktions'
'ks'
'kr'
'kov'
'korrekt_'
'konkreten_'
'knapp_'
'klicken_'
'kleinere_'
'kes'
'kers_'
'ken'
'judge_'
'journey_'
'ji_'
'jam'
'itte'
'irtschaft'
'involving_'
'investitionen_'
'investigation_'
'ini'
'informal_'
'inflows_'
'individuelle_'
'impression_'
'ika'
'ignored_'
'ies'
'iegen_'
'id'
'hung_'
'hot'
'hopes_'
'hood_'
'holidays_'
'hof'
'hnen_'
'historisch_'
'hingewiesen_'
'hill_'
'hilfe_'
'herauszu'
'heraus_'
'hee'
'handling_'
'handle_'
'gäbe_'
'gt'
'größeres_'
'girls_'
'gg'
'gestiegen_'
'gesetz'
'gesellschaftlichen_'
'geringere'
'gera'
'geprüft_'
'genügend_'
'generate_'
'gener'
'geld'
'geboten_'
'geboren_'
'gat'
'gallery_'
'gaben_'
'foundations_'
'fortsetzen_'
'forthcoming_'
'fort_'
'ford_'
'football_'
'fleet_'
'fis'
'ffi'
'ffe'
'festzustellen_'
'festen_'
'falsche_'
'fach'
'ey'
'extremist'
'extra'
'explicitly_'
'expand_'
'existieren_'
'executive_'
'exa'
'evo'
'eut'
'erwiesen_'
'ersetzt_'
'erreichte_'
'err'
'ernsthaft_'
'erlebt_'
'erkannt_'
'ergriffen_'
'ep_'
'entw'
'enger_'
'energie_'
'elt_'
'eld_'
'ekt'
'eise_'
'eingesch'
'ehemalige_'
'effektiv_'
'een_'
'ee'
'edi'
'eau_'
'earned_'
'durchführen_'
'dropped_'
'drivers_'
'dramatically_'
'dos_'
'div'
'disposal_'
'displayed_'
'diskutieren_'
'dictatorship_'
'dialog_'
'deswegen_'
'design'
'describes_'
'describe_'
'derzeitige_'
'department_'
'denselben_'
'demonstrations_'
'demonstrated_'
'delighted_'
'delicious_'
'dee'
'dedicated_'
'decorated_'
'declare_'
'debian_'
'deadline_'
'davor_'
'dark_'
'dam'
'cul'
'ctions_'
'count_'
'cou'
'constraints_'
'considerations_'
'comparison_'
'claiming_'
'cil'
'ci_'
'chw'
'chr'
'chief_'
'chel'
'chef_'
'charm'
'chaft_'
'careful_'
'camps_'
'calendar_'
'busy_'
'buses_'
'bug_'
'buchen_'
'bright_'
'brief_'
'bezieht_'
'beweisen_'
'bestätigt_'
'bestehende_'
'bericht_'
'benefited_'
'bell'
'bekämpfung_'
'begun_'
'begl'
'bat'
'bahn_'
'awareness_'
'award_'
'avoided_'
'aufh'
'aufgeführt_'
'asiatischen_'
'ase_'
'artistic_'
'aro'
'arn'
'arkt'
'ark'
'arbitrary_'
'approval_'
'appropriations_'
'apparent_'
'ape'
'ants_'
'anniversary_'
'anhaltenden_'
'angemessene_'
'anc'
'amp_'
'ambition_'
'alter'
'aktuell_'
'ag'
'aftermath_'
'adult_'
'admit_'
'adjusted_'
'adds_'
'adaptation_'
'act'
'accepting_'
'acceptance_'
'acc'
'abs'
'aben_'
'Zoll'
'Währungsfonds_'
'Wä'
'Wit'
'Wissenschaftler_'
'Wird_'
'Winter'
'Werten_'
'Weltb'
'Welcome_'
'Weit'
'We'
'Ware_'
'Waffen'
'Vorsitz_'
'Vorschlags_'
'Vorfeld_'
'Voll'
'Versprechen_'
'Versch'
'Verle'
'Verlauf_'
'Vereinigte_'
'Vereinbarungen_'
'Verbrechen_'
'Van_'
'Using_'
'Up'
'Tätigkeit_'
'Tur'
'Traum_'
'Trans'
'Town_'
'Todesstrafe_'
'Ten'
'Technik_'
'Symbol_'
'Sunni_'
'Studenten_'
'Strukturreformen_'
'Struktur_'
'Straßburg_'
'Stor'
'Smith_'
'Sky'
'Sir'
'Sil'
'Sicherheitsrat_'
'Sicher'
'Should_'
'Schwäche_'
'Schweden_'
'Schon_'
'Schlüssel_'
'Schle'
'Schie'
'Sar'
'STA'
'Rose'
'Rob'
'Richard_'
'Ret'
'Republicans_'
'Rein'
'Rechnungs'
'Radio_'
'Qualitäts'
'Qua'
'Produktivität_'
'Prim'
'Presse_'
'Press_'
'Pole'
'Playa_'
'PP'
'PA'
'Nummer_'
'Notes_'
'Nokia_'
'Niemand_'
'Nicolas_'
'Netzwerk'
'Netz_'
'Net'
'Nei'
'Nan'
'Nachricht_'
'NG'
'NCC_'
'Mö'
'Myanmar_'
'Mini'
'Min'
'Meter_'
'Metall'
'Messe'
'Menschenhandel_'
'Maß_'
'Mass'
'Marketing_'
'Manager_'
'Mallorca_'
'MP'
'Ly'
'Lounge_'
'Liberal'
'Libanon_'
'Let'
'Lateinamerika_'
'Ladies_'
'König_'
'Kä'
'Kuba_'
'Krieges_'
'Kr'
'Komponenten_'
'Kit'
'Keynes_'
'Kauf_'
'Kara'
'Kandidaten_'
'KA'
'Islands_'
'Is'
'Invest'
'Internet'
'Image_'
'Hände_'
'Hum'
'Hostels_'
'Hongkong_'
'Herz'
'Have_'
'Haupts'
'Hall_'
'Halb'
'Hafen_'
'Haar'
'Gü'
'Gästen_'
'Gri'
'Grab'
'Gott_'
'Glücklicherweise_'
'Glas'
'Gesicht_'
'Generationen_'
'Gegens'
'Gar'
'GB_'
'Friendly_'
'Framework_'
'Formular_'
'Ford_'
'Flash_'
'Fischer_'
'Finanzp'
'Festival_'
'FI'
'Europa'
'Eta'
'Erstellung_'
'Errichtung_'
'Entschließungsantrag_'
'Energies'
'Emi'
'Einhaltung_'
'Einer_'
'Einbeziehung_'
'EP'
'EIB_'
'EC'
'Drei_'
'Dreh'
'Doppel'
'Die'
'Dia'
'Deswegen_'
'Description_'
'Demokratien_'
'Demokraten_'
'Dek'
'DS9_'
'Cu'
'Cruz_'
'Col'
'Cit'
'Christ_'
'Cher'
'Canon_'
'Can'
'California_'
'Bürgerinnen_'
'Börsen'
'Bulgaria_'
'Budapest_'
'Bri'
'Br'
'Bol'
'Bewegungen_'
'Betr'
'Benjamin_'
'Banken'
'Ausstattung_'
'Ausnahme'
'Ausmaß_'
'Auslands'
'Ausl'
'Aus'
'Aufstieg_'
'Aspekten_'
'Argumente_'
'Argument_'
'Area_'
'Angela_'
'Ana'
'Allianz_'
'AV'
'96_'
'63_'
'59_'
'54_'
'40'
'196'
'02_'
'%'
'“ (_'
'п'
'г'
'üchter'
'übertr'
'übernimmt_'
'ég'
'äts'
'ält_'
'älle_'
'Übergangs'
'Ökonomie_'
'Ängste_'
'zy'
'zunehmen_'
'zugrunde_'
'ysteme_'
'xt'
'wort_'
'wohl'
'with'
'wirksame_'
'wie'
'werfen_'
'weist_'
'waves_'
'wasser'
'wahlen_'
'vorzu'
'vol'
'vil'
'vieles_'
'vessels_'
'verteilung_'
'verschieden'
'versch'
'verr'
'vermutlich_'
'verhalten_'
'verb'
'varia'
'vari'
'var'
'uss'
'unusual_'
'untersucht_'
'untergraben_'
'unsch'
'united_'
'ungsp'
'underground_'
'undergo'
'unab'
'umso_'
'uen_'
'ue'
'täglichen_'
'tzung_'
'twin_'
'tur'
'tum'
'tub'
'ttle'
'troll'
'tritt_'
'trees_'
'trail'
'tracks_'
'tour_'
'tory_'
'topics_'
'tone_'
'tit'
'thousand_'
'theo'
'tells_'
'tel'
'tea'
'taxation_'
'tatsächlichen_'
'tali'
'tail'
'tabl'
'ta'
'sä'
'systematic_'
'swa'
'surviv'
'surprised_'
'supplementary_'
'superior_'
'successes_'
'subsequently_'
'stunning_'
'stream'
'stories_'
'stores_'
'stor'
'stops_'
'stischen_'
'stimulate_'
'stellten_'
'steigt_'
'staying_'
'starts_'
'stan'
'stammen_'
'stages_'
'ssion_'
'spin'
'spiel_'
'speziellen_'
'sozialer_'
'solar_'
'sm'
'slowdown_'
'sil'
'sicheren_'
'sichere_'
'sia'
'showed_'
'shock_'
'shed_'
'sent'
'selling_'
'seits_'
'seconds_'
'schrieb_'
'scha'
'scar'
'sake_'
'sah_'
'rö'
'rän'
'rz'
'rum'
'rte'
'ros'
'roll'
'rm_'
'rle'
'rkt_'
'rium_'
'rier'
'rie_'
'rid'
'ria'
'rge'
'restricted_'
'restored_'
'resolutions_'
'residence_'
'representation_'
'renminbi_'
'rem'
'regulators_'
'regul'
'regelmäßig_'
'refused_'
'reduziert_'
'recognised_'
'realer_'
'real'
'rdin'
'rarely_'
'rant'
'rah'
'quo_'
'queries_'
'qualifi'
'puts_'
'pun'
'psycho'
'proud_'
'prosperous_'
'promising_'
'proc'
'privileged_'
'prinzip_'
'prev'
'preserve_'
'pr'
'pools_'
'poet'
'platz'
'pin'
'pher'
'personenbezogene'
'perception_'
'peak_'
'ownership_'
'oste'
'ost_'
'ore'
'oran'
'opp'
'operates_'
'oper'
'ont_'
'om_'
'ole_'
'oin'
'ogi'
'oftmals_'
'objects_'
'object_'
'nung_'
'novel_'
'noti'
'notably_'
'normally_'
'nommen_'
'nn_'
'newspaper_'
'neuro'
'net'
'nent'
'ndung_'
'ndes_'
'nate'
'nal'
'nachhaltigen_'
'mü'
'murder_'
'mt_'
'movie_'
'modest_'
'mn'
'mitten_'
'miss'
'mine_'
'minds_'
'mil'
'mie'
'mi_'
'methoden_'
'mediat'
'meat_'
'mankind_'
'manage'
'malaria_'
'luc'
'lter'
'logic_'
'lock'
'lling_'
'lli'
'liefern_'
'lid'
'leichter_'
'lebt_'
'lebens'
'lde_'
'lc'
'lar'
'langem_'
'kten_'
'kritisiert_'
'kont'
'komme_'
'kne'
'kli'
'kennt_'
'kel_'
'justify_'
'jederzeit_'
'jedenfalls_'
'ize_'
'ite'
'ira_'
'ious_'
'ions'
'invite_'
'intends_'
'intend_'
'inten'
'instantly_'
'innovations_'
'info_'
'inclusion_'
'inadequate_'
'importantly_'
'imperative_'
'ile'
'ild_'
'igi'
'iffe'
'ideale_'
'hyper'
'hr_'
'honest_'
'home'
'holes_'
'hne'
'hinzufügen_'
'hidden_'
'heu'
'hervorragende_'
'hervorheben_'
'hence_'
'hem'
'hei'
'heads_'
'hal'
'haften_'
'haft_'
'gy_'
'gy'
'gul'
'guided_'
'gründen_'
'grundsätzlich_'
'großem_'
'grand_'
'gra'
'gr'
'gne_'
'gleichermaßen_'
'glass_'
'gl'
'gewisse'
'gewinn'
'getragen_'
'genuinely_'
'geni'
'geltenden_'
'gegen'
'gefährlich_'
'gef'
'gaining_'
'führer_'
'fur'
'funded_'
'frequency_'
'frau'
'fores'
'film'
'festge'
'fern'
'fas'
'farm_'
'far'
'fangen_'
'fan_'
'fan'
'fahr'
'facts_'
'factory_'
'fac'
'extraordinary_'
'exploit'
'expert_'
'exemption_'
'exe'
'exception_'
'evident_'
'esp'
'ert'
'ers'
'erre'
'erp'
'erla'
'erhöhte'
'erho'
'erhielt_'
'erheben_'
'erba'
'entwurf_'
'entwickelte_'
'entstanden_'
'ention'
'enthalt_'
'enforcement_'
'ene'
'ende'
'encouraged_'
'empfangen_'
'elektronischen_'
'eintr'
'einrichtungen_'
'eingerichtete_'
'eingebracht_'
'eing'
'einf'
'eindeutige_'
'eht_'
'effekt'
'eer'
'ec'
'easing_'
'ea_'
'dürften_'
'duties_'
'dul'
'druck_'
'droh'
'dringende'
'dri'
'drawing_'
'down'
'doors_'
'dominant_'
'directory_'
'dig'
'desto_'
'desk_'
'description_'
'deposit_'
'denjenigen_'
'democracies_'
'delivery_'
'defeat_'
'declining_'
'decken_'
'dealt_'
'deals_'
'das'
'cz'
'cts_'
'cti'
'creditors_'
'covering_'
'countless_'
'corresponding_'
'correctly_'
'coordinated_'
'concentration_'
'coherent_'
'coe'
'codecision_'
'closing_'
'clause_'
'civilian_'
'chtet_'
'chte'
'chst'
'chlag'
'chie'
'chemical_'
'chas'
'chal'
'cent_'
'bä'
'brutale'
'breast_'
'bre_'
'bracht_'
'bought_'
'boot'
'bo_'
'billions_'
'bili'
'bewirken_'
'beweg'
'bert_'
'believes_'
'bel'
'behörde_'
'begründet_'
'beglückwünschen_'
'begegnen_'
'beeinflussen_'
'bedingungen_'
'bears_'
'band_'
'band'
'bai'
'ay_'
'awarded_'
'authors_'
'authoritarian_'
'auszus'
'auswirken_'
'ausw'
'aub'
'atte'
'atische'
'ational_'
'artists_'
'arte'
'ars_'
'arkt_'
'ari'
'arc'
'ara_'
'approaches_'
'appeared_'
'appearance_'
'apa'
'anstreben_'
'anl'
'angeh'
'andern'
'anda'
'alp'
'alb'
'aktive_'
'ak_'
'ahr'
'aged_'
'aft_'
'affecting_'
'advised_'
'acquired_'
'absolut_'
'abo'
'abb'
'Zwei_'
'Zusätzlich_'
'Zimmerservice_'
'Zerstörung_'
'Zen'
'Zei'
'XI'
'Wor'
'Wirtschaftswachstums_'
'Wiederherstellung_'
'Werkzeuge_'
'Werk_'
'Weltk'
'Weil_'
'Water'
'Wand'
'WM'
'Vorlage_'
'Vorgehen_'
'Video'
'Verteidigungspolitik_'
'Verr'
'Verhaltens'
'Verfahrens'
'Vater_'
'VER'
'Ut'
'User_'
'Ursachen_'
'Untersuchungen_'
'Uns_'
'Ung'
'US'
'Tool_'
'Tom'
'Tim'
'Throughout_'
'Texas_'
'Temple_'
'Teilnehmer_'
'Tausende_'
'Taten_'
'Tak'
'TO_'
'Sur'
'Stä'
'Streitkräfte_'
'Stimm'
'Stan'
'Spe'
'Souveränität_'
'Sing'
'Sign'
'Siehe_'
'Service'
'Serbien_'
'Senkung_'
'Semi'
'Section_'
'Sec'
'Schwellenländer_'
'Schr'
'Schloss_'
'Schlag_'
'Schatten_'
'Schalt'
'SG'
'Rücks'
'Rä'
'Rules_'
'Ris'
'Ric'
'Rest'
'Rent'
'Religion_'
'Ref'
'Ree'
'Rechtsstaatlichkeit_'
'Rec'
'Rats'
'Präsidentschaftswahl'
'Präsenz_'
'Protein'
'Produzenten_'
'Procedure_'
'Prob'
'Post_'
'Pos'
'Pont'
'Pis'
'Pes'
'Peace_'
'Past'
'Partnerschaften_'
'PO'
'PL'
'PI'
'PE'
'Original'
'Organization_'
'Offenheit_'
'Od'
'Obamas_'
'OS'
'OR'
'Normen_'
'None_'
'Nizza_'
'Nichtraucherzimmer_'
'Next_'
'Nat'
'NS'
'Männern_'
'Mächte_'
'Muslime_'
'Mou'
'Modern_'
'Missbrauch_'
'Minutes_'
'Ministerpräsidenten_'
'Milosevic_'
'Migration_'
'Mechanismus_'
'Material_'
'Maschinen_'
'Martin'
'Marktes_'
'Manhattan_'
'Manche_'
'Mana'
'Mala'
'Mad'
'MPEG_'
'MP3_'
'MM'
'Ltd_'
'Lis'
'Links_'
'Lim'
'Lehre_'
'Lehr'
'Legitimität_'
'Landwirte_'
'Lad'
'Lac'
'Lab'
'LIN'
'LE_'
'Können_'
'Kooperations'
'Kontrollen_'
'Konkurrenz_'
'Konjunktur'
'Komp'
'Kirche_'
'Kha'
'Kernel_'
'Kau'
'Kategorie_'
'Kata'
'Kampagne_'
'KORE_'
'Jugend'
'Jen'
'Jackson_'
'Jack'
'Ir'
'Internal_'
'Instruments_'
'Insgesamt_'
'Innen'
'Inf'
'Inc'
'Il'
'ION_'
'ID'
'IBM_'
'IB'
'Hü'
'Human'
'Hard'
'Hai'
'Güter_'
'Gut'
'Gulf_'
'Gua'
'Gh'
'Gewicht_'
'Gemeinschaften_'
'Gel'
'Gehminuten_'
'Gegend_'
'Geber'
'Garantie_'
'Ganz_'
'Games_'
'Gab'
'GR'
'Förder'
'Freunden_'
'Freiheiten_'
'Free'
'Fred'
'Food_'
'Flughäfen_'
'Flexibilität_'
'Fischerei'
'Fisch'
'Firefox_'
'Finland_'
'Ferienwohnung_'
'Fehler'
'Farben_'
'Family_'
'Exchange_'
'Eth'
'Erwärmung_'
'Erreichung_'
'Ern'
'Erbe_'
'Entscheidungs'
'Emp'
'Em'
'Element_'
'Einwanderer_'
'Einf'
'Eigenschaften_'
'Eigenheim'
'Edition_'
'ES'
'ER_'
'EN'
'EL_'
'EI'
'EG_'
'ED_'
'Dro'
'Dir'
'Dev'
'Deflation_'
'Defizite_'
'Darum_'
'DS'
'Creati'
'Cre'
'Cou'
'Clubs_'
'Client_'
'Chu'
'Chr'
'Cent'
'Cari'
'Cannes_'
'Brok_'
'Black'
'Bl'
'Bez'
'Bett'
'Betrieb_'
'Beobachter_'
'Bene'
'Ben_'
'Beispielsweise_'
'Beh'
'Begleit'
'Bedürfnissen_'
'Bed'
'Beamten_'
'Based_'
'Base_'
'Avi'
'Außenminister_'
'Ausr'
'Ausführung_'
'Auftr'
'Ast'
'Arabien_'
'Antworten_'
'Anonymous_'
'Amtszeit_'
'Alm'
'Allein_'
'Alle'
'Ali'
'Aktivität_'
'Aktionäre_'
'Abschnitt_'
'Absatz_'
'Abh'
'Abf'
'Abe'
'Ab_'
'ASEAN_'
'86_'
'82_'
'58_'
'53_'
'51_'
'35'
'28'
'1990s_'
'1980er_'
'185'
'183'
'1000_'
'04'
'. - _'
''', _'
'! '
' ?_'
' ; _'
' +_'
' + _'
' &#_'
' "'
'…"..._'
'…'
'ч'
'ütte'
'üstung_'
'üge_'
'ück'
'überwinden_'
'überwiegend_'
'überschreiten_'
'überraschend_'
'österreichischen_'
'ökonomischen_'
'öffentlicher_'
'év'
'éri'
'éc'
'è_'
'ändische'
'äl'
'äh'
'äg'
'Überzeugung_'
'Übernachtung_'
'Überdies_'
'Überblick_'
'Ö'
'· _'
'zz'
'zwingen_'
'zweiter_'
'zweit'
'zutiefst_'
'zuständigen_'
'zusch'
'zusammenarbeiten_'
'zukünftigen_'
'zugute_'
'zuge'
'zug'
'zle'
'zione_'
'zins'
'zers'
'zel'
'zahlungen_'
'yt'
'yn'
'yb'
'yan'
'xen'
'wü'
'wound'
'wn_'
'wl'
'wissenschaftliche_'
'wis'
'wirklichen_'
'winning_'
'wherever_'
'wettbewerbs'
'westliche_'
'welcomes_'
'wai'
'wahr_'
'vulnerability_'
'vr'
'voneinander_'
'void'
'virtual_'
'villages_'
'viertel_'
'viable_'
'vez_'
'verwi'
'verschaffen_'
'versa'
'vermittelt_'
'vermitteln_'
'vermi'
'vergi'
'verd'
'verboten_'
'verbl'
'verbindet_'
'verabschiedet_'
'ved_'
'uth'
'ute_'
'uss_'
'usch'
'urgency_'
'urg_'
'updated_'
'unz'
'unterscheiden_'
'uns'
'unilateral'
'ung'
'unentgeltlich_'
'undertake_'
'unan'
'umzu'
'umgekehrt_'
'umgehen_'
'umge'
'ultra'
'ultimate_'
'uis'
'uge'
'uft_'
'uf_'
'täts'
'tätigkeit_'
'tätig'
'typisch_'
'ty'
'twice_'
'twentieth_'
'tungen_'
'tude_'
'trou'
'travel'
'transformation_'
'transfers_'
'transaction_'
'transa'
'tranquil'
'tragic_'
'tough_'
'tigen_'
'tickets_'
'thumbnail_'
'thumb_'
'throw_'
'themes_'
'tet_'
'territorial_'
'terra'
'tely_'
'teilt_'
'techniques_'
'teaching_'
'tam'
'tall'
'süd'
'sy_'
'sv'
'supervision_'
'suited_'
'sufficiently_'
'student_'
'strukturellen_'
'strategie_'
'stored_'
'stimme_'
'stil'
'stieg_'
'ster'
'stars_'
'star'
'stake_'
'stagnation_'
'ssch'
'squa'
'spro'
'spre'
'spo'
'split_'
'spiel'
'spiegelt_'
'spanischen_'
'solches_'
'slu'
'slightly_'
'ske'
'ska'
'significance_'
'sig'
'sien_'
'sie'
'sicher'
'shortly_'
'sharp_'
'sey_'
'senden_'
'semi'
'screens_'
'score_'
'schwieriger_'
'schwerer_'
'schwach_'
'schuld'
'schrittweise_'
'schr'
'schm'
'schlicht_'
'schien_'
'schemes_'
'schau'
'satz_'
'sat'
'räum'
'rungen_'
'rst'
'rov'
'routes_'
'rounds_'
'rolle_'
'rock_'
'robust_'
'riti'
'risen_'
'rip'
'ring'
'right'
'riffen_'
'rica'
'ric'
'rh'
'revisi'
'reverse_'
'reveal_'
'retirement_'
'reta'
'renewed_'
'rek'
'regulated_'
'refers_'
'reduzieren_'
'rechtliche_'
'realized_'
'realize_'
'reactions_'
'rau'
'ratio_'
'rail_'
'rahmen_'
'rage_'
'quart'
'q'
'pushing_'
'province_'
'projekte_'
'produces_'
'proceed_'
'privacy_'
'pris'
'principal_'
'practically_'
'possess'
'poses_'
'play'
'planen_'
'pipeline_'
'pho'
'philosophy_'
'pharmaceutical_'
'pf'
'perfekt_'
'peoples_'
'pensions_'
'partition_'
'parti'
'parlamentarischen_'
'parameters_'
'pala'
'oth'
'ot'
'organiz'
'organisiert_'
'organis'
'ores_'
'ordnungsgemäß_'
'optional_'
'ops_'
'operated_'
'opens_'
'openness_'
'opa'
'oo_'
'olo'
'officially_'
'ode'
'oci'
'observations_'
'ober'
'nze'
'nue'
'nse'
'nowadays_'
'notwendige_'
'notes_'
'norm'
'nobody_'
'nni'
'nn'
'nit'
'ning'
'ngs'
'nett'
'negativen_'
'nali'
'nahe'
'nachhaltig_'
'nachdrücklich_'
'müsse_'
'mé'
'märkte_'
'mpo'
'mp_'
'mou'
'monet'
'mmen'
'mitge'
'meaningful_'
'mber'
'max_'
'masse'
'marine_'
'manu'
'manifest'
'mand'
'mal'
'makers_'
'lösung_'
'länd'
'lte_'
'lowering_'
'lohn'
'lock_'
'llo'
'liti'
'literature_'
'listings_'
'lin'
'lieb'
'liberalization_'
'leute_'
'lawyers_'
'law'
'laufenden_'
'langfristig_'
'lager_'
'label'
'künftig_'
'kul'
'koreanische'
'kontextuellen_'
'kontextuell_'
'kommen'
'klima'
'jer'
'jahr'
'ix_'
'ive'
'ising_'
'ios'
'ione'
'io'
'inva'
'instructions_'
'institutionelle_'
'inst'
'ink'
'infected_'
'incredible_'
'inc'
'inability_'
'immt_'
'ilit'
'ike'
'ignoriert_'
'if'
'ieß'
'ient'
'iehen_'
'ici'
'ichts'
'ica_'
'ial'
'hör'
'hy_'
'hoping_'
'honour_'
'hne_'
'hinzufugen_'
'hier'
'hie'
'hes_'
'herunterladen_'
'here'
'heits'
'heat_'
'healthy_'
'headed_'
'hast_'
'hart_'
'harm_'
'harder_'
'gültige'
'guard'
'gu'
'gree'
'grand'
'grammatisch_'
'got'
'gon'
'gkeit_'
'gin'
'gewiss_'
'gestr'
'gestaltet_'
'geringer_'
'generous_'
'generell_'
'gene'
'gemeinschaft_'
'geme'
'gem'
'gelingen_'
'gefragt_'
'gebildet_'
'gebaut_'
'gear'
'fügen_'
'fun'
'ftig_'
'ften_'
'fristige'
'freundliche_'
'freedoms_'
'fraud_'
'fran'
'fr'
'folge'
'fly_'
'flexib'
'flash_'
'flag_'
'fit'
'firmly_'
'fier'
'festival_'
'ferr'
'feindliche'
'fee_'
'featuring_'
'fanden_'
'fairness_'
'fahrt_'
'ext'
'existiert_'
'exhibit'
'ewa'
'ew'
'evolution_'
'everywhere_'
'everybody_'
'etzen_'
'ett'
'ethi'
'eth'
'eta'
'este_'
'esse'
'esen_'
'ese_'
'ese'
'esa'
'erzielte_'
'erweisen_'
'erst'
'erse'
'ernsthafte_'
'erne'
'ermutigen_'
'erli'
'erkunden_'
'erkennt_'
'erhebliche_'
'erfreut_'
'erfolgreiche_'
'erarbeitet_'
'environmentally_'
'entwicklung_'
'entsprechen_'
'entgegen_'
'entdeckt_'
'entdeckst_'
'enst'
'enn'
'enl'
'enha'
'engaged_'
'electrical_'
'ela'
'einziges_'
'eintreten_'
'einstellen_'
'eins_'
'einheitliche_'
'eingestellt_'
'eingel'
'eignet_'
'educated_'
'ebene_'
'ease_'
'ean'
'dy'
'ds'
'drängen_'
'drittens_'
'drig'
'dot'
'dor'
'dokument'
'dli'
'distr'
'diskutiert_'
'disappear'
'disabled_'
'director_'
'digitale_'
'digit'
'devastating_'
'deutet_'
'destroying_'
'destroy_'
'dest'
'desktop_'
'desirable_'
'dera'
'depth_'
'denkt_'
'deli'
'definieren_'
'deck'
'dec'
'debts_'
'dating_'
'dad_'
'critique_'
'credits_'
'coverage_'
'courts_'
'counterparts_'
'corr'
'convey'
'conveniently_'
'convenience_'
'contradict'
'contextual_'
'confe'
'complicated_'
'compa'
'comp'
'committees_'
'commit_'
'collect_'
'coa'
'cm_'
'cle'
'cla'
'chtig'
'chein'
'char'
'cet'
'cess'
'career_'
'campaign'
'camp_'
'calm_'
'bü'
'bte'
'brä'
'bre'
'boosting_'
'bol'
'boards_'
'bil'
'bigger_'
'bezahl'
'bewegt_'
'bet'
'besonderer_'
'beschäftigen_'
'bene'
'belong'
'beliebte'
'beitr'
'beibehalten_'
'behe'
'begr'
'befassen_'
'bef'
'beendet_'
'beding'
'beda'
'beantragen_'
'ball'
'bail'
'aw'
'autonomy_'
'authentic'
'ausschuss_'
'ausgeführt_'
'ausgeb'
'ausf'
'aufrechtzuerhalten_'
'aufrecht_'
'aufgefordert_'
'audience_'
'attract_'
'attended_'
'attempting_'
'ato_'
'ations'
'ate'
'assess_'
'assen_'
'artificial_'
'arit'
'arbeite'
'apo'
'anzunehmen_'
'anzeigen_'
'anwenden_'
'answers_'
'ano_'
'annually_'
'angewiesen_'
'angebracht_'
'ands_'
'amo'
'ami'
'alike_'
'ald'
'ala'
'ai_'
'agieren_'
'aga'
'affordable_'
'aff'
'advocate_'
'advances_'
'ado_'
'aden_'
'achievements_'
'accounting_'
'abzusch'
'abwe'
'abuses_'
'ables_'
'abgelehnt_'
'abandoned_'
'Zwischen_'
'Zwecke_'
'Zwangs'
'Zucker'
'Zone_'
'Zivil'
'Zimmer'
'Zimbabwe_'
'Work_'
'Whether_'
'Werke_'
'Werk'
'Wer'
'Wellness_'
'Well_'
'Wea'
'Watson_'
'Wander'
'Wahrscheinlichkeit_'
'WASHINGTON_'
'Vorz'
'Vors'
'Vork'
'Vorgänger_'
'Volks'
'Virus_'
'Vielmehr_'
'Vic'
'Vertretern_'
'Vertrags'
'Versionen_'
'Verletzung_'
'Verg'
'Vat'
'VI_'
'VE_'
'Up_'
'Until_'
'Unternehmer_'
'Unternehmer'
'Unterkünfte_'
'Unterdrückung_'
'Unt'
'Uns'
'Umstände_'
'UM'
'Typ_'
'Transport'
'Trag'
'Tr'
'Tor_'
'Tochter_'
'Thu'
'Text'
'Teams_'
'Tarifa_'
'Take_'
'TE_'
'TB_'
'Sunday_'
'Stre'
'Strand'
'Stoffe_'
'Stat'
'Stahl'
'Spielraum_'
'Spielen_'
'Spezial'
'Sp'
'Sowohl_'
'Southern_'
'Sound_'
'Sound'
'Sol_'
'Sm'
'Siemens_'
'Sicherheitsa'
'Shin'
'Scotland_'
'Schä'
'Schwer'
'Schweizer_'
'Schwe'
'Schreiben_'
'Schlusselwort_'
'Schlusselphrase_'
'Satz_'
'Salz'
'Sal'
'SS'
'SE_'
'Rund'
'Rubrik_'
'Rom_'
'Roh'
'Rit'
'Ren'
'Rem'
'Rela'
'Regional'
'Reg'
'Reaktionen_'
'RO'
'RM'
'Qaeda_'
'Punkten_'
'Prozess'
'Provence_'
'Protocol_'
'Programm'
'Prague_'
'Pr'
'Porto_'
'Poli'
'Plus_'
'Plenum_'
'Planung_'
'Philosophie_'
'Pha'
'Performance_'
'Passwort_'
'Park'
'Palma_'
'Pad'
'PRI'
'PC'
'Out_'
'Osteuropa_'
'Ok'
'OM'
'OF_'
'Nova'
'Nin'
'Nik'
'Niederlande_'
'Netto'
'Net_'
'Nazi_'
'Nachfolger_'
'NG_'
'My'
'Mul'
'Mubarak_'
'Monitor'
'Mitt'
'Mexican_'
'Metro_'
'Meeres'
'Medien'
'Mars'
'Marktwirtschaft_'
'Mario_'
'Marina_'
'Mar_'
'Mandat_'
'Mak'
'MT'
'Lohn'
'Listings_'
'Leu'
'Leitlinien_'
'Later_'
'Lastly_'
'Las'
'Laeken_'
'Kurdish_'
'Konf'
'Kommunismus_'
'Kol'
'Kohle_'
'Kle'
'Klar'
'Kie'
'Kenntnisse_'
'Kapitalismus_'
'Kapazitäten_'
'Kann_'
'Kad'
'Journalisten_'
'Jews_'
'Install'
'Ing'
'Infrastruktur'
'Info'
'Immobilien_'
'Imm'
'Ig'
'Höchst'
'Hour_'
'Hor'
'Hon'
'Hochschul'
'Hit'
'History_'
'Hezbollah_'
'Heimat_'
'Had'
'HT'
'HO'
'Guide_'
'Grünbuch_'
'Grün'
'Gottes_'
'Gold'
'Ghana_'
'Gewinn'
'Gewerkschaften_'
'Get_'
'Gesprächen_'
'Gene_'
'Geh'
'Ged'
'Gebrauch_'
'Gebi'
'Gaulle_'
'GP'
'Fü'
'Freizügigkeit_'
'Freedom_'
'Forscher_'
'Flüchtlings'
'Flugzeuge_'
'Flugzeug'
'Flo'
'Fischler_'
'Fern'
'Ferienwohnungen_'
'Fang'
'Fair'
'FS'
'Explorer_'
'Este'
'Equal'
'Entschlossenheit_'
'Elite_'
'Einnahmen_'
'Einkaufs'
'Eigentum_'
'Eigen'
'Egyptian_'
'Effekt_'
'EP_'
'Durchsetzung_'
'Durchschnitt_'
'Dublin_'
'Dritte_'
'Dritt'
'Dre'
'Dorf_'
'Dol'
'Dokument_'
'Director_'
'Diesen_'
'Denken_'
'Defence_'
'Dauer_'
'Datenschutz'
'Darstellung_'
'Daniel_'
'Dach'
'Croatia_'
'Count'
'Cooperation_'
'Content_'
'Consumer_'
'Conf'
'Commissioners_'
'Clearly_'
'Cla'
'Church_'
'Change_'
'Chamber_'
'Casino_'
'Café_'
'CD'
'Bürokratie_'
'Bühne_'
'Bucht_'
'Brand'
'Branche_'
'Boy'
'Bot'
'Boh'
'Ble'
'Bibliothek_'
'Beweise_'
'Bew'
'Beu'
'Betten_'
'Bestrebungen_'
'Beste'
'Besitz_'
'Besch'
'Berichten_'
'Berg_'
'Beratung_'
'Belgien_'
'Beifall_'
'Beha'
'Bearbeitung_'
'Beachtung_'
'Be_'
'Baum'
'Band_'
'Baltic_'
'Bahn'
'Baby'
'BS'
'BB'
'Az'
'Ay'
'Aussichten_'
'Ausgangs'
'Aufsch'
'Aufs'
'Aufforderung_'
'Att'
'Architektur_'
'Arbeitgeber_'
'Anträge_'
'Angl'
'Alternativen_'
'Alta'
'Album_'
'Aktionsplan_'
'Aktions'
'Aktien_'
'Ah'
'Afrikas_'
'Af'
'Abteilung_'
'Absch'
'Abb'
'AKP_'
'AA'
'92_'
'900_'
'77_'
'73'
'68_'
'67_'
'61_'
'600_'
'2050_'
'19th_'
'1985_'
'1979_'
'1956_'
'1900_'
',/_'
', ‘_'
'+ _'
'%_'
'% '
' ("_'
' %._'
' %'
'” '
'’'
'я_'
'я'
'м_'
'и_'
'ε'
'ütz'
'übersch'
'überlassen_'
'überdenken_'
'überd'
'ön'
'ô'
'í_'
'ë'
'ér'
'él'
'ç'
'äußern_'
'ände_'
'änd'
'ähnlicher_'
'äch'
'án_'
'án'
'Übers'
'Übernahme_'
'Äußerungen_'
'Ärzte_'
' –, _'
'}}) _'
'| _'
'{_'
'zwölf_'
'zweitens_'
'zwangsläufig_'
'zunehmende_'
'zt'
'zo_'
'zis'
'zig_'
'zierte'
'zien'
'ziele_'
'ziel_'
'zeug'
'zentraler_'
'zentral_'
'zeigte_'
'younger_'
'yn_'
'yields_'
'yield_'
'yed_'
'yea_'
'ycl'
'yc'
'xe'
'wür'
'worrying_'
'worried_'
'wonder'
'withdrawal_'
'wir'
'willig'
'widmen_'
'weste'
'weshalb_'
'werten_'
'werte'
'werke_'
'wenigsten_'
'weiten_'
'wea'
'watch'
'ward'
'wann_'
'wahl'
'vorsieht_'
'viewed_'
'videos_'
'veränderte'
'verä'
'verursachen_'
'vertraut_'
'verte'
'verstärkte_'
'verschi'
'vermieden_'
'verlor_'
'verkaufen_'
'verk'
'verfügbaren_'
'verbreitet_'
'verbot'
'verbinden_'
'uti'
'ury_'
'urren'
'urm_'
'urf_'
'uo'
'unterschiedlich_'
'unters'
'unte'
'unp'
'ungsf'
'unfair_'
'unemployed_'
'uneingeschränkt_'
'underway_'
'understands_'
'undermining_'
'unbea'
'unange'
'umgehend_'
'umfassen_'
'umb'
'ula_'
'uit'
'uin'
'uelle'
'ud_'
'ually_'
'ture'
'tube_'
'tting_'
'tt'
'tsche'
'très_'
'tro_'
'trib'
'trenn'
'trea'
'travellers_'
'trat_'
'tras'
'transnational_'
'transitional_'
'transformed_'
'trains_'
'trained_'
'tragedy_'
'traditions_'
'trade'
'trace'
'tr'
'tori'
'toll_'
'tol'
'tliche_'
'tle'
'tl'
'tiz'
'tischer_'
'tica'
'thro'
'thre'
'thirds_'
'thir'
'thin'
'theme_'
'theater_'
'tg'
'tf'
'test'
'termin'
'temp'
'telling_'
'teils_'
'technologischen_'
'tech_'
'tec'
'tas_'
'sympathy_'
'suspended_'
'sus_'
'surveillance_'
'surroundings_'
'sup'
'suggestions_'
'stü'
'stuf'
'struktur_'
'strict_'
'strengthened_'
'strategi'
'stopped_'
'stopp'
'stoffe_'
'steigenden_'
'stehenden_'
'stea'
'stattfindet_'
'starters_'
'stabiliz'
'squ'
'sprachliche'
'sprachen_'
'spl'
'speziell_'
'spectacular_'
'specifications_'
'soul_'
'sorgfältig_'
'solch_'
'smit'
'slopes_'
'skin_'
'ski'
'signing_'
'shot_'
'shortcomings_'
'shore_'
'shoot'
'shipping_'
'ship'
'shing_'
'shel'
'shareholders_'
'shaping_'
'seu'
'settings_'
'servi'
'sel_'
'secondary_'
'scu'
'script_'
'sco'
'schwere_'
'schwank'
'schri'
'schn'
'schlechter_'
'schla'
'schen'
'schauen_'
'schaden_'
'scene_'
'safer_'
'sad'
'rück'
'rth'
'rste'
'roots_'
'ron_'
'roles_'
'roh'
'rog'
'rod'
'rob'
'roa'
'rmo'
'rli'
'rien_'
'riche'
'rich'
'rg_'
'rfe'
'reve'
'returning_'
'retain_'
'restoration_'
'responded_'
'rese'
'reproduction_'
'rena'
'relevante'
'regulate_'
'register_'
'regelung_'
'recruit'
're'
'rc'
'rbe'
'ram'
'rad_'
'racing_'
'quote'
'quotas_'
'quin'
'quil'
'question'
'quel'
'quantities_'
'publicly_'
'publi'
'ption_'
'proximity_'
'proof_'
'promoted_'
'professionelle'
'profession'
'produzieren_'
'produkt'
'printed_'
'preparing_'
'predict'
'pped_'
'positiv_'
'posi'
'porte'
'politischem_'
'poli'
'pm_'
'ple_'
'plat'
'plane_'
'plan'
'piel_'
'piel'
'persuade_'
'persistent_'
'persist'
'permit_'
'pendi'
'pen_'
'pel_'
'peer_'
'patio_'
'pan_'
'pakete_'
'pak'
'pain_'
'oz'
'owe'
'ow_'
'overwhelming_'
'overn'
'ov_'
'outset_'
'outlined_'
'outcomes_'
'ott'
'orp'
'originally_'
'orc'
'openly_'
'oon_'
'onne'
'ome_'
'ologie_'
'ola'
'off'
'observed_'
'obli'
'nützlich_'
'nä'
'ntr'
'nswerte'
'nsi'
'nsch'
'noticed_'
'nos_'
'normale_'
'noi'
'nkt_'
'niz'
'niert_'
'niedriger_'
'nha'
'ners_'
'neoliberal'
'neo'
'neighbourhood_'
'nei'
'negotiation_'
'neg'
'neck'
'nea'
'ndi'
'nder'
'nci'
'native_'
'nationalism_'
'nachweis'
'nac'
'mäßigen_'
'mächtigen_'
'm²_'
'mutige'
'museum_'
'muni'
'mpi'
'mot'
'mortgage_'
'moralischen_'
'mora'
'moon_'
'moderate_'
'mobilis'
'mittleren_'
'missing_'
'missbrauch'
'mirror'
'minorities_'
'min'
'mill'
'mig'
'meri'
'mente_'
'mend'
'meistens_'
'medieval_'
'mate'
'maritime_'
'mano'
'mani'
'mandatory_'
'managers_'
'mailing_'
'mage'
'machten_'
'm2_'
'lé'
'längst_'
'lying_'
'ly'
'ltung'
'loses_'
'los'
'lon'
'lokaler_'
'logie_'
'loc'
'loan_'
'llers_'
'lip'
'ling'
'line'
'liebe_'
'license_'
'liability_'
'leverage_'
'leid'
'leib'
'lang'
'lan_'
'lacking_'
'kürze'
'künftigen_'
'käm'
'kritischen_'
'konzipiert_'
'konst'
'komplizierte'
'kk'
'kis_'
'kid'
'kg_'
'kenn'
'kehrt_'
'kata'
'kana'
'jährliche_'
'jä'
'justification_'
'jointly_'
'jo_'
'jet'
'jed'
'jan'
'iza'
'ius_'
'iten_'
'issu'
'isse'
'islamischen_'
'ised_'
'irre'
'irgendeine'
'ional_'
'interpretation_'
'interp'
'internationally_'
'intern'
'intensiven_'
'intense_'
'intelligent_'
'installieren_'
'inspir'
'inspection_'
'inner'
'inj'
'inhabitants_'
'infolge_'
'infi'
'infer'
'indoor_'
'individuellen_'
'individuali'
'indischen_'
'indicators_'
'inder'
'incon'
'inclusive_'
'incidents_'
'impos'
'imi'
'imbalances_'
'illegalen_'
'illegale_'
'ille_'
'ignor'
'ifi'
'ieh'
'ieg'
'ied'
'ider'
'ideology_'
'ida'
'ichten_'
'icht'
'ich'
'ically_'
'ic'
'ib'
'ias_'
'humanity_'
'hospitality_'
'hop'
'holders_'
'hohem_'
'hme'
'hl'
'hinter'
'hinaus'
'highlights_'
'heutzutage_'
'hervorragenden_'
'heil'
'hea'
'harmonisation_'
'handlung'
'han'
'haltung_'
'halte'
'hal_'
'günstig_'
'gue_'
'grünen_'
'größe'
'gross_'
'grenzen_'
'gratulieren_'
'grass'
'gramm'
'grade'
'governed_'
'gol'
'gma'
'globe_'
'globaler_'
'gkeiten_'
'gio'
'ghe'
'gger'
'gewünschten_'
'gewählte_'
'gewe'
'gesunde'
'gestattet_'
'gespeichert_'
'geräumige'
'geprägt_'
'genetische'
'gend'
'gelassen_'
'gelang_'
'gefährlichen_'
'gefährdet_'
'gefa'
'gedr'
'gedacht_'
'ged'
'gation_'
'gate'
'gam'
'gabe_'
'fte_'
'frühere_'
'freundliches_'
'freely_'
'fre'
'franc'
'fought_'
'fortune_'
'forests_'
'fordere_'
'foot'
'follows_'
'folder_'
'fol'
'flug'
'fli'
'flee'
'flag'
'fine'
'findings_'
'finances_'
'fill_'
'fied_'
'fi_'
'ffic'
'fertig'
'fei'
'feelings_'
'fans_'
'fahrt'
'experiment_'
'expanding_'
'execution_'
'excluded_'
'examine_'
'ewe'
'euros_'
'euren_'
'essa'
'esc'
'erweiterten_'
'erweitert_'
'erweitern_'
'ertet_'
'erstklassige'
'ersta'
'ersetzen_'
'erneuerbare_'
'erlassen_'
'erhoben_'
'erheblichen_'
'erh'
'erforderliche_'
'eon'
'entspr'
'ents'
'entre'
'entl'
'entity_'
'entertainment_'
'ente'
'ensures_'
'ensch'
'enm'
'enjoys_'
'endgültigen_'
'endet_'
'empower'
'employed_'
'empfängt_'
'empfehlen_'
'embrace_'
'eliminated_'
'elf_'
'elegante_'
'eint'
'einschl'
'einsch'
'eingehalten_'
'einb'
'eichen_'
'ego'
'ection'
'economically_'
'eber'
'eba'
'eate'
'durchsetzen_'
'dungen_'
'duct'
'dst'
'drives_'
'drama'
'dominance_'
'diversifi'
'dist'
'diplomacy_'
'dina'
'differently_'
'df'
'designer_'
'ders_'
'deregulation_'
'denk'
'demonstrates_'
'demanded_'
'declar'
'dare'
'damaged_'
'customs_'
'cur'
'cue'
'cua'
'cred'
'countryside_'
'convince_'
'consists_'
'conservation_'
'connect_'
'confront_'
'confi'
'component_'
'competences_'
'como_'
'command'
'combine_'
'colors_'
'colo'
'codes_'
'coc'
'clock_'
'clarity_'
'ckte'
'ckl'
'cket_'
'cke'
'circle_'
'cin'
'cia_'
'chung_'
'chtlich_'
'chne'
'chau'
'chart'
'chant'
'centr'
'ced_'
'cca'
'caught_'
'cas_'
'cari'
'capt'
'capabilities_'
'bus'
'bung_'
'bubble_'
'brutal_'
'brid'
'breath'
'break'
'brain_'
'bombe'
'bod'
'boat_'
'block'
'blind'
'blick_'
'blick'
'blank'
'bisherigen_'
'bir'
'binding_'
'bin'
'bewältigen_'
'bewiesen_'
'beweist_'
'bewegung_'
'bew'
'betrieben_'
'betr'
'betont_'
'bet_'
'bestrafen_'
'beschränk'
'beschreibt_'
'berichten_'
'beri'
'berg'
'berechnet_'
'bekräftigt_'
'beispiel'
'beings_'
'behi'
'begrüßt_'
'begrenzt_'
'bedroht_'
'bedenk'
'basically_'
'bags_'
'backs_'
'awa'
'avi'
'avec_'
'aux_'
'aussch'
'ausreichende_'
'ausgewogene'
'ausges'
'ausgerichtet_'
'ausführliche'
'aufzubauen_'
'aufget'
'auch'
'att_'
'assist_'
'ash'
'ase'
'artige'
'arrest_'
'arme_'
'argumentieren_'
'ard'
'archive_'
'archa'
'appointment_'
'anzukurbeln_'
'antin'
'anst'
'anspr'
'ansehen_'
'anlagen_'
'anischen_'
'angemessen_'
'amtierende'
'alu'
'allocated_'
'alist'
'aktivieren_'
'airports_'
'airlines_'
'ahn'
'ahl'
'agt_'
'aggregate_'
'adhere'
'adequately_'
'adapt'
'actor_'
'achtet_'
'accurate_'
'academic_'
'aca'
'abstimmen_'
'abr'
'able'
'abgeben_'
'abe'
'`_'
']], [[_'
'] '
'Zuständigkeiten_'
'Zurück'
'Zukunfts'
'Zinssätze_'
'Zins'
'Zielen_'
'Zer'
'Yen_'
'XP_'
'Wäscheservice_'
'Wärme'
'Wirtschaftspolitik_'
'Wireless_'
'Wind_'
'Wilhelm_'
'Wie'
'Whi'
'Wes'
'Werbung_'
'Wechselkurs_'
'Websites_'
'Watch_'
'Wall'
'Wai'
'Wahr'
'Wahlkampf'
'WC_'
'Vorw'
'Vorstellungen_'
'Vorr'
'Vorhaben_'
'Vier'
'Vie'
'Vertrauens'
'Vertr'
'Verteilung_'
'Vermi'
'Verkauf_'
'Vereinigung_'
'Veranstaltung_'
'Va'
'Ursache_'
'Urlaubs'
'Unters'
'Universitäten_'
'Ungarn_'
'Umweltschutz_'
'UNESCO_'
'Tsa'
'Trä'
'True_'
'Trend_'
'Tourismus_'
'Tourism_'
'Torre'
'Top'
'Tod'
'Thursday_'
'Thr'
'Thai_'
'Telefon_'
'Tam'
'Tagung_'
'Tab'
'TT'
'TR'
'Südafrika_'
'Syn'
'Sy'
'Suites_'
'Such'
'Struktur'
'Streit'
'Stream'
'Stiftung_'
'Steuereinnahmen_'
'Stand'
'Stabilitäts'
'Staatsf'
'Sports_'
'Spieler'
'Smoking_'
'Situated_'
'Sicherheitspolitik_'
'Shuttle_'
'Shop_'
'Sevilla_'
'Set'
'Sei'
'Screen'
'Schre'
'Schm'
'Schiff'
'Schicksal_'
'Satelliten'
'Salo'
'Sahara_'
'STO'
'Rü'
'Rub'
'Ross'
'Ros'
'Ronald_'
'Rh'
'Review_'
'Respekt_'
'Resolution_'
'Reso'
'Republican_'
'Renaissance_'
'Reisen_'
'Regen'
'Red'
'Real_'
'Radio'
'RER_'
'RC'
'RA_'
'Question_'
'Queen_'
'Quant'
'Qatar_'
'Pul'
'Prot'
'Program_'
'Professor_'
'Pop'
'Poker'
'Pod'
'Piazza_'
'Pflanzen'
'Personal'
'Pers'
'Patten_'
'Pap'
'Panorama'
'Palm'
'PS_'
'Out'
'Others_'
'Ost_'
'Orient'
'Olympic_'
'Oh'
'Og'
'OT'
'Nor'
'Nielson_'
'Nichtraucherzonen_'
'Neg'
'Natura_'
'Nachhaltigkeit_'
'Nachbar'
'Monte'
'Mond'
'Mir_'
'Mio_'
'Medizin_'
'Mechanismen_'
'Maschine'
'Mart'
'Marg'
'Marco_'
'Marc'
'Manchmal_'
'Mail'
'Magi'
'Lü'
'Lösungs'
'Lärm'
'Los'
'List_'
'Link_'
'Light'
'Life_'
'Libya_'
'Library_'
'Les_'
'Lehrer_'
'Lebensmittel_'
'Landes'
'LO'
'Körper'
'Kru'
'Kriminalität_'
'Kreuz'
'Kremlin_'
'Kosten'
'Kos'
'Kopenhagen_'
'Kont'
'Kompetenzen_'
'Kolonial'
'Kollegin_'
'Klimawandels_'
'Kin'
'Kerry_'
'Kern_'
'Kei'
'Kart'
'Kap'
'Kam'
'Kalten_'
'Kai'
'KI'
'Jur'
'Jane'
'It'
'Islamist_'
'Innerhalb_'
'Infolgedessen_'
'Industry_'
'Industrieländern_'
'Indem_'
'Inc_'
'IV_'
'ING_'
'ICA'
'Häfen_'
'Hypotheken_'
'Hunger_'
'Holiday_'
'Hohe_'
'High'
'Herzlich'
'Herz_'
'Her_'
'Heil'
'Hau'
'Hardware_'
'Handlungs'
'HD_'
'HD'
'Guan'
'Grö'
'Großbritanniens_'
'Gleich'
'Gibt_'
'Gewinn_'
'Get'
'Gestatten_'
'Germans_'
'Genu'
'Geno'
'Generalsekretär_'
'Gener'
'Genau_'
'Gemeinden_'
'Geheim'
'Gegen_'
'Gat'
'Gast_'
'Gan'
'Galileo_'
'Gal'
'GM'
'Funktions'
'Fundamental_'
'Frühling_'
'Früh'
'Frank'
'Francisco_'
'Franc'
'Fraktionen_'
'Four_'
'Fortunately_'
'Flug_'
'Florida_'
'Fisch_'
'Fire'
'Finanzmärkte_'
'Few_'
'Ferien'
'Feld_'
'Feld'
'Feier'
'Farbe_'
'Fallout_'
'Fahrzeuge_'
'Fahrrad'
'FC_'
'Extrem'
'Exporte'
'Excellent_'
'Evo'
'Europol_'
'Et'
'Erz'
'Erm'
'Entwicklungshilfe_'
'Engine_'
'Enc'
'Eingabe'
'Ehe'
'Effektivität_'
'Eco'
'EU'
'ED'
'Dutch_'
'Drive'
'Drittländern_'
'Draghi_'
'Dort_'
'Donald_'
'Dollars_'
'Dokumente_'
'District_'
'Dim'
'Differenz_'
'Dienst_'
'Det'
'Demo'
'Deck'
'Deb'
'Davi'
'Danish_'
'DR'
'DL'
'DA_'
'Custom'
'Cup_'
'Culture_'
'Cru'
'Could_'
'Come_'
'Code'
'Churchill_'
'Christmas_'
'Children_'
'Chat'
'Ch'
'Castle_'
'Carlo_'
'Cand'
'CU'
'CP'
'Butt'
'Bud'
'Branchen_'
'Bolkestein_'
'Binnen'
'Beurteilung_'
'Betrag_'
'Bet'
'Berufs'
'Bereitstellung_'
'Behauptung_'
'Bea'
'Basic_'
'Barón_'
'Ban_'
'Bai'
'Badezimmer_'
'Back_'
'BM'
'Avenue_'
'Autor_'
'Autonomie_'
'Aussage_'
'Ausge'
'Ausgangspunkt_'
'Ausgaben'
'Ausflüge_'
'Ausf'
'Aufzug_'
'Ass'
'Arte'
'Arbeitskräfte_'
'Ara'
'Aqua'
'Anpassungen_'
'Ano'
'Ander'
'Amts'
'Alters'
'Allgemein'
'Alex'
'Agrarpolitik_'
'Adria'
'Abu_'
'Absichten_'
'Abkommens_'
'Abgesehen_'
'Abendessen_'
'Abbas_'
'= _'
'99_'
'75'
'62_'
'33'
'32'
'29'
'236'
'1960_'
'181'
'120_'
'. &#_'
'+'
'))._'
'( _'
'", "_'
'") _'
' {{_'
' - '
' ,_'
'“ – _'
'א'
'ро'
'о_'
'н'
'б'
'ł'
'ürlich'
'ügen_'
'üge'
'üf'
'übrigens_'
'übrig_'
'überwachen_'
'übers'
'überr'
'übermäßige'
'öse_'
'öse'
'ören_'
'öpf'
'ökonomische_'
'öhl'
'öge'
'öf'
'ñ'
'ín'
'ça'
'äß'
'äume_'
'äuft_'
'äufe_'
'ässe'
'ärmsten_'
'änk'
'änden_'
'än'
'ährung_'
'ße_'
'Übertragung_'
'Übersch'
'Änderungs'
'» _'
'°_'
'zügig'
'zö'
'zurückzuführen_'
'zukünftige_'
'zukommen_'
'zil'
'zierungs'
'zierung_'
'zier'
'ziel'
'zial'
'zerstören_'
'zerstör'
'zent'
'zehnte'
'yen_'
'yard_'
'yar'
'wünscht_'
'wort'
'worker_'
'wood'
'wohn'
'wohin_'
'wn'
'witness_'
'winner_'
'wick'
'wichtiges_'
'whenever_'
'wettbewerbsfähige'
'wes'
'wert'
'werken_'
'wen_'
'weiterzu'
'weite_'
'weis'
'wed_'
'wechseln_'
'wechsel_'
'wechsel'
'wealthy_'
'weaker_'
'water'
'was'
'wart'
'warrant'
'warned_'
'wander'
'wand'
'vy_'
'vorzunehmen_'
'vorstell'
'vorliegt_'
'vorgestellt_'
'vorg'
'vore'
'vorbe'
'vorange'
'von'
'volunteers_'
'voices_'
'virtuelle'
'vin_'
'villa_'
'vid'
'verzeichnen_'
'verwandeln_'
'vertreter_'
'vertrag'
'verständlich_'
'verspricht_'
'verspr'
'verse'
'verschwende'
'verlust'
'verliert_'
'verkehr_'
'veri'
'verhältnis_'
'verhelfen_'
'verbringen_'
'verbre'
'verbrauch'
'veran'
'veil'
'vag'
'uver'
'uts_'
'utr'
'ussi'
'usa'
'uring_'
'urf'
'ural'
'upe'
'unzählige_'
'unwe'
'unwahrscheinlich_'
'untr'
'untersuchen_'
'unterste'
'unterscheidet_'
'unn'
'unmittelbare_'
'universe_'
'unin'
'ungeachtet_'
'undermine_'
'unden'
'unabhängige_'
'umgeb'
'ume_'
'ulate'
'ugh_'
'ufe'
'ues_'
'ubi'
'ub_'
'ua_'
'turno'
'tsch'
'trie'
'treasur'
'trategie_'
'transparente'
'transferred_'
'transc'
'transatlantischen_'
'trafficking_'
'tradition'
'tradable_'
'torture_'
'tolerance_'
'tle_'
'tipp'
'tight'
'tiefe_'
'tiefe'
'tied_'
'thr'
'thou'
'tho'
'thi'
'thermal_'
'territoriale'
'temperature_'
'tem'
'tei'
'technik_'
'teach_'
'tation_'
'taste'
'tape'
'tangible_'
'tan'
'südlich_'
'systemic_'
'syn'
'sustained_'
'surre'
'surpluses_'
'surge'
'supplied_'
'suddenly_'
'substantially_'
'stände_'
'stuff_'
'studied_'
'struck_'
'strikes_'
'strictly_'
'stream_'
'straight_'
'strai'
'storm'
'stl'
'still'
'stern'
'steri'
'steam_'
'stamm'
'stal'
'staat_'
'ssystem'
'sste'
'ssl'
'ssige'
'ssel'
'sre'
'späten_'
'spät_'
'speeches_'
'specialities_'
'speaker_'
'sparen_'
'sound'
'sou'
'sophisticated_'
'songs_'
'sofa_'
'smart_'
'slight_'
'sko'
'sixt'
'situ'
'sions_'
'sierte'
'sicherstellen_'
'shocks_'
'sequence'
'senk'
'seitig'
'seemingly_'
'seas'
'script'
'schönsten_'
'schnelles_'
'schnellen_'
'schne'
'schiff_'
'schafts'
'sberei'
'satisfied_'
'sat_'
'sarge'
'sani'
'sand_'
'sab'
'rückg'
'rulers_'
'ruins_'
'ruch'
'rta_'
'ror'
'rooted_'
'ron'
'romantic_'
'robe'
'rnen_'
'river_'
'rist'
'ris_'
'ript'
'rif'
'rian_'
'rhe'
'rf_'
'retro'
'rete'
'ret'
'resulted_'
'restrict_'
'restoring_'
'ression'
'resign'
'researchers_'
'repro'
'reo'
'reminded_'
'reiten_'
'reisen_'
'reine'
'reif'
'reichsten_'
'reiben_'
'reh'
'regionen_'
'refuse_'
'referring_'
'referen'
'reco'
'rechnen_'
'rechen_'
'reasonably_'
'realise_'
'readily_'
'rba'
'ration'
'ratification_'
'raph'
'rand'
'ranc'
'ran'
'raises_'
'racism_'
'rab'
'qualitative_'
'qualifications_'
'qu'
'pull_'
'pue'
'pto'
'provider_'
'prote'
'proportion_'
'prophe'
'promptly_'
'proliferation_'
'projekt_'
'programming_'
'profitiert_'
'professor_'
'prof'
'produktive_'
'produkte_'
'producer_'
'proceed'
'problemati'
'pricing_'
'presum'
'presse'
'presenting_'
'preferences_'
'praktischen_'
'ppen_'
'ppe_'
'pou'
'posts_'
'postponed_'
'popularity_'
'popula'
'politician_'
'politi'
'plu'
'pledged_'
'pipe'
'pig'
'pert'
'persona'
'pe'
'pay'
'path'
'patents_'
'patent'
'passes_'
'partic'
'painful_'
'overview_'
'overl'
'outs_'
'outl'
'organ'
'orfen_'
'optimale_'
'opponents_'
'ook_'
'ong'
'ommen'
'olle'
'oldest_'
'oid'
'oi'
'ohnehin_'
'ohn'
'offset_'
'officers_'
'odie'
'occupied_'
'occup'
'occ'
'oca'
'observation_'
'obliged_'
'nötigen_'
'nächster_'
'nzi'
'num'
'ntion_'
'np'
'nous_'
'notable_'
'nos'
'nonetheless_'
'nom_'
'nne'
'nlage'
'nister'
'nism'
'nische_'
'nineteenth_'
'niedrige'
'nhei'
'nger'
'nenn'
'negotiating_'
'negotiate_'
'nche'
'nberg_'
'nati'
'nas'
'nai'
'nachfrage_'
'müh'
'má'
'multinational'
'multimedia_'
'mul'
'mt'
'mouse_'
'mounting_'
'mount_'
'mortgages_'
'moralisch_'
'moderner_'
'moderate'
'modell_'
'mittelalterliche'
'minder'
'milita'
'method'
'mental'
'melt'
'mehrs'
'mehr'
'mbl'
'match'
'master'
'massage_'
'mas_'
'marke'
'mar_'
'manipulation_'
'mangel'
'man'
'magic_'
'löst_'
'lö'
'lys'
'lution'
'lungen_'
'lon_'
'loi'
'logy_'
'logi'
'ln'
'llte_'
'liv'
'liquid'
'linguistic_'
'lings_'
'lighting_'
'light'
'lich'
'lia'
'letter_'
'lern_'
'leis'
'leidet_'
'leichen_'
'lebenslange'
'lb_'
'lays_'
'laying_'
'langfristige'
'lan'
'labelling_'
'kurzfristigen_'
'kurzfristig_'
'kurzer_'
'kurzen_'
'ktionen_'
'ksi'
'kräfte_'
'kriege'
'kostenlose_'
'koordinierte'
'konstruktive_'
'konferenz_'
'komplexer_'
'komplexen_'
'komplexe_'
'kni'
'klar'
'kit'
'kirche_'
'kilometers_'
'kill_'
'kern_'
'junger_'
'jun'
'jahre'
'izi'
'itz'
'itor'
'ito'
'itische'
'issen_'
'isen_'
'isches_'
'isc'
'iro_'
'irk'
'iri'
'irakischen_'
'investing_'
'interessen_'
'interessante_'
'institutionellen_'
'innenpolitische'
'initiated_'
'ining_'
'infringement_'
'inen_'
'industrialis'
'inder_'
'ind'
'incite'
'inan'
'immun'
'immer'
'illegal'
'ildung_'
'iko'
'ii'
'iew'
'ierenden_'
'iere'
'ieden'
'ieben_'
'idat'
'ichtete'
'icherung'
'icate'
'ica'
'hunting_'
'hundert'
'human'
'hum'
'hro'
'hoped_'
'honor_'
'hole_'
'hol_'
'hochwertige'
'hmen_'
'hm'
'hle_'
'historically_'
'hervorgehoben_'
'herstell'
'herausstellen_'
'hend_'
'heart'
'heading_'
'hb'
'hazardous_'
'haz'
'han_'
'halb'
'hair_'
'hai'
'had'
'gur'
'grenzt_'
'gran'
'governmental_'
'globale'
'git'
'gingen_'
'gierung_'
'geäußert_'
'gezielte'
'gewählten_'
'gewinnt_'
'getötet_'
'gestatten_'
'gestartet_'
'gest'
'geschw'
'geräte_'
'gers_'
'geringen_'
'geregelt_'
'gens'
'geniessen_'
'genes_'
'gemeinschaftlichen_'
'gemeinsamer_'
'gelingt_'
'gehabt_'
'geh'
'gegangen_'
'gede'
'geblieben_'
'gebieten_'
'gebi'
'gd'
'gay_'
'führ'
'fühl'
'fällig_'
'fähig'
'fundamental'
'frag'
'fra'
'forth_'
'formi'
'formats_'
'format'
'forge_'
'forcing_'
'folgende_'
'focuses_'
'fn'
'fizier'
'fix_'
'fiskal'
'finished_'
'finanzierung_'
'fin_'
'fiel_'
'fic'
'ffer'
'ffen'
'fern_'
'feet_'
'fassen_'
'fascinating_'
'farms_'
'facilitated_'
'extending_'
'expressing_'
'exporte'
'explains_'
'explained_'
'expertise_'
'experiences_'
'expenditures_'
'existed_'
'exi'
'ex'
'evaluat'
'eute'
'europ'
'eto'
'ethnischen_'
'esto'
'eso'
'erwähnen_'
'erwerben_'
'erlangt_'
'erklär'
'erin'
'erhältlich_'
'erei'
'erarbeiten_'
'episode_'
'entscheidend_'
'entdecken_'
'enne'
'engagierte'
'engage_'
'eng'
'enforced_'
'enemy_'
'ends_'
'endgültig_'
'ender_'
'endanger'
'encourages_'
'ences_'
'employ'
'ella_'
'elites_'
'eits'
'eit'
'eise'
'eis'
'einladende'
'einh'
'einfl'
'einbezogen_'
'eigentlichen_'
'eibung'
'ehrgeizige'
'egt_'
'ega'
'effiziente_'
'effizient_'
'effi'
'edly_'
'edia'
'echt'
'dw'
'durchschnittlich_'
'durchg'
'dun'
'dry_'
'dru'
'drinking_'
'downtown_'
'downs'
'doubl'
'domain_'
'dog_'
'dn'
'dle'
'dition'
'distinction_'
'disorder_'
'disi'
'discretion_'
'discret'
'discovery_'
'discourse_'
'dischen_'
'disagree_'
'directed_'
'diplomats_'
'dine'
'dil'
'dignity_'
'digitalen_'
'dieselbe_'
'dge'
'detaillierte'
'desi'
'dere'
'derartiger_'
'depression_'
'depressed_'
'deposits_'
'deployment_'
'denied_'
'demnächst_'
'demi'
'delicate_'
'dei_'
'defining_'
'decent_'
'deca'
'debating_'
'deadl'
'daf'
'dac'
'crack'
'covers_'
'courage_'
'council_'
'cot'
'cost'
'coordinat'
'conventions_'
'contributing_'
'contacts_'
'consent_'
'confusion_'
'confirmation_'
'configuration_'
'condemn_'
'comput'
'compre'
'compar'
'communism_'
'commande'
'collaborat'
'codi'
'coastal_'
'closest_'
'clon'
'clo'
'cler'
'class'
'clarify_'
'citizenship_'
'cit'
'ciones_'
'cier'
'cial_'
'chtigen_'
'chose_'
'choosing_'
'chle'
'cherung_'
'chee'
'checks_'
'cheaper_'
'charit'
'characters_'
'characteristic_'
'chances_'
'cere'
'cepti'
'centrally_'
'centrali'
'cent'
'catalog'
'cali'
'bull'
'buch'
'boy_'
'boundaries_'
'borrowing_'
'bon_'
'boasts_'
'blow'
'blog_'
'blase_'
'blame_'
'birds_'
'biodiversity_'
'bilateralen_'
'bha'
'beunruhigend'
'beträchtliche'
'betriebe_'
'betrieb'
'beteiligen_'
'bern_'
'berichtet_'
'bereiche_'
'berechtigt_'
'bem'
'bele'
'behörden_'
'behindert_'
'begleitet_'
'befürchten_'
'befindliche'
'bedürf'
'bedienen_'
'beantwortet_'
'baut_'
'bath'
'basket'
'base'
'ax_'
'außen'
'auszusch'
'auszur'
'ausste'
'ausreichen_'
'ausr'
'auslösen_'
'ausgelöst_'
'ausgeh'
'aufweist_'
'aufst'
'aufrechterhalten_'
'aufn'
'auffordern_'
'auff'
'aufen_'
'auber'
'attending_'
'attached_'
'atr'
'ato'
'assuming_'
'assigned_'
'assen'
'aspirations_'
'asch'
'arises_'
'arge'
'aren_'
'arche'
'appl'
'ao'
'antiqu'
'anno'
'annex'
'anne'
'anlage_'
'anim'
'anh'
'angry_'
'anges'
'angef'
'angeblich_'
'angeb'
'anerkennen_'
'anci'
'ame_'
'ame'
'amb'
'amazing_'
'alls'
'alle'
'alität_'
'alg'
'alarming_'
'alarm'
'agte'
'agi'
'ager'
'agent_'
'age'
'advice_'
'adapted_'
'activists_'
'ace_'
'accommodate_'
'accidents_'
'acce'
'abst'
'abschl'
'abl'
'abi'
'abgeb'
'abandoning_'
'aan'
'aa'
'Zwi'
'Zw'
'Zunahme_'
'Zugeständnisse_'
'Zeitplan_'
'Zeichen'
'Zauber'
'Yugoslavia_'
'Youth_'
'Ye'
'Xi'
'Wür'
'Wälder_'
'Wirtschaftsp'
'Wette'
'Wettbewerbs_'
'Wert'
'Werbe'
'Weltraum'
'Wein_'
'Warcraft_'
'WA'
'Vorgehensweise_'
'Vorbild_'
'Volksgesundheit_'
'Vladimir_'
'Vista_'
'Viertens_'
'Veröffentlichung_'
'Versicherungs'
'Verordnungen_'
'Vermögen_'
'Verm'
'Verluste_'
'Verkehrsmittel_'
'Verh'
'Veranstaltungen_'
'VP_'
'Ursprung_'
'Unterhaltungs'
'Unrecht_'
'Unm'
'Unf'
'Unbe'
'Una'
'Umge'
'Ukrainian_'
'UT'
'UE'
'UB'
'Tür_'
'Tun'
'Tour'
'Tot'
'Top_'
'Til'
'Through_'
'Thomas_'
'Theater_'
'Terror'
'Tempo_'
'Tel_'
'Tax'
'Tan'
'TU'
'TPP_'
'Süd_'
'Sü'
'Systemen_'
'Swa'
'Supreme_'
'Sul'
'Strom_'
'Sto'
'Stimmung_'
'Still_'
'Steuer_'
'Ster'
'Statistik_'
'Starfleet_'
'Spur'
'Spri'
'Speisen_'
'Spare'
'Spani'
'Sozialisten_'
'Sor'
'Solutions_'
'Solar'
'Sogar_'
'Soft'
'Socialist_'
'Sk'
'Sit'
'Show'
'Shia_'
'Several_'
'Ser'
'Select_'
'Sco'
'Schö'
'Schwellenländern_'
'Schweiz_'
'Schwarz'
'Schulz_'
'Schu'
'Schlafzimmer_'
'Sai'
'Saharan_'
'Sachen_'
'ST'
'SPA'
'SH'
'SER'
'Russen_'
'Russ'
'Rule_'
'Rot'
'Rhein'
'Revision_'
'Ressourcen'
'Reservierung_'
'Rental_'
'Regi'
'Rede'
'Rechtss'
'Reali'
'Ratspräsident_'
'Rap'
'Rande_'
'Railway_'
'RG'
'Quadra'
'Prozesse_'
'Provinz_'
'Propaganda_'
'Projekts_'
'Prognosen_'
'Produktivitäts'
'Privatisierung_'
'Pres'
'Praktiken_'
'Pot'
'Posten_'
'Port_'
'Political_'
'Play'
'Pilot'
'Pflicht_'
'Pfa'
'Petr'
'Petersburg_'
'Peking_'
'Patt'
'Patent'
'Parti'
'Partei'
'Parameter_'
'Pakt_'
'Pack_'
'PR'
'PM'
'Over'
'Orl'
'Opti'
'Oppositions'
'Operation_'
'On'
'OD'
'OC'
'Null'
'Normal'
'Nixon_'
'Nikon_'
'New'
'Never_'
'Netanyahu_'
'Nelson_'
'Nehmen_'
'Near_'
'Nationalen_'
'Nar'
'Nahrungsmittel'
'NICHT_'
'München_'
'Mängel_'
'Mä'
'Mut_'
'Mut'
'Multi_'
'Mozilla_'
'Mot'
'Modus_'
'Mode_'
'Mitarbeitern_'
'Mir'
'Mini_'
'Minderheit_'
'Mil'
'Mid'
'Metro'
'Messen'
'Merkmale_'
'Mengen_'
'Maßstab_'
'Max'
'Marx_'
'Manage'
'Main'
'Mach'
'MH'
'Löhne_'
'Länge_'
'Luxus_'
'Luca'
'Long_'
'Log'
'Leone_'
'Leicht'
'Legal_'
'Lee_'
'Leave_'
'Laun'
'Lands'
'Lam'
'Lah'
'Labor_'
'Kö'
'Ky'
'Kuwait_'
'Kräften_'
'Kreditkarte_'
'Kop'
'Konzept'
'Kontin'
'Kontext_'
'Kontakt'
'Konsumenten_'
'Konferenz'
'Kommissionspräsident_'
'Kommissions'
'Kohlen'
'Klassen'
'Key_'
'Kenya_'
'Kenn'
'Kel'
'Katastrophen_'
'Katalog_'
'Karriere_'
'Karls'
'Kanada_'
'Kamera_'
'Kali'
'Kaffee'
'Kab'
'KON'
'Jugendlichen_'
'Jud'
'Juan_'
'Jewish_'
'Jan_'
'Isa'
'Irak'
'Interventionen_'
'Internetzugang_'
'Intera'
'Installer_'
'Ink'
'Inhalte_'
'Imp'
'Immo'
'Images_'
'Il_'
'Ideal'
'Ibiza_'
'IDE'
'Hu_'
'Hot'
'Host'
'Holland_'
'Holl'
'Him'
'Herrsch'
'Herb'
'Heizung_'
'Hauptver'
'Hat'
'Hass_'
'Hart'
'Harmonisierung_'
'Harbour_'
'Halbinsel_'
'Haben_'
'HS'
'Güter'
'Gäste'
'Grundlagen_'
'Griff_'
'Graf'
'Grad'
'Governance_'
'Gla'
'Gipfeltreffen_'
'Gewährleistung_'
'Gesundheitswesen_'
'Gestaltung_'
'Gesetzes'
'Geschäft_'
'Geräte'
'Gepäckraum_'
'Gem'
'Gegenstände_'
'Gefängnis_'
'Gay_'
'Gau'
'Garantien_'
'G8_'
'Fä'
'Friday_'
'Fri'
'Freund'
'Fox_'
'Fol'
'Fluss_'
'Florence_'
'Five_'
'Finnland_'
'Finanzdienstleistungen_'
'Filme_'
'File_'
'Festplatte_'
'Fertig'
'Feinde_'
'Fatah_'
'Farb'
'Fam'
'Fall'
'Expert'
'Exp'
'Everything_'
'Etwa'
'Esta'
'Essen_'
'Esc'
'Ero'
'Erg'
'Erfolgs'
'Erf'
'Erdoğan_'
'Entwicklungsp'
'Enth'
'End_'
'Elevator_'
'Einzig'
'Einigkeit_'
'Ef'
'ENT_'
'Dy'
'Dun'
'Dru'
'Drogen'
'Dos'
'Dona'
'Dom'
'Display_'
'Disp'
'Dingen_'
'Differenzen_'
'Deutsch_'
'Desktop_'
'Der'
'Dep'
'Demokratischen_'
'Dem'
'Deep_'
'Debatten_'
'Dea'
'Danach_'
'DAT'
'Cur'
'Cri'
'Crespo_'
'Create_'
'Court'
'Cost'
'Corp'
'Consequently_'
'Computer'
'Compa'
'Chief_'
'Chaos_'
'Chancengleichheit_'
'Chancellor_'
'Cau'
'Carr'
'Cardassian'
'Capital_'
'Cala_'
'Cai'
'COM_'
'CM'
'CEO_'
'Bushs_'
'Brun'
'Boris_'
'Borg_'
'Bord_'
'Blue'
'Bis'
'Bezeichnung_'
'Betrug_'
'Betroffenen_'
'Betreiber'
'Beteiligten_'
'Besteuerung_'
'Besonders_'
'Besondere'
'Besatzungs'
'Bernanke_'
'Berlusconi_'
'Berliner_'
'Bele'
'Bek'
'Bei'
'Befürchtungen_'
'Beförderung_'
'Befugnisse_'
'Bee'
'Bedauerlicherweise_'
'Bay'
'Bara'
'Balkon_'
'BU'
'Außen_'
'Ausweg_'
'Ausarbeitung_'
'August'
'Augen'
'Aufenthalts'
'Asiens_'
'Asi'
'Arti'
'Arc'
'Arbeitszeit'
'Arbeitsmarkt'
'Anne'
'Anleger_'
'Ank'
'Angel'
'Angebots'
'Ange'
'Anfragen_'
'Andre'
'Andererseits_'
'Among_'
'Ami'
'Alpen_'
'Allow_'
'Alexander_'
'Against_'
'Act'
'Abschaffung_'
'Abre'
'Abr'
'Able'
'Abfall'
'AVI_'
'AM_'
'AF'
'ACP_'
'== _'
'="_'
': '_'
'88_'
'78'
'69_'
'65'
'57_'
'53'
'51'
'46_'
'44'
'41'
'360_'
'2016_'
'1st_'
'1930_'
'176'
'150'
'0er_'
'.&_'
'. “_'
'. )'
'- (_'
', '_'
'!!_'
' »_'
' -'
' * _'
' &_'
'“-_'
'ы'
'но'
'ни'
'й_'
'α_'
'α'
'še'
'č'
'ültig'
'ül'
'ücke'
'überzeugend_'
'übernahm_'
'überg'
'überf'
'ø'
'örtlichen_'
'ört_'
'ökonomi'
'öhn'
'éta'
'ça_'
'å_'
'å'
'äußerte_'
'äst'
'ängen_'
'änderung_'
'ältig'
'ähig'
'ägyptischen_'
'ár'
'ßte'
'Überwachungs'
'Überraschung_'
'Überf'
'Ära_'
'Änderungsanträgen_'
'·'
'®'
'« _'
'}} '
'zü'
'zy_'
'zweifel'
'zwanzig_'
'zuwe'
'zuversichtlich_'
'zutr'
'zuse'
'zusammenzuarbeiten_'
'zurückz'
'zum'
'zon_'
'zogen_'
'zn'
'zip'
'zige'
'zeitige'
'zeig'
'zeichne'
'zauber'
'yu'
'ystems_'
'yellow_'
'yacht'
'xy'
'xe_'
'würdigen_'
'wünschenswert_'
'wre'
'wr'
'word'
'wm'
'wit'
'wise_'
'wines_'
'windi'
'wild_'
'wi_'
'westlich_'
'wenigstens_'
'weltweite'
'wellness_'
'welcomed_'
'wel'
'weiß'
'weiterge'
'weise'
'warme'
'ware'
'walk'
'wahre_'
'wag'
'wachstum_'
'wach'
'vs'
'vorzulegen_'
'vornehmen_'
'vorne'
'vorhandenen_'
'volks'
'visitor_'
'visa_'
'violations_'
'view'
'vic'
'vi_'
'verwiesen_'
'verweisen_'
'verwaltung_'
'verwa'
'veru'
'verträg'
'vertrag_'
'versus_'
'versteht_'
'vernünftige'
'verlorene'
'verifi'
'verheerende_'
'verhandeln_'
'vergeben_'
'variations_'
'vacation_'
'utiliz'
'user'
'use'
'usage_'
'ursprüngliche_'
'urlaub_'
'urge'
'uranium_'
'ups_'
'upl'
'upcoming_'
'unüber'
'unweit_'
'unterwegs_'
'unterstr'
'unterg'
'untereinander_'
'unterbreitet_'
'unsu'
'unres'
'uno'
'unkon'
'units_'
'unilateral_'
'unification_'
'unhe'
'ungsz'
'ungsm'
'ungerecht'
'unfa'
'undurch'
'understandable_'
'undermined_'
'unclear_'
'unb'
'unanimously_'
'ulier'
'ukt'
'ui'
'ugu'
'uern_'
'uct'
'uchs'
'tödliche'
'täte'
'twi'
'turmoil_'
'turbulent'
'tungs'
'ttu'
'tto'
'tsunami_'
'truck_'
'tric'
'trend'
'treat'
'transmission_'
'trans'
'traf_'
'tow'
'tou'
'tos_'
'tos'
'tolle'
'todo'
'tn'
'tlichen_'
'tionally_'
'tiny_'
'timely_'
'till_'
'tili'
'tia'
'ths_'
'thinks_'
'therapy_'
'ther'
'theoretical_'
'theoreti'
'thal'
'teuer'
'tete_'
'terminal_'
'tens'
'tene'
'tempt'
'tem_'
'tellen_'
'telecommunications_'
'tee'
'technische'
'teacher_'
'tasty_'
'tain'
'tab'
'sätze_'
'szen'
'symbolic_'
'sym'
'switch'
'survey_'
'sure'
'supranational_'
'suppress'
'suppliers_'
'suit_'
'suggestion_'
'substitute'
'subsid'
'subscribe'
'stützen_'
'stärksten_'
'ständ'
'strukturen_'
'struggling_'
'strongest_'
'strip'
'string'
'strecke'
'streben_'
'strange_'
'straightforward_'
'strafrechtlich'
'stood_'
'stoffen_'
'stitut'
'sting_'
'stiegen_'
'sters_'
'stell'
'stays_'
'stat'
'startet_'
'starten_'
'stammt_'
'stabil'
'sst'
'ssen'
'spielte_'
'sphere_'
'sper'
'specify_'
'speaks_'
'spart'
'sow'
'sorte'
'sonn'
'sogenannten_'
'socio'
'slave'
'skri'
'sinken_'
'sin_'
'sichtbar_'
'sic'
'shifts_'
'shelter'
'shar'
'shame'
'sgr'
'sges'
'sge'
'sex_'
'sex'
'sevent'
'setzte_'
'settlements_'
'settle'
'sett'
'servers_'
'separate'
'semi_'
'seitdem_'
'sehe'
'seh'
'sees_'
'securities_'
'secondly_'
'schwer'
'schwedischen_'
'schung_'
'schritt'
'schrei'
'schnellere'
'schli'
'schicken_'
'scheitern_'
'sche'
'schalte'
'scen'
'scan'
'satisf'
'san_'
'salt_'
'sala'
'sagten_'
'safely_'
'safe'
'räume_'
'rät'
'räge_'
'räfte'
'rze'
'rve'
'ruin'
'rui'
'ruhe_'
'rseits_'
'roof_'
'roc'
'rne'
'rische_'
'rine'
'rim'
'rige_'
'richtet_'
'richte'
'revealed_'
'retten_'
'retr'
'retire'
'reti'
'resse'
'responding_'
'residents_'
'residen'
'requests_'
'reproduc'
'rep'
'renovated_'
'rem_'
'rela'
'reicher_'
'rei_'
'regierung_'
'regier'
'regelungen_'
'refuge_'
'redu'
'rech'
'realised_'
'reader_'
'raus'
'ration_'
'ratified_'
'rap'
'ranks_'
'raid'
'raft_'
'radical'
'radiation_'
'ract'
'quest_'
'quellen_'
'qualit'
'qualify_'
'py_'
'purely_'
'purchasing_'
'pse'
'präsent'
'proven_'
'proto'
'protest_'
'promot'
'prom'
'prohibited_'
'programmen_'
'profit'
'privatization_'
'privatis'
'prisons_'
'presentation_'
'premium_'
'prejudice_'
'preferred_'
'preference_'
'prefer'
'predictable_'
'precious_'
'precarious_'
'prach'
'ppt'
'ppo'
'pper_'
'ppe'
'possession_'
'positiven_'
'poorer_'
'polnischen_'
'pole'
'plä'
'plung'
'plug_'
'plo'
'platforms_'
'pilot_'
'pil'
'pielen_'
'pfe'
'pf_'
'pet_'
'periphery_'
'penalty_'
'pei'
'ped'
'pause_'
'patient_'
'paths_'
'past'
'pas_'
'partitions_'
'participa'
'partei'
'panels_'
'panel_'
'pane'
'palace_'
'overw'
'overt'
'overseas_'
'outs'
'outline_'
'outlets_'
'oto'
'oti'
'osten_'
'osc'
'osa'
'orts_'
'orte'
'orm_'
'orientierte'
'ordnete'
'opposing_'
'operator_'
'ood_'
'onis'
'one'
'onds_'
'olt'
'oi_'
'offene'
'offenbar_'
'ody_'
'odu'
'od'
'och'
'obsess'
'objekt'
'obi'
'obe'
'oba'
'nördlichen_'
'nut'
'nsb'
'nou'
'nominal_'
'nnt_'
'nna_'
'nj'
'nity_'
'nissen_'
'nischen_'
'nir'
'nightlife_'
'nier'
'niederländischen_'
'nh'
'newe'
'new'
'netz'
'nent_'
'nell'
'negotiated_'
'nee'
'necessity_'
'nds_'
'ndr'
'ndelte'
'nav'
'nau'
'natürliche_'
'nativ'
'national'
'nada_'
'möge_'
'mäßig_'
'myth'
'muslimischen_'
'multip'
'multilateralen_'
'mption'
'mpli'
'mpe'
'movies_'
'mov'
'mouth_'
'mood_'
'momentum_'
'modules_'
'modes_'
'modernisier'
'mobili'
'mmer_'
'mitzu'
'mittlere'
'mitteln_'
'mist'
'missile_'
'mir'
'ming'
'militärischer_'
'militia'
'meti'
'messe'
'mern_'
'merge'
'ment'
'menschen'
'meister'
'medizinische_'
'md'
'mature_'
'materiali'
'master_'
'massa'
'maschine_'
'mart'
'mals_'
'male'
'magazine_'
'mac'
'lär'
'lv'
'lusion'
'lus'
'lossen'
'losigkeit_'
'logo_'
'logisti'
'locker'
'locked_'
'lla_'
'lk'
'lively_'
'link'
'liner_'
'lift_'
'liederung_'
'lieben_'
'lge'
'lg'
'lex'
'lette_'
'lengthy_'
'lend_'
'lend'
'leiten_'
'leit'
'legale'
'lear'
'laute'
'lauf'
'late'
'las'
'lant'
'langsamer'
'landing_'
'kümmern_'
'kä'
'kund'
'kultur_'
'kte_'
'kte'
'kritische_'
'kritisch'
'kreis'
'kratisch'
'kraten_'
'kopieren_'
'konzept'
'kontrolliert_'
'kontrollen_'
'konk'
'konf'
'komplette_'
'komplette'
'kombiniert_'
'kollektive'
'kno'
'klassischen_'
'klassische'
'klarer_'
'kka'
'kit_'
'keys_'
'keen_'
'kamp'
'kale'
'jüdischen_'
'junta_'
'jug'
'judges_'
'iz'
'ives_'
'itt'
'its'
'istischen_'
'istische_'
'istan'
'iss'
'isolated_'
'ism'
'isieren_'
'ish'
'isation_'
'isa'
'irr'
'ironi'
'irischen_'
'irgend'
'ires_'
'iranische_'
'ip_'
'iona'
'invi'
'intervene_'
'internationales_'
'interfere'
'interessanten_'
'interd'
'inter_'
'integrati'
'integral'
'inta'
'insur'
'institute_'
'installer_'
'installations_'
'inspired_'
'ino'
'inner_'
'inis'
'ini_'
'inhalt'
'industriellen_'
'industri'
'induce'
'indicati'
'ind_'
'incur'
'incredibly_'
'inb'
'inad'
'imen'
'imate'
'imagin'
'ille'
'illa'
'ilen_'
'igungs'
'igli'
'igen'
'iga'
'ift'
'ifft_'
'ient_'
'ieg_'
'iefer'
'ieb_'
'idig'
'ider_'
'iden_'
'icklung_'
'ick'
'ichtung'
'ibe'
'iPod_'
'höchst_'
'hôtel_'
'häl'
'hypothe'
'hybrid_'
'hunger_'
'hundert_'
'hub'
'hs'
'hren'
'hos'
'horn'
'hop_'
'hom'
'hohes_'
'hochwertige_'
'hma'
'hir'
'hinzugefügt_'
'hinweg_'
'hinnehmen_'
'hinge'
'hike'
'high'
'hersteller_'
'herstellen_'
'hers_'
'heroi'
'herausge'
'hera'
'heal'
'hause'
'harsh_'
'harm'
'hard'
'hara'
'handled_'
'halben_'
'halb_'
'haf'
'gw'
'gua'
'gründe'
'grundlegende'
'gru'
'großartig'
'grouping'
'grosse_'
'graph'
'graf'
'graduate'
'gradual_'
'grab'
'god'
'gnen_'
'gk'
'gien'
'gewährt_'
'gewä'
'gewidmet_'
'gewi'
'gewalt'
'gewachsen_'
'getr'
'geteilten_'
'get'
'gesunken_'
'gesto'
'geschr'
'geschlossene'
'geschicht'
'geru'
'gerechten_'
'gepflegt'
'generier'
'gende'
'gema'
'geltend'
'geist'
'gehei'
'geg'
'geführten_'
'geeigneten_'
'geeignete_'
'gather_'
'gastro'
'garage_'
'ganze'
'gangs'
'fürchte'
'fünf'
'fü'
'fäl'
'fut'
'funktion'
'fungier'
'fueled_'
'früh_'
'fru'
'friend_'
'fried'
'freilich_'
'freige'
'frame_'
'fragte'
'founder_'
'foster_'
'fortgesetzte'
'fortge'
'formuliert_'
'forme'
'forecast_'
'forder'
'fon'
'fläche_'
'flow'
'flaw'
'flags_'
'fits_'
'finanziell_'
'fin'
'fifth_'
'fie'
'festzulegen_'
'festlegen_'
'festgelegten_'
'featured_'
'favourite_'
'favour'
'fault_'
'fashion'
'fal'
'fait'
'faire_'
'eßen_'
'extremen_'
'exposure_'
'expo'
'experimental_'
'expenses_'
'expect'
'expan'
'exhibition_'
'executed_'
'execut'
'exceptions_'
'exceeds_'
'exceed'
'everyday_'
'europäisches_'
'eure_'
'eur'
'etzung_'
'etung'
'etablieren_'
'essi'
'erz'
'erv'
'erta'
'errors_'
'errichten_'
'ernsthaften_'
'erneuer'
'ermöglichte_'
'erische'
'eric'
'erhielten_'
'ergänzen_'
'erfu'
'erfreu'
'erfasst_'
'erbaut_'
'enve'
'entzieh'
'entra'
'ently_'
'entitlement'
'entgegenge'
'entertain'
'entdeckte'
'entails_'
'enjoying_'
'engi'
'enge'
'endi'
'encompass'
'empty_'
'employers_'
'emphasis'
'emm'
'emergence_'
'ement'
'embedded_'
'embark'
'eliminating_'
'eligible_'
'eins'
'eingeschränkt_'
'eingeb'
'eind'
'eien_'
'eichne'
'eho'
'ehe'
'egi'
'egal_'
'editorial_'
'ede'
'economist_'
'ecken_'
'ebr'
'eben'
'durchgeführten_'
'duration_'
'dunkle'
'droht_'
'dringlich'
'drew_'
'dramatisch_'
'drafted_'
'doubts_'
'dorthin_'
'dore'
'donor_'
'donat'
'dom'
'dle_'
'diversi'
'diversen_'
'districts_'
'dish'
'discharge_'
'direkt'
'dioxide_'
'dimensional'
'dim'
'dig_'
'differ_'
'dienst_'
'dich_'
'diagnose'
'diag'
'dha'
'dez'
'devoted_'
'devi'
'deutsch'
'deuten_'
'deterren'
'det'
'destabilizing_'
'desired_'
'deserve_'
'ders'
'derjenigen_'
'derived_'
'deprived_'
'dependen'
'departments_'
'depart'
'dense'
'demokratisch_'
'demographic_'
'delle_'
'degradation_'
'deco'
'dauern_'
'dasselbe_'
'dangers_'
'dag'
'cyclical_'
'cyber_'
'curs'
'cula'
'creativity_'
'crat'
'count'
'coun'
'correspond_'
'correction'
'cord'
'coole'
'cook'
'converted_'
'convert'
'conversation_'
'conv'
'controversial_'
'constructed_'
'construct_'
'constrain'
'consolidation_'
'cono'
'confront'
'conform'
'conf_'
'compulsory_'
'comprises_'
'complexity_'
'complement'
'competitors_'
'competing_'
'compensate'
'compatibility_'
'communicate_'
'commission'
'collected_'
'coherence_'
'clothing_'
'clip'
'clinical_'
'clicking_'
'classifi'
'classical_'
'clarification_'
'ckung_'
'civilians_'
'cit_'
'circum'
'cia'
'chts'
'chsel'
'chs'
'chme'
'ching_'
'child'
'chi_'
'ched_'
'checke'
'champions'
'challenging_'
'chairman_'
'chair_'
'certainty_'
'cease'
'casino_'
'capacities_'
'cap'
'cano'
'cancelled_'
'cam'
'bust'
'bury_'
'brother_'
'brit'
'breaking_'
'brand'
'branche_'
'booked_'
'boo'
'bomb'
'bold_'
'boa'
'bloß_'
'bli'
'bles_'
'bl'
'bit'
'bind'
'bien_'
'bia'
'bewert'
'bewer'
'besuchte_'
'bestände_'
'beschloss'
'beschleunigt_'
'bes'
'beru'
'berge'
'bereichen_'
'bera'
'benutzer'
'benachrichtigt_'
'benachbarten_'
'bemerkt_'
'bemerk'
'beliebige'
'belegt_'
'belaufen_'
'belast'
'bekenn'
'beiträgt_'
'beit'
'beinhalten_'
'beginne'
'begeben_'
'begab_'
'befriedigen_'
'bedeutsame'
'bedanken_'
'beat'
'bearing_'
'beanspruch'
'bb'
'battery_'
'batt'
'barr'
'barely_'
'balances_'
'bailout_'
'bab'
'aß'
'azi'
'az_'
'avoid'
'ava'
'autonom'
'automatic_'
'authorise'
'aut'
'auswärtige_'
'ausreicht_'
'ausgenutzt_'
'ausgegeben_'
'ausgedrückt_'
'ausgedehnt'
'auseinander_'
'aum_'
'aufzus'
'aufgew'
'aufgestellt_'
'aufges'
'aufgeb'
'audit'
'atz'
'attribute'
'attraction_'
'attend_'
'atl'
'atis'
'ation'
'aste'
'assurance_'
'asse_'
'arts_'
'arsenal'
'arrive_'
'aro_'
'argu'
'arena_'
'archi'
'appro'
'appreciation_'
'appreciated_'
'appoint'
'apologi'
'ap_'
'ap'
'anzugehen_'
'anw'
'antrag'
'anticipated_'
'anspruchsvolle'
'anschließen_'
'anschl'
'anis'
'anhaltende_'
'angs_'
'angewandt_'
'angetrieben_'
'anger_'
'angepasst_'
'angeme'
'angelegt_'
'angefangen_'
'ane_'
'ander'
'anbelangt_'
'analyze'
'analyst'
'amended_'
'ambitions_'
'allzu_'
'allgemeinem_'
'allge'
'alleg'
'alla'
'alized_'
'aliz'
'ality_'
'alisierung_'
'aligned_'
'align'
'albeit_'
'ala_'
'aket'
'airline_'
'ahmen_'
'ahm'
'ahl_'
'agn'
'agend'
'afraid_'
'advent'
'ads_'
'administrati'
'adidas_'
'addresses_'
'actively_'
'activ'
'aco'
'accus'
'accomplish'
'accident_'
'accelerate_'
'academi'
'ac'
'abzulehnen_'
'abhängen_'
'abgestimmt_'
'abgehalten_'
'abg'
'abandon_'
']] | _'
'Zweig'
'Zustellbetten_'
'Zust'
'Zuge'
'Zuerst_'
'Zimmerbeschreibung_'
'Zh'
'Zertifikat'
'Zahlungen_'
'Zah'
'Young_'
'You'
'Yan'
'Ya'
'Xin'
'XML_'
'Would_'
'Wort'
'Wind'
'Wiederbelebung_'
'Widerspruch_'
'Wesen_'
'Werden_'
'Wende'
'Wellness'
'Weiteren_'
'Wars'
'Warnung_'
'WAR'
'Voyager_'
'Vorstands'
'Volksabstimmung'
'Volcker_'
'Vogel'
'Vir'
'Vin'
'Vil'
'Vid'
'Vet'
'Vertretung_'
'Vertrages_'
'Vert'
'Versi'
'Versammlung_'
'Versa'
'Vergnügen_'
'Verfassungsvertrag'
'Vereinfachung_'
'Verbr'
'Ven'
'Van'
'Urteil_'
'Unterzeichnung_'
'Unterscheidung_'
'Unsere'
'Unruhen_'
'Unless_'
'Umfragen_'
'Umb'
'Tyr'
'Turb'
'Tuni'
'Tsi'
'Treasury_'
'Transit'
'Transfer'
'Tragödie_'
'Tower_'
'Touristen_'
'Tools_'
'Tisch_'
'Tickets_'
'Tibet'
'Thro'
'Think'
'Ther'
'Theorie_'
'Textil'
'Terroran'
'Tempora'
'Temp'
'Tap'
'Tao'
'Tag'
'Tabelle_'
'Syri'
'Swoboda_'
'Swi'
'Summen_'
'Suche'
'Subject_'
'Stärken_'
'Studium_'
'Studien_'
'Storage_'
'Stockholm_'
'Steuerung_'
'Sternen'
'Stau'
'Station'
'Standpunkte'
'Stammes'
'Stamm'
'Staatsschulden_'
'Spre'
'Spitzen'
'Spezie'
'Speci'
'Space_'
'Sonne_'
'Solarium_'
'Sof'
'Socialists_'
'Slo'
'Ska'
'Six_'
'Sisko_'
'Single_'
'Simbabwe_'
'Siege'
'Sicherheitss'
'Sicherheitsbe'
'Shops_'
'Sharon_'
'Server'
'Series_'
'Sekunde_'
'Scott_'
'Schöne'
'Schuld_'
'Schröder_'
'Schlussfolgerung_'
'Schluss'
'Schlu'
'Schli'
'Schlaf'
'Schiffs'
'Schengen_'
'Scar'
'Saudis_'
'Saturday_'
'SanDisk_'
'Sammlung_'
'Salzburg_'
'SR'
'SCH'
'Run'
'Rock'
'Rid'
'Richter_'
'Rica_'
'Repr'
'Repo'
'Renn'
'Rena'
'Rel'
'Reisende'
'Regions_'
'Reduzierung_'
'Reduc'
'Redner_'
'Rebellen_'
'Ratifizierung_'
'Rat'
'Rand'
'Rahmens_'
'Raf'
'RU'
'RS_'
'ROM_'
'Quick'
'Quest'
'Pä'
'Putins_'
'Pun'
'Proteste_'
'Protection_'
'Pros'
'Prophet'
'Programmen_'
'Profit'
'Profil'
'Prize_'
'Power'
'Pou'
'Por'
'Polizei'
'Plu'
'Platz'
'Pir'
'Pie'
'Picard_'
'Philippines_'
'Philip'
'Phil'
'Pharma'
'Pent'
'Pel'
'Peer_'
'Patri'
'Patch'
'Partnern_'
'Part'
'Parliamentary_'
'Parlaments'
'Papier'
'Papa'
'Panel_'
'Palacio_'
'PXI_'
'PDF_'
'Ozean'
'Orts'
'Orte_'
'Original_'
'Organis'
'Organ'
'Ordner_'
'Opfern_'
'Ombudsman_'
'Olympus_'
'Offen'
'Oberha'
'OU'
'OPEC_'
'OP'
'ODER_'
'Nutz'
'Nue'
'Nuclear_'
'Nob'
'Niedergang_'
'Neue_'
'Nazis'
'Namibia_'
'Nahrungsmittel_'
'Nag'
'NT_'
'ND'
'Mär'
'Muss'
'Music_'
'Musharraf_'
'Mund'
'Mugabe_'
'Much_'
'Motto_'
'Modul_'
'Modernisierung_'
'Modelle_'
'Mittela'
'Mittag'
'Mitgliedsländer_'
'Mitentscheidung'
'Minister'
'Militär_'
'Migranten_'
'Miet'
'Michel_'
'Michel'
'Meth'
'Messe_'
'Menschenrechtsverletzungen_'
'Menschenrechten_'
'Mem'
'McKinsey_'
'Mazedonien_'
'Maus'
'Materialien_'
'Marke_'
'Map'
'Mand'
'ME_'
'MED'
'MDGs_'
'MD'
'MAR'
'MAN'
'Luxembourg_'
'Lula_'
'Love'
'Louis_'
'Lot'
'Lobby_'
'Liu_'
'Lite'
'Linien_'
'Libyen_'
'Lesung_'
'Leo'
'Leiter_'
'Leid_'
'Lehman_'
'Legi'
'Lea'
'Large_'
'Language_'
'Landschaft_'
'Lama_'
'Lager'
'LA_'
'Kün'
'Kraftstoff'
'Komplex'
'Kollege_'
'Kohlendioxid'
'Know_'
'Kirchen'
'Ki_'
'Kho'
'Kein_'
'Kampa'
'Kambodscha_'
'Kabel_'
'Jörg_'
'Jung'
'Jos'
'Jon'
'Jesus_'
'Jas'
'Jam'
'JA'
'Irr'
'Ion'
'Intergovernmental_'
'Intel_'
'Inte'
'Installations'
'Inlands'
'Infektion'
'Individual'
'Indi'
'Importe'
'IN_'
'ICEcat_'
'IA_'
'Höhepunkt_'
'Händen_'
'Hyatt_'
'Horizont'
'Hohen_'
'Hinzu'
'Hinweise_'
'Hinter'
'Hierzu_'
'Hier'
'Herzego'
'Heads_'
'Hannover_'
'Ham'
'Haiti_'
'Gö'
'Gul_'
'Gui'
'Grünen_'
'Größen'
'Grundsätze_'
'Große_'
'Greens_'
'Gran'
'Gouverneur'
'Golf'
'Gleichstellung_'
'Gle'
'Gil'
'Gewässer'
'Gewinner_'
'Gesundheitsp'
'Gesamte'
'Gerät_'
'Gerichten_'
'Geneva_'
'Genehmigung_'
'Gemä'
'Gemeinschaftsp'
'Gele'
'Geis'
'Gegenwärtig_'
'Gegenden_'
'Gefangenen_'
'Geburt'
'Gazastreifen_'
'Gaz'
'Gard'
'Gall'
'GEN'
'Fürs'
'Fünf'
'Führungsp'
'Fußball'
'Fukushima_'
'Fuji'
'Freihandels'
'Fore'
'Flughafen'
'Flor'
'Fleisch'
'Fl'
'Fische'
'Finanzk'
'Finanzin'
'Feed'
'Fee'
'Fast_'
'Fantas'
'Fahrer_'
'FL'
'FD'
'FARC_'
'Extra'
'Exe'
'Evans_'
'Europarat'
'Ethiopia_'
'Estonia_'
'Esp'
'Erwerb_'
'Erst_'
'Ersch'
'Erl'
'Erinnerung_'
'Er'
'Entwicklungsa'
'Entw'
'Entsteh'
'Entschuld'
'Entlastung_'
'Ens'
'Enk'
'Englisch_'
'Energieeffizienz_'
'Energiea'
'Empfänger_'
'Element'
'Elektro'
'Electronic'
'Einzelnen_'
'Einwohnern_'
'Einsp'
'Einschränkung_'
'Einsatz'
'Eing'
'Einfluss'
'Einb'
'Eigent'
'Eb'
'EX'
'EWG_'
'EV'
'ECH'
'Dé'
'Dusche_'
'Durchbruch_'
'Dur'
'Drogen_'
'Dritten_'
'Dresden_'
'Double_'
'Donnerstag_'
'Domin'
'Dokument'
'Disc'
'Disabled_'
'Diplomatie_'
'Digi'
'Dienste'
'Dick'
'Di_'
'Deut'
'Dest'
'Deposit_'
'Def'
'Deba'
'Deal_'
'Dau'
'DD'
'Cross_'
'Crew_'
'Countries_'
'Corb'
'Const'
'Congo_'
'Computers'
'Commo'
'Colon'
'Clau'
'Citizens_'
'Cin'
'Christine_'
'Christ'
'Child_'
'Chicago_'
'Chechnya_'
'Charl'
'Chan'
'Cast'
'Cash'
'Carl_'
'Car_'
'CL'
'CDs_'
'CC_'
'CB'
'Büro_'
'Büro'
'Bundestag_'
'Bull'
'Buchung_'
'Browser_'
'Briten_'
'Boutique_'
'Bour'
'Bonn_'
'Bomben'
'Bin'
'Bill'
'Bilanz_'
'Bier'
'Bie'
'Bewohner_'
'Betriebssystem_'
'Betracht_'
'Bestand'
'Beschwerden_'
'Bergen_'
'Bereits_'
'Berechtigung'
'Beratung'
'Benach'
'Bemühen_'
'Bekanntlich_'
'Bein'
'Begr'
'Beg'
'Befr'
'Bedien'
'Bear'
'Balk'
'Bach'
'BL'
'Autorität_'
'Automati'
'Ausw'
'Australien_'
'Ausrichtung_'
'Ausbildungs'
'Ausbeutung_'
'Augenmerk_'
'Augenblick_'
'Aufg'
'Asse'
'Arr'
'Armenia'
'Arme'
'Argument'
'Architekt'
'Archer_'
'Arbeitss'
'Arbeitslosen'
'Arbeitsgruppe'
'Arafat_'
'Arabi'
'App'
'Apart_'
'Anwe'
'Anschläge_'
'Anschl'
'Anreiz_'
'Anpassungs'
'Annan_'
'Anlage'
'Anl'
'Anges'
'Ang'
'Anbindung_'
'Amm'
'Alpe'
'Alli'
'Allah_'
'Airways_'
'Afrikanische'
'Aff'
'Add_'
'Acht_'
'Access'
'Abw'
'About_'
'Ablauf_'
'Abbau_'
'AD'
'AB_'
'A6_'
'>'
'=='
'93_'
'89_'
'84_'
'76_'
'76'
'74_'
'74'
'66_'
'47'
'215'
'1980s_'
'1962_'
'1950_'
'1948_'
'1930er_'
'184'
'0s_'
'.) _'
'.&#_'
'. "_'
') ._'
'#_'
' – _'
' – '
' » _'
' = [[_'
' --> _'
'€'
'– '
'х_'
'ра'
'по'
'во'
'ве'
'ι'
'ła'
'üß'
'ünstige'
'üllen_'
'ührt_'
'übt_'
'überwältigende'
'übern'
'übergeben_'
'überge'
'überein'
'überarbeitet'
'üb'
'öst'
'ös'
'örder'
'ór'
'ña'
'êt'
'én'
'ère_'
'ätzliche'
'ärkte_'
'ärk'
'ändler_'
'ändige'
'ändert_'
'äler'
'äd'
'ä_'
'ßig'
'Übersetzungs'
'Überr'
'Überleben_'
'Überl'
'Öko'
'Öffentliche_'
'Ähnlich'
'Äg'
'«'
'}} _'
'{'
'züge'
'zzi'
'zuw'
'zuverlässige'
'zuv'
'zutage_'
'zunichte_'
'zulässig'
'zugeh'
'zug_'
'zog_'
'zl'
'ziplin'
'zine'
'ziert_'
'zeita'
'zeile'
'zan'
'zahlung_'
'zahlreicher_'
'yy'
'yw'
'yth'
'yl_'
'yl'
'yan_'
'xo'
'xie'
'xes_'
'wäsche_'
'wählt'
'wunderschönen_'
'wunderbare'
'worsen'
'worauf_'
'wol'
'wle'
'witnessing_'
'wished_'
'wing'
'willen'
'wiederholte'
'width_'
'wid'
'wheel_'
'whe'
'wertvollen_'
'wertung_'
'wertige'
'werks'
'wendet_'
'wen'
'weißen_'
'weig'
'weiche'
'wee'
'websites_'
'weakness_'
'weakening_'
'warnen_'
'ward_'
'wandel'
'vorzus'
'vorsitzende'
'vorschlag_'
'vorher'
'vorgeschlagene_'
'vorauss'
'vora'
'volunteer_'
'volumen_'
'vo_'
'visiting_'
'virtue_'
'ville_'
'vierte'
'vielf'
'vice_'
'vet_'
'veröffentlichte_'
'verzeichnet'
'verz'
'verwendete_'
'verursachten_'
'vertrauen_'
'vertr'
'versuchten_'
'versuchte_'
'verst'
'versp'
'versicherung'
'versetzen_'
'verschärfen_'
'verschmutz'
'verschlimmer'
'verschle'
'verschl'
'verschieben_'
'versamm'
'verpa'
'vermute'
'vermei'
'vermehrt'
'verletzt_'
'verla'
'verkehrs_'
'verkauft_'
'verheerend'
'verha'
'vergrößert'
'vergleich'
'verge'
'verga'
'vereint_'
'vereinig'
'vereinfacht'
'verein'
'verdräng'
'verdo'
'verda'
'verbrauche'
'verbr'
'verbleibenden_'
'verbindlich_'
'verbesserten_'
'verantwortungs'
'verabschieden_'
'ventur'
'vention'
'veness_'
'vene'
'vegetables_'
'vast'
'valley_'
'validat'
'vai'
'uß'
'uu'
'uts'
'utm'
'ution_'
'uten_'
'uste'
'usses_'
'usschuss_'
'usal'
'urop'
'urh'
'ura_'
'upt_'
'ups'
'upp'
'updates_'
'unzureichend'
'unverantwortlich'
'unterw'
'unterschätz'
'unterliegt_'
'unterbrochen'
'unta'
'unsustainable_'
'unse'
'unsa'
'unprecedented_'
'unnötige'
'unmi'
'unm'
'unl'
'uniti'
'unh'
'ungss'
'ungsl'
'ungsg'
'ungleich'
'ungewöhnliche'
'unges'
'undertaking_'
'underscore'
'underpinned_'
'underpin'
'uncon'
'unbest'
'umr'
'umk'
'umi'
'umfassend_'
'umf'
'ume'
'ult_'
'uls'
'ular'
'ula'
'ugs'
'ugh'
'ugen_'
'uga'
'uert_'
'ucht_'
'uch_'
'uali'
'té'
'tätigen_'
'tär'
'typischen_'
'typische_'
'tv'
'turn'
'turb'
'tse'
'tschetschenische'
'trug'
'tril'
'triggered_'
'trigger_'
'trick'
'tremendous_'
'treatments_'
'treaties_'
'trap_'
'transporti'
'tracking_'
'totalit'
'torium_'
'topp'
'tok'
'tlin'
'tlich_'
'tisa'
'tioni'
'tiona'
'tien'
'tiefer_'
'tiate'
'thereafter_'
'theme'
'teurer_'
'testen_'
'tert'
'tensions_'
'tension_'
'teilung_'
'techno'
'techni'
'tch_'
'tariffs_'
'tare'
'tanz'
'tankers_'
'tang'
'tab_'
'südlichen_'
'switched_'
'svors'
'sverfahren_'
'suspension_'
'suspect'
'surprising_'
'supplier_'
'supervisor'
'superb_'
'sung'
'summ'
'suche_'
'such'
'successor_'
'subway_'
'substanzielle'
'substan'
'subjects_'
'stützt_'
'stärkste_'
'stärkeren_'
'stupid_'
'stung_'
'stunde_'
'stun'
'stum'
'strukturelle_'
'strom_'
'stro'
'strive_'
'stric'
'strand'
'stran'
'strahl'
'ston'
'stli'
'stimmung'
'stick_'
'stet_'
'stereo'
'stel'
'steer'
'steckt_'
'stattdessen_'
'standardis'
'stair'
'stabiler_'
'ssung_'
'ssp'
'ssment_'
'ssed_'
'ssan'
'spu'
'sprozess_'
'spra'
'spor'
'sponsor'
'spiele_'
'spekul'
'spark'
'sozialistischen_'
'souveräne'
'sorti'
'sonstige_'
'som'
'solide_'
'soft'
'smokers_'
'smen_'
'slow'
'slip'
'sleeping_'
'sle'
'sku'
'siz'
'sive'
'situationen_'
'simpli'
'simis'
'signali'
'sichtig'
'shutt'
'shut_'
'shrinking_'
'shou'
'shortages_'
'sheets_'
'sexuellen_'
'sexu'
'sew'
'settled_'
'sessions_'
'servant'
'serv'
'sep'
'sentence'
'sends_'
'sely_'
'sele'
'sektors_'
'secretar'
'secret'
'seas_'
'seal'
'scrap'
'scr'
'schützt_'
'schwierige_'
'schwierig'
'schwarzen_'
'schwa'
'schulden'
'schu'
'schmerzhaft'
'schlimm'
'schließe_'
'schlechtes'
'schle'
'schenken_'
'schaft'
'schafft_'
'sber'
'sba'
'saubere'
'satisfaction_'
'santa_'
'sant'
'sample_'
'same'
'sac'
'rückt'
'rüch'
'räg'
'rzt_'
'rzi'
'rust'
'rungs'
'rund'
'ruf'
'rub'
'rtet'
'rter_'
'rted_'
'rsi'
'rse'
'rsch'
'rp'
'rota'
'ros_'
'rome_'
'roi'
'robuste'
'robot'
'rnt_'
'rl'
'risky_'
'riskieren_'
'rio'
'rige'
'ries'
'rieren_'
'ried'
'richtete_'
'rib'
'rianis'
'rgen_'
'rez'
'reward_'
'revol'
'revised_'
'reunification_'
'reten_'
'resur'
'resume'
'restructure'
'respektieren_'
'respect'
'resp'
'resolving_'
'resid'
'reserven_'
'reservations_'
'repräsent'
'repression_'
'repair_'
'remuneration_'
'remit'
'reme'
'relie'
'reliability_'
'relevance_'
'relaxation_'
'relationships_'
'rejection_'
'reiterate_'
'reist'
'reise_'
'reis_'
'reinforce_'
'reine_'
'reiche'
'regierung'
'regi'
'reduces_'
'recover'
'recip'
'rechtliche'
'rechtlich_'
'rechtfertigen_'
'receiving_'
'ream'
'realities_'
'rdl'
'rchi'
'rce'
'rben_'
'rbeit_'
'rauch'
'rans'
'rang'
'ral'
'raft'
'raf'
'radar_'
'rac'
'ques_'
'quent'
'pus'
'pursued_'
'pure_'
'punish'
'pull'
'publici'
'präzise_'
'pruden'
'protestier'
'protektionistische'
'protection'
'prostitut'
'pron'
'prolonged_'
'projected_'
'profi'
'produz'
'prize_'
'privilege_'
'prisoners_'
'prioriti'
'printing_'
'printer_'
'pria'
'preventing_'
'pretend'
'prestigious_'
'pressing_'
'presidents_'
'prediction'
'precede'
'precaution'
'practi'
'pping_'
'potenzielle_'
'pot_'
'port'
'pornograph'
'populist_'
'pop'
'poorly_'
'poly'
'polo'
'polari'
'poker_'
'pocket'
'plötzliche'
'plätze_'
'pläne_'
'plate_'
'pl'
'pity_'
'pis'
'piracy_'
'pine'
'pillar_'
'pilgrim'
'pier'
'pieces_'
'physi'
'photograph_'
'pflanz'
'pes_'
'perspectives_'
'persone'
'pers'
'permission_'
'permanently_'
'peg'
'peacefully_'
'pat'
'passport_'
'passende'
'passage'
'participating_'
'participated_'
'partei_'
'parl'
'park'
'paren'
'papers_'
'panoramic_'
'palästinensische_'
'paket_'
'paint_'
'pain'
'pai'
'pag'
'pad_'
'packen_'
'oß_'
'overr'
'overlook_'
'outright_'
'ours_'
'oso'
'oro'
'orn_'
'origins_'
'orientiert_'
'ori_'
'orge_'
'org'
'ordn'
'ordern_'
'optimis'
'optical_'
'oph'
'operators_'
'opera_'
'ope'
'onym'
'oni_'
'onent'
'oly'
'ologischen_'
'olo_'
'oli'
'oks_'
'ois'
'ohl_'
'ogen'
'oga'
'offs_'
'offensichtliche'
'odd'
'ochen_'
'oche'
'occurring_'
'obscure'
'nützliche_'
'näch'
'nwe'
'nutz'
'nuklearen_'
'nuestr'
'nswert_'
'nste'
'nsta'
'nsa'
'novel'
'notion_'
'notification_'
'nomina'
'nkung'
'nko'
'nka'
'nig'
'nien_'
'niedrigere'
'niederge'
'nid'
'ngte'
'ngt_'
'nger_'
'nga'
'nfalls_'
'newsletter_'
'neutral_'
'neuesten_'
'netze_'
'nesian'
'nese_'
'nes'
'nern_'
'neo_'
'nem'
'nel_'
'nel'
'neighborhood'
'nehmer_'
'nehme_'
'neben'
'ndlung'
'nding_'
'nden'
'ncie'
'nationalistische'
'nas_'
'narr'
'nant'
'namens_'
'nam'
'nahezu_'
'nah_'
'nage'
'nad'
'nachzu'
'nacht'
'nachdenken_'
'nab'
'mütig'
'mündlichen_'
'mysql'
'musik_'
'music'
'multinational_'
'multilateral'
'mpel'
'motivier'
'moreover_'
'mord'
'moo'
'monument'
'monopoly_'
'mond_'
'mon'
'modification_'
'modi'
'modernization_'
'mmt_'
'mml'
'mmig'
'mme_'
'mme'
'mm'
'mix'
'mittl'
'mitteilen_'
'mitglieder_'
'mistakes_'
'miss_'
'miracle'
'minde'
'mile'
'milde'
'mier'
'mie_'
'micro_'
'mher'
'metri'
'meta'
'met'
'menge'
'meltdown_'
'meets_'
'measurement_'
'maßen_'
'matic_'
'marriage_'
'march'
'marble_'
'mapp'
'manufacturer_'
'manufacture'
'mangelnde_'
'mane'
'mamm'
'malt'
'mall'
'makro'
'mais_'
'mail'
'mai'
'mag'
'macro_'
'mach'
'lüge'
'lösungen_'
'läßt_'
'länger'
'läge_'
'lw'
'luxuriöse_'
'lux'
'lud'
'luck'
'lth'
'low'
'loser_'
'loop'
'logis'
'loge'
'loaded_'
'lli_'
'lled_'
'lj'
'lität'
'literally_'
'limiting_'
'lik'
'lieren_'
'lieferte'
'liebe'
'lichsten_'
'licherweise_'
'libysche'
'liberalen_'
'lian'
'liabilities_'
'letzte'
'less'
'lernt'
'lera'
'lent'
'leitet_'
'leistungsstarke'
'lei'
'legung'
'leer'
'lds_'
'lding'
'lave'
'laundry_'
'lati'
'laste'
'lass'
'lar_'
'landschaft_'
'lakes_'
'label_'
'kutiv'
'kus'
'kurzfristige_'
'kurse_'
'kum'
'kula'
'ktivi'
'ktive'
'kräftige'
'kräften_'
'kreuz'
'kraft'
'kra'
'kot'
'korrigieren_'
'konzentrierte'
'kontrollierte'
'kontra'
'kontin'
'konsum_'
'konsolidier'
'konkreter_'
'konflikt'
'kommunistische_'
'kommerziellen_'
'komfortablen_'
'komfortable_'
'kohlenstoff'
'knapp'
'klingt_'
'kleines_'
'kleineren_'
'kl'
'kins_'
'kh'
'kette_'
'kett'
'kenne_'
'keeps_'
'kd'
'kay'
'kate'
'karten_'
'kapitalistische'
'kapital_'
'kab'
'jüngst_'
'juristische'
'jung'
'junct'
'judgment_'
'judg'
'journal'
'jor'
'jetzigen_'
'jegliche'
'ject'
'jan_'
'iß'
'ize'
'ix'
'itäten_'
'itä'
'itude_'
'itis_'
'iting_'
'ith'
'iter'
'istischer_'
'istic_'
'ister'
'isn_'
'irregular'
'irgendwann_'
'iou'
'ior_'
'ion'
'inz'
'investigate_'
'inve'
'invasion_'
'interinstitutional_'
'interessant_'
'intell'
'integrierten_'
'integrierte_'
'integrieren_'
'inte'
'insure'
'instructi'
'instances_'
'inspiration_'
'inspectors_'
'inos_'
'innocent_'
'inne_'
'inne'
'inmitten_'
'init'
'inig'
'inhab'
'ingt_'
'informati'
'influenced_'
'inflict'
'infection_'
'iner_'
'inen'
'inefficient_'
'indo'
'individually_'
'indirect_'
'indication_'
'independently_'
'incorporated_'
'incorporate_'
'incl'
'inch_'
'importi'
'imported_'
'implied_'
'impede'
'imo'
'immune_'
'ime'
'ima'
'ilung_'
'illustrate'
'illustr'
'illo'
'ilde'
'ild'
'iha'
'ignorieren_'
'iges_'
'ife'
'ießen_'
'ierbare'
'iede'
'ido'
'ideologische_'
'identisch'
'identifizier'
'identical_'
'idealer_'
'ideal'
'idad_'
'icon_'
'ico'
'icherte'
'icher'
'ibt_'
'ianische'
'höh'
'hängig'
'hw'
'hus'
'hurt_'
'hungr'
'hts'
'hrte'
'hou'
'hospitals_'
'homo'
'hofft'
'hly_'
'hlen_'
'his'
'hinzu_'
'hinweg'
'hink'
'hind'
'hil'
'hiking_'
'hierzu_'
'hiera'
'hielten_'
'hic'
'hervorrufen_'
'hervorge'
'herself_'
'herrschende'
'herrliche'
'herbeiführen_'
'herab'
'hens'
'hell'
'height_'
'hec'
'hearts_'
'headquarters_'
'hd'
'hast'
'harte_'
'harmonis'
'hap'
'handels'
'hamper'
'hafte_'
'hafte'
'günstige_'
'gungs'
'gun'
'guilt'
'gue'
'grüne_'
'gründlich_'
'gründet'
'größtenteils_'
'graphic_'
'grants_'
'gramm_'
'grafische'
'grad'
'good'
'gnis'
'gne'
'gnant_'
'gm'
'glich_'
'gleicher_'
'glad_'
'gift_'
'gier'
'gia'
'ghts_'
'ght'
'ggle'
'gewöhnlich'
'gewer'
'gewaltige'
'getrennt'
'gespa'
'gesp'
'gesichert_'
'gesetze'
'gesellschaftliche_'
'geschm'
'geschickt_'
'geschenkt_'
'gericht'
'geor'
'geopolitischen_'
'gentl'
'genocide_'
'generals_'
'genc'
'genauer_'
'gemütliche_'
'gemäßigte'
'gemessen_'
'gemeint'
'geli'
'gelegentlich_'
'gelegenen_'
'gekämpft_'
'geko'
'gekennzeichnet_'
'geka'
'geholfen_'
'gegenübersteh'
'gegenseitige_'
'gefährliche_'
'gefe'
'gebunden_'
'gasse_'
'gases_'
'gas'
'führten_'
'führend_'
'förder'
'fällen_'
'fähr'
'fä'
'furt'
'funktionen_'
'funktion_'
'fundamentalis'
'fund'
'functional_'
'fting_'
'fter_'
'frühe'
'früh'
'freundlicher_'
'freund'
'frequen'
'freiwillig'
'frameworks_'
'fragment'
'founding_'
'fossilen_'
'fortunate'
'fortschrittliche'
'forschung'
'formulier'
'formelle'
'formation'
'forgotten_'
'forever_'
'folgte_'
'flü'
'flourish'
'flou'
'flavo'
'fix'
'fische'
'finger'
'finds_'
'fina'
'figur'
'fielen_'
'fet'
'fests'
'feste'
'fens'
'fehlen'
'fed_'
'fax_'
'favourable_'
'fat_'
'fantastische'
'familie'
'fall'
'fahrzeuge_'
'fab'
'ez'
'extremism_'
'externen_'
'exter'
'express'
'explicit_'
'expla'
'exercise'
'exc'
'exact_'
'exacerbate'
'eventuelle'
'eve'
'evaluate_'
'europa'
'euro'
'etten_'
'ette_'
'ette'
'etr'
'eth_'
'eter_'
'esta_'
'ession_'
'esca'
'erörtern_'
'eröffne'
'erwach'
'erto'
'erschütter'
'erri'
'erra'
'erod'
'erneute_'
'ernannt_'
'erleichtert_'
'erledig'
'erle'
'erinner'
'erhalt'
'ergänzt_'
'ergeb'
'erge'
'erforsch'
'erfolgte_'
'erenz'
'ereich'
'erect'
'erd'
'eradicat'
'equip'
'epis'
'epidemic_'
'epidemi'
'entspannen_'
'entschied_'
'enthaltenen_'
'entgegenzu'
'entgegen'
'entfernten_'
'entfernen_'
'entfallen_'
'ense'
'enrich'
'enp'
'enorm'
'eno'
'enntnis'
'enh'
'enfor'
'endeavour'
'ency_'
'empfohlen'
'emotion'
'emitt'
'emission'
'embr'
'emble'
'ema'
'elte'
'elli_'
'electorate_'
'eitung_'
'eisung'
'einzustellen_'
'einzusch'
'einzuf'
'einzig'
'einräum'
'einr'
'einnimmt_'
'einm'
'einla'
'einkommen_'
'eingest'
'eingeräumt_'
'eingereicht_'
'eingehend'
'eingebe'
'eine'
'eigne'
'eigentliche_'
'eid'
'ehrlich_'
'ehn'
'effektiven_'
'eff'
'efe'
'ees_'
'educa'
'edition_'
'eder'
'ect_'
'echnologie'
'ech'
'ebo'
'eating_'
'dynamism_'
'dynamische'
'dyn'
'dus'
'durchschnittliche_'
'durchbr'
'dura'
'dur'
'duc'
'dubious_'
'dte'
'drücken_'
'draw'
'drag_'
'dow'
'dor_'
'domin'
'dol'
'dne'
'dm'
'divisions_'
'dite'
'disziplin_'
'distress_'
'distinct_'
'diss'
'disrupti'
'displaced_'
'diskriminier'
'disk'
'dise'
'disagreement_'
'dire_'
'dik'
'dige'
'diffus'
'differen'
'differ'
'diesbezüglichen_'
'dienste_'
'dicht_'
'dice'
'dhi'
'deux_'
'deutscher_'
'deutliche_'
'detriment_'
'dete'
'desp'
'deport'
'deploy'
'deplor'
'dependence_'
'denti'
'dens'
'denominat'
'deno'
'demonstration_'
'demonstrating_'
'dell_'
'delegate'
'deflation_'
'defines_'
'deepen'
'deemed_'
'decrease_'
'declined_'
'deckt_'
'deciding_'
'dba'
'db'
'dauerhaften_'
'dauerhafte_'
'dauer'
'dateien_'
'databases_'
'dark'
'dan_'
'cultivat'
'culo'
'ctive_'
'crown'
'crip'
'creature_'
'craft_'
'cosmetic'
'convicted_'
'conver'
'controller_'
'contro'
'continuous_'
'conte'
'consult_'
'constitutes_'
'consist'
'consi'
'consciousness_'
'connect'
'confused_'
'condemned_'
'condemn'
'concludes_'
'concert_'
'concentrated_'
'conc'
'composition_'
'compli'
'complain'
'compile'
'compact_'
'committing_'
'comme'
'combining_'
'comb'
'collapsed_'
'collaps'
'coat'
'clu'
'cle_'
'clara_'
'cking_'
'cker'
'cited_'
'cis'
'cinema'
'cien'
'cid'
'cian'
'chä'
'chter'
'chte_'
'chronic'
'chriften_'
'chor'
'chil'
'chemische_'
'chem_'
'cheat'
'chaue'
'characteristics_'
'cham'
'centers_'
'cease_'
'caution_'
'cati'
'casinos_'
'care'
'captured_'
'capture_'
'capital'
'can'
'camp'
'buck'
'brücke'
'broke_'
'brochure'
'brin'
'breit_'
'brauch'
'branche'
'bow'
'bour'
'bound'
'bombs_'
'bombard'
'bolster'
'blu'
'bloße_'
'blood'
'blockieren_'
'blat'
'biology_'
'bing_'
'billig_'
'bilanz'
'bid_'
'bic'
'bias_'
'bezug_'
'bezieh'
'bezeichnen_'
'bewährte'
'bewusste'
'bewahren_'
'bewaffneten_'
'betragen_'
'bete'
'bestä'
'bestr'
'bestimmtes_'
'bestimmter_'
'besticht_'
'beside'
'beschä'
'beschrieben_'
'beschei'
'besagt_'
'beruhigen_'
'berufliche_'
'berichte'
'bereiten_'
'berechtig'
'beobachtet'
'beneficial_'
'benannt'
'beliebtes'
'beizutragen_'
'behold_'
'behav'
'beha'
'beh'
'befehl'
'befasst_'
'beeindruckend'
'bedeut'
'beau'
'bean'
'bbi'
'bbe'
'battle'
'bathing_'
'basi'
'barri'
'balcony_'
'bahn'
'año'
'ays_'
'avo'
'ave'
'autoritäre'
'auto_'
'auszuführen_'
'ausstatt'
'ausschusses_'
'ausschließ'
'ausreichende'
'ausmachen_'
'ausgewählt_'
'ausgew'
'ausgeschlossen_'
'ausgeprägt'
'ausgebildete'
'ausführ'
'ausdrückliche'
'aufwa'
'auft'
'aufkommen_'
'aufgez'
'aufgef'
'aufb'
'ature'
'atur'
'attraktive_'
'attra'
'attain'
'attacking_'
'attacked_'
'atra'
'ativen_'
'atic_'
'athlet'
'ater_'
'atemberaubende'
'asymmetri'
'asy'
'astr'
'ast_'
'assumption_'
'asso'
'assi'
'assess'
'asserti'
'assa'
'asc'
'ars'
'arri'
'arme'
'arising_'
'aria'
'architect'
'arabische_'
'appeal'
'appalling_'
'anzuwenden_'
'anzuh'
'anzug'
'anze'
'anz_'
'anz'
'anyway_'
'any'
'anwesend_'
'antworten_'
'antr'
'antic'
'anteil'
'anstrebt'
'anscheinend_'
'anschau'
'anpass'
'announce_'
'annimmt_'
'ankurbeln_'
'anisch'
'angenehme'
'angenehm_'
'angemessenen_'
'angekündigt_'
'angehen_'
'angebot'
'anga'
'anfangen_'
'anes'
'ande'
'ancy_'
'ances_'
'analysier'
'analyse_'
'amend_'
'ambigu'
'ambi'
'alts'
'altet'
'alleged_'
'aler_'
'akzeptabel_'
'aktiviert_'
'aktiven_'
'aj'
'aine'
'ahrt_'
'ahlen_'
'agog'
'aggre'
'affirm'
'affi'
'affen_'
'advisor'
'advertisement'
'advancing_'
'adre'
'ador'
'adding_'
'actress_'
'achievement_'
'accord_'
'accompanying_'
'accommodati'
'abzielen_'
'abw'
'absurd_'
'abstra'
'abse'
'abgew'
'abgesehen_'
'abf'
']]'''
'] ._'
'Zwischen'
'Zusagen_'
'Zus'
'Zucker_'
'Zinss'
'Zeitungen_'
'Zahlung_'
'Zahlreiche_'
'Yeltsin_'
'XL'
'Wünsche_'
'Wähle'
'Wurzel'
'Wur'
'Wun'
'Wu'
'Works'
'Wo_'
'Wirtschaftsf'
'Wirksamkeit_'
'Wille'
'Wil'
'Wies'
'Wiederaufbau_'
'Widersprüche_'
'Wichtigkeit_'
'Wichtig_'
'WiFi_'
'Who'
'Whenever_'
'Wetter_'
'Wettbewerbe'
'Weste'
'Werkzeug_'
'Weltm'
'Wellen_'
'Wel'
'Weiterver'
'Weiterentwicklung_'
'Weigerung_'
'Week'
'Wed'
'Wechselkurs'
'Wechsel_'
'Wassers'
'Warn'
'Wag'
'Wachstumss'
'Wac'
'WO'
'Vu'
'Votum_'
'Vorsorge'
'Vorsitzender_'
'Vorgabe'
'Vorf'
'Vorbereitungen_'
'Vita'
'Visual_'
'Village_'
'Vier_'
'Verzögerungen_'
'Verzeichnis_'
'Verwirklichung_'
'Vertrags_'
'Versand'
'Vermittlungs'
'Verlängerung_'
'Verla'
'Veri'
'Verhinderung_'
'Verheugen_'
'Verha'
'Verge'
'Verfechter_'
'Verfasser'
'Verbot'
'Verbind'
'Verantwortungs'
'Verantwortlichkeit'
'Veranstaltungsräume_'
'Verabschiedung_'
'Vene'
'Vegas_'
'Vale'
'VD'
'VAT_'
'VA'
'Users_'
'Urban'
'Unterricht'
'Unterhalt'
'Universum'
'Un_'
'Umweltz'
'Umweltfragen_'
'Umsatz_'
'UNG_'
'Tätigkeiten_'
'Typ'
'Twitter_'
'Twin'
'Tw'
'Tunnel'
'Tuesday_'
'Tschetschenien_'
'Trinkwasser'
'Tribu'
'Tren'
'Treiber_'
'Treib'
'Travel_'
'Translat'
'Transa'
'Trans_'
'Training_'
'Tradi'
'Track'
'Tourismus'
'Total_'
'Together_'
'Todesopfer_'
'Todes'
'Tob'
'Titan'
'Tir'
'Tho'
'Thir'
'Thi'
'Theor'
'Theo'
'Theater'
'Terr'
'Terminal_'
'Temperaturen_'
'Tell'
'Teilnehmer'
'Taxi'
'Task_'
'TS'
'TION'
'TEN'
'TEC'
'TC'
'Sä'
'Synchron'
'Swe'
'Sunniten_'
'Summe_'
'Sum'
'Suiten_'
'Substanz'
'Studie'
'Stud'
'Strände_'
'Strei'
'Streben_'
'Store_'
'Stock_'
'Still'
'Stev'
'Step'
'Stal'
'Stadium_'
'Spring_'
'Spr'
'Spende'
'Spen'
'Spekulation'
'Source_'
'Sonnens'
'Sometimes_'
'Sollten_'
'Society_'
'Soci'
'Sn'
'Sky_'
'Sitz'
'SilverFast_'
'Sigma'
'Sieb'
'Sie'
'Sicherheits_'
'Shu'
'Shar'
'Sh'
'Settings_'
'Senegal_'
'Senate_'
'Sem'
'Seitens'
'Segel'
'Seas'
'Script'
'Scien'
'Schwarze'
'Schwach'
'Schuh'
'Schrift'
'Schmerz'
'Schließung_'
'Schla'
'Schl'
'Schiiten_'
'Santiago_'
'Sah'
'Sag'
'Safe_'
'Sad'
'Sachs_'
'SY'
'SV_'
'STE'
'SLR_'
'SL'
'SC_'
'Rö'
'Russians_'
'Rum'
'Robert'
'River'
'Rival'
'Risikobe'
'Right_'
'Rif'
'Richtlinien'
'Richt'
'Rezept'
'Revol'
'Rettung_'
'Respons'
'Reserven_'
'Res'
'Republikaner_'
'Renten'
'Renditen_'
'Remo'
'Relax_'
'Reit'
'Reinigung_'
'Reihenfolge_'
'Reich_'
'Reh'
'Regula'
'Registr'
'Regierungsp'
'Regel'
'Recovery_'
'Record'
'Rechtsetzung'
'Recht'
'Rechn'
'Recently_'
'Recent_'
'Ratsvorsitzes_'
'Randlage_'
'Ramblas_'
'Raketen'
'Rahmenprogramm'
'RSS_'
'RS'
'RGB_'
'Quer'
'Quarte'
'Quark'
'Qa'
'Prävention_'
'Prov'
'Protokolls_'
'Protest'
'Promo'
'Projekten_'
'Prof_'
'Process_'
'Priv'
'Prev'
'Presidents_'
'Premier'
'Portal'
'Populis'
'Popularität_'
'Poor_'
'Poll'
'Politi'
'Polic'
'Pl'
'Pil'
'Pierre_'
'Phänomen_'
'Photos'
'Photo'
'Pho'
'Pfund_'
'Pflege_'
'Pflege'
'Personen'
'Perl'
'Pensions'
'Peninsula_'
'Pazifik'
'Passag'
'Parks_'
'Parkplätze_'
'Parallele'
'Parag'
'Pak'
'Paar_'
'PV'
'PA_'
'Oz'
'Oste'
'Oslo_'
'Ora'
'Olive'
'Official_'
'Offensi'
'Oberfläche_'
'OLAF_'
'OL'
'OG'
'Nuevo_'
'Nothing_'
'Norway_'
'Nordic_'
'Nomin'
'Niger'
'Nichts_'
'Nepal'
'Navy_'
'Natural_'
'Nah'
'Nachrichten'
'Nachh'
'Nachfrage'
'Nachbarschaft_'
'NRO_'
'NOT'
'NN_'
'NH'
'NF'
'Mütter_'
'Mutter_'
'Mumbai_'
'Mull'
'Movement_'
'Moto'
'Motion_'
'Mord'
'Monte_'
'Mons'
'Monday_'
'Monats_'
'Mona'
'Momentan_'
'Moldova_'
'Modell'
'Mode'
'Mobilität_'
'Mobili'
'Mitbe'
'Mischung_'
'Ministeri'
'Million_'
'Milliarde_'
'Mich'
'Meister'
'Meinungs'
'Meines_'
'Meer'
'Medica'
'Mec'
'Matte'
'Materi'
'Master_'
'Marken_'
'Mant'
'Malta_'
'Mali_'
'Make_'
'Mai'
'MB'
'MADRID_'
'M5'
'Lücke_'
'Lösch'
'Lö'
'Lui'
'Luggage_'
'Luftraum'
'Low_'
'Lou'
'Look_'
'Lon'
'Logo_'
'Lockerung_'
'Lizenz_'
'Lizenz'
'Lit'
'Liquidität_'
'Linken_'
'Line_'
'Liikanen_'
'Lif'
'Lieferung'
'Lich'
'Liberia_'
'Liberal_'
'Lewi'
'Less'
'Leser'
'Lern'
'Leonardo_'
'Leistungsbilanz'
'Leica_'
'Lehren_'
'Leh'
'Led'
'Lebensqualität_'
'Lebe'
'Learn_'
'Lauf_'
'Lau'
'Lar'
'Landwirtschafts'
'Lama'
'Lag'
'Laden_'
'LU'
'LT'
'LS_'
'LDP_'
'LC'
'Kürze_'
'Kurs'
'Kun'
'Kriege_'
'Kreis_'
'Kraftwerk'
'Korr'
'Koran_'
'Konzerne_'
'Konzern'
'Konzepte_'
'Konver'
'Kontinents_'
'Kons'
'Konjunktur_'
'Kongress'
'Kongo_'
'Konflikts_'
'Komplettpreise_'
'Kommando_'
'Komm'
'Kom'
'Kohäsions'
'Kofi_'
'Knoten_'
'Klä'
'Klon'
'Klinik'
'Kleid'
'Kissinger_'
'Kinders'
'Ker'
'Kathedrale_'
'Kath'
'Kapitel_'
'Kanal'
'Junge'
'Jugend_'
'José_'
'Jordanien_'
'Jh'
'Jere'
'Jakob'
'Jak'
'Jahr'
'Jag'
'Jacuzzi_'
'Jac'
'JE'
'Iv'
'Italien'
'Iss'
'Interi'
'Inter_'
'Innovations'
'Innovat'
'Innen_'
'Inn'
'Inha'
'Ingenieur'
'Industrieländer_'
'Indiens_'
'Index'
'Impulse_'
'Improv'
'Implementi'
'Impfstoff'
'Immunität_'
'Imag'
'Ideologie_'
'Identifi'
'Ideal_'
'Id'
'Ib'
'INI_'
'IE'
'ICC_'
'Häuser_'
'Häufig'
'Hungers'
'How'
'Hop'
'Histori'
'Hisbollah_'
'Hindu'
'Hindernis_'
'Hilton_'
'Hilfen_'
'Hil'
'Herkunft_'
'Heran'
'Hen'
'Help_'
'Helm'
'Haushaltsdefizit_'
'Hauptb'
'Hat_'
'Hast'
'Hall'
'Hag'
'HP_'
'Gültigkeit'
'Göteborg_'
'Gy'
'Gute_'
'Guinea_'
'Gue'
'Gründer_'
'Gründ'
'Grunds'
'Grill'
'Gras'
'Grafik'
'Gore_'
'Gordon_'
'Gorba'
'Gor'
'God'
'Gläubiger_'
'Gleichheit_'
'Gipfels_'
'Gesetzgeb'
'Geschäfts_'
'Gerade_'
'Georgien_'
'Geo'
'Gender_'
'Gemeinde_'
'Geltung'
'Gelegenheiten_'
'Gelde'
'Gei'
'Gehä'
'Geheimdienst'
'Gegenzug_'
'Gegenw'
'Gefühle_'
'Gefangene'
'Gebühren_'
'Gebühr_'
'Gebäuden_'
'GF'
'Führungs'
'Föderation_'
'Future_'
'Further_'
'Früchte_'
'Frucht'
'Fronte'
'Fro'
'Friedensprozess'
'Friedens_'
'Freundschaft_'
'Fremd'
'Freilassung_'
'Frauen'
'Franzosen_'
'Franklin_'
'Fourth_'
'Fotokopiereinrichtungen_'
'Fos'
'Forst'
'Former_'
'Foot'
'Folglich_'
'Fokus_'
'Flexi'
'Fitness_'
'Fischereipolitik_'
'Fis'
'Find'
'Finanzsektor'
'Finanzs'
'Finanzr'
'Finanzminister_'
'Finanz_'
'Filter'
'Filip'
'Fift'
'Feuer_'
'Fernseher_'
'Fem'
'Feli'
'Features_'
'Fau'
'Fab'
'FR'
'FF_'
'FE'
'Extremisten_'
'Export_'
'Experience_'
'Exil'
'Excel_'
'Events_'
'Event_'
'Europäisches_'
'Erweiterungs'
'Ertrag'
'Erst'
'Ersparnisse_'
'Erneuerung_'
'Erkenntnis_'
'Eri'
'Ergebnissen_'
'Erfo'
'Ep'
'Entschädigung'
'Energiequellen_'
'Elli'
'Elend_'
'Elektronik'
'Eisen'
'Einwanderungspolitik_'
'Eintritt'
'Einschätzung_'
'Einschränkungen_'
'Einsch'
'Eins'
'Einnahme'
'Einladung_'
'Einh'
'Eingriff'
'Einfuhr'
'Eines_'
'Eigenkapital'
'Ehren'
'Ehre_'
'Ehr'
'Effe'
'Ecuador_'
'Economy_'
'Ecke_'
'Ec'
'Ebola_'
'Easy_'
'ESS'
'EE'
'Dänemark_'
'Drittstaaten_'
'Dream'
'Drama'
'Down'
'Don_'
'Don'
'Dominion_'
'Domini'
'Disziplin_'
'Diskriminierung_'
'Differen'
'Diejenigen_'
'Dha'
'Dez'
'Dere'
'Denk'
'Defense_'
'Decision_'
'Days_'
'Dara'
'Damals_'
'DT'
'DPJ_'
'DNA_'
'DEN'
'DB'
'Crystal_'
'Crown'
'Critic'
'Corporate_'
'Corn'
'Cop'
'Converter_'
'Continental_'
'Conte'
'Cont'
'Conservative'
'Consensus_'
'Cond'
'Conc'
'Comple'
'Competiti'
'Comp'
'Commander_'
'Columbia_'
'Coffee_'
'Cle'
'Chip'
'Chem'
'Chef_'
'Chef'
'Check'
'Chat_'
'Champs_'
'Chal'
'Centr'
'Celsius_'
'Casa_'
'CT_'
'Bürgerkrieg_'
'By'
'Burk'
'Bulgarian_'
'Bui'
'Brüder_'
'Brotherhood_'
'Brig'
'Bridge_'
'Bou'
'Boote'
'Bog'
'Blut_'
'Blume'
'Bisher_'
'Bir'
'Binnenmarktes_'
'Bibliotheken_'
'Bib'
'Bewusstsein_'
'Bevölkerungen_'
'Beträge_'
'Bestellung_'
'Besetzung_'
'Beseitigung_'
'Beschäftigten_'
'Beschr'
'Besatzung_'
'Bericht'
'Benutzern'
'Bell_'
'Belastung_'
'Beit'
'Befürworter_'
'Beendigung_'
'Beck'
'Beau'
'Beam'
'Battle'
'Batt'
'Bath_'
'Basis'
'Bashir_'
'Basel_'
'Bart'
'Barr'
'Baj'
'BSE_'
'BN'
'BER'
'BC_'
'BBC_'
'B6_'
'Award'
'Australian_'
'Austin_'
'Ausbr'
'Ausblick_'
'Ausb'
'Aufr'
'Auflösung_'
'Aufhebung_'
'Atlantik'
'Ate'
'Ash'
'Arzneimittel'
'Armee'
'Are'
'Arbeitsbedingungen_'
'Arabischen_'
'Applikation'
'Appl'
'Appart'
'Any'
'Anwendungs'
'Antid'
'Ansätze_'
'Ansprüche_'
'Anruf'
'Anr'
'Annäherung_'
'Annahmen_'
'Anlei'
'Angabe_'
'Anbieter_'
'Analysen_'
'Analys'
'Alter'
'Alon'
'Alco'
'Alc'
'Albu'
'Albe'
'Akzeptanz_'
'Akti'
'Akteur_'
'Age_'
'Africans_'
'Admiral_'
'Admi'
'Addi'
'Add'
'Adam_'
'Act_'
'Acqu'
'Achtung_'
'Account'
'Abwe'
'Abstand_'
'Abschw'
'AT_'
'ASE'
'AND_'
'ALDE_'
'AKVIS_'
'AG'
'AC_'
'? '
'87_'
'7'
'68'
'45'
'38'
'20th_'
'201'
'1982_'
'1971_'
'1968_'
'175'
'1701_'
'160'
'13th_'
'10th_'
'010'
'002'
'001'
'/-_'
'. ({{_'
'*_'
'**'
')]'
''']]'
' �_'
' “ _'
'  '
' =='
' ($_'
' "._'
' ", _'
'��'
'€ _'
'”_'
'“) _'
'’ – _'
'ע'
'ь_'
'ц'
'ны'
'ки'
'в_'
'ο_'
'μ'
'ž_'
'ši'
'Č'
'ütig'
'üste'
'üssel'
'ünsch'
'ündig'
'ündet'
'üllt_'
'üle'
'ührungs'
'ühren_'
'ühl'
'üchte'
'üche_'
'üblichen_'
'üblich_'
'überschuss_'
'überschr'
'überleb'
'überholt_'
'ør'
'ösung'
'östlichen_'
'örter'
'öpfe_'
'öne'
'öko'
'öffnet_'
'öffentliches_'
'öd'
'ño_'
'ê'
'éo'
'ées_'
'äußerster_'
'äuse'
'äumt_'
'ätter'
'ätt'
'äse'
'ärm'
'ärf'
'ärer_'
'änz'
'ängig_'
'änen_'
'ändig_'
'älteste_'
'älter'
'ällt_'
'äf'
'äck'
'ächte'
'ál'
'Überw'
'Überlegungen_'
'Übera'
'Übel'
'Üb'
'Ökosystem'
'Ägyptens_'
'» | _'
'° _'
'}: _'
'|''_'
'zweitgrößte_'
'zweifelhaft'
'zweier'
'zweckmäßig'
'zweck'
'zwan'
'zuzuge'
'zustellen_'
'zustande_'
'zusammenbr'
'zurückkehren_'
'zurückf'
'zung_'
'zun'
'zuh'
'zugestimmt_'
'zugelassen_'
'zufällig'
'zub'
'zoom_'
'zones_'
'zna'
'zlich'
'zio'
'ziehung'
'zi_'
'zeuge'
'zeug_'
'zet'
'zerr'
'zeichnet_'
'zb'
'yto'
'ypti'
'ypte'
'ypt'
'yo_'
'yne'
'yma'
'yf'
'yd_'
'xin'
'würdige'
'wär'
'wun'
'wuchs_'
'wu'
'writ'
'wra'
'worthy_'
'workplace_'
'workforce_'
'wooden_'
'wolle'
'woch'
'witnessed_'
'withdraw_'
'wisse'
'wirtschaftliches_'
'wirkungsvoll'
'wirkungen_'
'wirksamer_'
'winzige'
'willk'
'will'
'wil'
'widerspricht_'
'widersprechen'
'widerspr'
'widen'
'wheel'
'werdende'
'weigh_'
'wehr'
'wede'
'wd'
'watching_'
'watched_'
'wandeln_'
'waltung_'
'wald_'
'wage'
'vul'
'voy'
'vou'
'vorübergehend_'
'vorzubereiten_'
'vorz'
'vort'
'vorsichtig_'
'vorschläge_'
'vorsch'
'vorr'
'vorn_'
'vorliegende_'
'vorliegen_'
'vorkommen_'
'vorigen_'
'vorhers'
'vorherige_'
'vorgeb'
'vorb'
'vollzieh'
'volatile_'
'vocational_'
'visual_'
'violat'
'vierzig_'
'vierten_'
'vici'
'veterinar'
'vet'
'vested_'
'vessel_'
'veröffentlichten_'
'verzichten_'
'verwirklichen_'
'verwalte'
'verv'
'verursachte_'
'vertrete'
'vertreib'
'verteilen_'
'versäum'
'versuch'
'versta'
'versichert'
'versehen'
'verschwinden_'
'verma'
'verlängert_'
'verletz'
'verlei'
'verl'
'verknüpft_'
'verkehrs'
'verhängt'
'verglichen_'
'vergeb'
'verg'
'verfügbare'
'verfassungs'
'verf'
'vereinbarte'
'verdi'
'verdeutlich'
'verbu'
'verbreiteten_'
'verbreitete_'
'verbindliche'
'verbind'
'verba'
'verantwort'
'veranstalte'
'verans'
'verabschiedeten_'
'verab'
'vera'
'venue'
'vehement'
'vegeta'
'vede'
'vas'
'variables_'
'vall'
'val_'
'vaccination_'
'uß_'
'uzi'
'utzte'
'utze'
'utu'
'utter'
'uto'
'utier'
'uter'
'usiasm'
'urz_'
'urteil'
'url'
'urc'
'urbel'
'urbanization_'
'upt'
'upload_'
'upheaval'
'unzulä'
'unverzüglich_'
'unverh'
'unterzeichne'
'unterschr'
'unterrichte'
'unt_'
'unschuldige'
'unpro'
'unpredictable_'
'unmittelbaren_'
'unkt'
'universelle'
'univers'
'unite'
'union'
'uniform_'
'ungswe'
'ungssysteme_'
'ungsr'
'ungslos_'
'ungskr'
'ungsan'
'unglaub'
'unfortunate_'
'unerwünschte'
'unent'
'undin'
'undertaken_'
'undert'
'underli'
'underdevelop'
'uncom'
'unce'
'unbekannte'
'unbegr'
'umweltfreundlich'
'umsetzen_'
'umfassendere'
'umfangreichen_'
'umfang_'
'ument'
'ulierungen_'
'uer'
'uen'
'uc_'
'ubt'
'uble_'
'uar'
'tägliche_'
'tzes_'
'typen_'
'tunnel'
'tual'
'ttent'
'tta'
'träum'
'troubles_'
'tropical_'
'triumph_'
'trin'
'tribute_'
'trials_'
'treibe'
'trei'
'treffe'
'traurig'
'traum'
'transnationale'
'translated_'
'transform'
'transferring_'
'traf'
'traditionell_'
'tract'
'toxic_'
'toxi'
'tower_'
'towels_'
'toute'
'tout_'
'toma'
'toi'
'tock'
'tnis'
'tna'
'tk'
'tire'
'tir'
'tip'
'timing_'
'timetable_'
'tim'
'tile'
'tigt'
'tighter_'
'tige_'
'tieren_'
'tiere'
'tid'
'tial_'
'thy_'
'thread_'
'thoughts_'
'thon_'
'therm'
'therapie'
'therapeuti'
'theories_'
'theoretische'
'thee_'
'thanking_'
'tform'
'textile_'
'teria'
'tered_'
'tenu'
'tendency_'
'tended_'
'temporarily_'
'tempor'
'tempo_'
'teiln'
'teen'
'technologisch'
'taxpayer_'
'tausch'
'tatt'
'tatsächliche_'
'tap'
'tand_'
'tand'
'talent_'
'talent'
'tages'
'tadt_'
'tac'
'sü'
'säu'
'sämtliche'
'synthesi'
'synchroniz'
'symbol'
'sy'
'swor'
'swert'
'sweet'
'sustain'
'suspicion_'
'surveys_'
'surprisingly_'
'surgi'
'supermarkets_'
'suns'
'summari'
'sul'
'sudden_'
'succeed'
'subst'
'subsidiaries_'
'subsidiar'
'subjecti'
'stö'
'stärkt_'
'ständige_'
'studying_'
'stub'
'sts'
'ströme'
'strukturierte'
'strikt'
'striking_'
'stress'
'strenge'
'streit'
'straf'
'stoppen_'
'stolz_'
'stock'
'stim'
'stif'
'stie'
'stic'
'steuern_'
'stetig'
'stes_'
'steril'
'stepp'
'stecken_'
'steady_'
'stattgefunden_'
'statistical_'
'stationen_'
'standardiz'
'stall'
'stakes_'
'stak'
'stabilisier'
'stabilen_'
'stab'
'staate'
'ssta'
'ssene_'
'sreich'
'sr'
'sq'
'spä'
'spyware_'
'spreche'
'sprache_'
'spoil'
'spite_'
'spezialisierte'
'spends_'
'spell_'
'spell'
'spekt'
'spei'
'speedi'
'speculati'
'specific'
'spann'
'sozio'
'sop'
'sooner_'
'sont_'
'solved_'
'sollt'
'solide'
'sogenannte_'
'socialist_'
'soar'
'sn'
'smuggl'
'smi'
'sly_'
'slin'
'slaughter'
'skiing_'
'skat'
'sitze'
'sitz'
'sische'
'sir'
'sinn'
'singles_'
'simulation_'
'simul'
'sili'
'silence_'
'signifikante'
'signature_'
'signat'
'signals_'
'sights_'
'sighted_'
'sige'
'sichtlich_'
'sichtige'
'sicht'
'sian_'
'shores_'
'shire_'
'shifting_'
'shifted_'
'sher'
'shell_'
'shak'
'sgebiet'
'setzten_'
'ses'
'servici'
'sequen'
'sentence_'
'sensitivity_'
'sene'
'sende'
'sena'
'seltene_'
'self'
'selecti'
'seiz'
'seiner'
'sein'
'sehbar'
'securi'
'secular_'
'sections_'
'sect'
'searche'
'screening_'
'score'
'schätzt_'
'schä'
'schwächere'
'schwächen_'
'schwei'
'schwe'
'schwache_'
'schuldig_'
'schul'
'scht_'
'schreckliche'
'schockier'
'schläge_'
'schloss_'
'schlimmer_'
'schließt_'
'schlicht'
'schlag_'
'schickt'
'schic'
'scheu'
'scherweise_'
'schem'
'schei'
'schal'
'schaftlich'
'schaften_'
'scenes_'
'scann'
'scan_'
'sav'
'sang'
'samples_'
'sammeln_'
'salaries_'
'sailing_'
'sahen_'
'sag'
'sacrifice_'
'sache'
'sach'
'saa'
'rücken_'
'rvat'
'rut'
'ruppe'
'runde_'
'ruhiger_'
'ruhige_'
'ruhig'
'rue'
'rri'
'rpr'
'rozess'
'rox'
'rot'
'rogramm'
'rmu'
'rme'
'rmaßen_'
'rlich_'
'rkl'
'rke_'
'rivers_'
'rite'
'risi'
'rior'
'rio_'
'rin_'
'rimi'
'rily_'
'rik_'
'rigoro'
'rigen_'
'rift_'
'riert_'
'riege'
'rider'
'rid_'
'richtig'
'rice'
'rga'
'rew'
'revival_'
'revision_'
'ret_'
'restrictive_'
'restricti'
'ressourcen_'
'respecting_'
'resiste'
'resistant_'
'reserv'
'repu'
'replacement_'
'renew'
'rence'
'removing_'
'rema'
'relying_'
'relocat'
'relativ'
'reitung'
'reinv'
'reifen_'
'reicht'
'reichere'
'regelmäßige'
'regel'
'reformier'
'reforme'
'referendums_'
'redefin'
'recti'
'recourse_'
'recording'
'reconcile'
'recon'
'recom'
'recipe_'
'recession'
'receiver'
'rebuild_'
'rebels_'
'rebel'
'reassure'
'realisti'
'realisier'
'realis'
'reaches_'
'rde'
'rci'
'rbeitung_'
'rav'
'rats_'
'ras_'
'rar'
'rapide_'
'ramp'
'ramm'
'rali'
'rale'
'rainf'
'rain_'
'rain'
'rail'
'rai'
'radio'
'rade'
'rad'
'race'
'quip'
'quicker_'
'quet'
'query_'
'quelle_'
'quasi_'
'qualities_'
'qualifizierten_'
'put'
'pursuing_'
'pup'
'punkt'
'punc'
'pump'
'puls'
'ptic'
'prünglich'
'prüfung_'
'pré'
'pru'
'proze'
'prosper'
'proportional'
'properties_'
'prol'
'projekt'
'prog'
'profession_'
'probleme'
'probe_'
'private'
'prinzipie'
'prin'
'pride_'
'preventive_'
'pretty_'
'preside'
'preserved_'
'prerequisite_'
'premises_'
'preliminary_'
'preferable_'
'predicted_'
'preche'
'preach'
'posted_'
'poss'
'positioned_'
'portugiesische'
'portray'
'portrait'
'portion_'
'portfolio'
'populär'
'populistischen_'
'poll'
'plural'
'plum'
'plentiful_'
'pledge_'
'plausible_'
'plant'
'planes_'
'plane'
'plain_'
'plain'
'placing_'
'piscin'
'pioneer'
'pilot'
'pick'
'phy'
'phori'
'phen'
'phe'
'phan'
'pfl'
'pfen_'
'pfelt'
'pez'
'peu'
'perpetua'
'permi'
'permanente'
'periodi'
'perfekten_'
'penetrat'
'penalties_'
'pel'
'pedi'
'pedestrian_'
'peacekeeping_'
'patron'
'pati'
'patch_'
'passiv'
'passion_'
'passing_'
'passen_'
'parent_'
'parameter_'
'paradox'
'pale'
'pal_'
'pakistanische'
'painting_'
'pact_'
'packaging_'
'pa_'
'oya'
'oxid'
'ox'
'owsk'
'owner_'
'owi'
'owe_'
'oversight_'
'overs_'
'outrage'
'ous'
'ound'
'otr'
'otis'
'oten_'
'otel_'
'ote_'
'oss_'
'orr'
'orisch'
'ories_'
'organisieren_'
'organic_'
'ordert_'
'ordentlich'
'orbit'
'oq'
'optimier'
'opo'
'operativen_'
'ony_'
'ono'
'onf'
'ond'
'omp'
'ommenen_'
'oll_'
'oliti'
'olic'
'oler_'
'old'
'olar'
'oj'
'ohner'
'ogg'
'ofi'
'officer_'
'offe_'
'odo'
'odi'
'ode_'
'ocr'
'ocean_'
'occurs_'
'obtaining_'
'obst'
'observer_'
'obs'
'oberha'
'obere'
'oasis_'
'oard_'
'nützliche'
'nüpf'
'nächstes_'
'nutzbar_'
'nus'
'nungen_'
'null_'
'nukleare'
'ntwort'
'ntu'
'nsk'
'nschw'
'nr'
'nowhere_'
'nosti'
'noisy_'
'noc'
'nnen'
'nne_'
'nitts'
'nitt'
'nisch_'
'nio'
'nik'
'nian'
'nia_'
'nho'
'ngly_'
'nglich'
'ngi'
'neutrali'
'neuer'
'neuem_'
'nets_'
'nest'
'neighbor'
'nego'
'neglect_'
'negativ'
'nec'
'ndt'
'ndo'
'ndl'
'ndert'
'ndel'
'nch_'
'nba'
'navigate_'
'nationalist'
'nationali'
'nant_'
'nano'
'nah'
'nacht_'
'nable_'
'märkten_'
'muy_'
'musical_'
'mur'
'mund'
'mpa'
'mounted_'
'mos_'
'moralis'
'mons'
'mona'
'molecul'
'modul'
'moderniz'
'modernem_'
'modell'
'mob'
'mmi'
'mla'
'mitte'
'mithilfe_'
'mistr'
'mistaken_'
'mission'
'missed_'
'misma'
'mins'
'ministry_'
'mild'
'mic_'
'metr'
'mete'
'merika_'
'memori'
'mem'
'meld'
'meister_'
'mehrfach_'
'medizinischen_'
'medizinische'
'mechanismus_'
'mechanisch'
'mbo'
'mble_'
'mba_'
'maybe_'
'maximi'
'matt'
'materielle'
'massiven_'
'mask_'
'mask'
'marsch'
'market'
'marken'
'marginali'
'mant'
'mangelt_'
'manc'
'maler'
'makroökonomischen_'
'maker_'
'majest'
'main'
'magni'
'maga'
'mad'
'lüsse'
'lze'
'lush_'
'ltig_'
'lti'
'lte'
'lowest_'
'loud'
'lop'
'lohnt_'
'local'
'lobb'
'llungs'
'llung_'
'lles_'
'litik_'
'lite'
'litari'
'listening_'
'listened_'
'lining_'
'linear_'
'lim'
'lift'
'lifestyle'
'liefert_'
'lieder'
'lichung_'
'lichem_'
'lic_'
'liberali'
'liation_'
'letters_'
'lett'
'lenders_'
'leichte'
'leich_'
'lehnt'
'legte_'
'legitime'
'legali'
'lebend'
'leas'
'leak'
'ldet'
'lder_'
'lde'
'lation_'
'lateinamerikanische_'
'laser_'
'laptop_'
'lap'
'langer_'
'landes_'
'lai'
'lager'
'lage'
'lacks_'
'künstlerische'
'künft'
'kühne'
'kühl'
'könnt_'
'käme_'
'ky'
'kurs_'
'ktiv_'
'kritisieren_'
'kreative_'
'kraftwerke'
'kow'
'kov_'
'kou'
'kostenfreien_'
'kostenfreiem_'
'kosm'
'korrigiert_'
'koo'
'konze'
'konventionelle'
'kontinuierliche'
'kontaktieren_'
'konsum'
'konstruktiv'
'konstitutionelle'
'konkret_'
'kompr'
'kompakt'
'kommerzielle_'
'kommende_'
'komfortabel_'
'kombin'
'kom'
'kolle'
'kod'
'klären_'
'kleinste'
'klei'
'klare'
'klapp'
'kki'
'kirch'
'kinder'
'kilometre'
'kill'
'kie'
'kerin'
'keinem_'
'kehrte_'
'kehrs'
'kauf'
'katastrophen_'
'kampf_'
'kamera'
'kal'
'jö'
'jähriger_'
'jährige_'
'judiciary_'
'jk'
'jeu'
'jeti'
'jeopardi'
'jemande'
'jekt'
'jeglicher_'
'jar'
'jail'
'jahrelange'
'jad'
'izu'
'izer'
'iums_'
'itz_'
'ited_'
'issa'
'isolat'
'islamistische'
'ision'
'ische'
'irrational_'
'irm'
'irgendeiner_'
'ipe'
'inviting_'
'invited_'
'investor_'
'investigated_'
'inventi'
'inu'
'intra'
'intimate_'
'interventions_'
'interven'
'interrupt'
'interpreted_'
'interpretati'
'interne_'
'interg'
'intensiv_'
'integrity_'
'integrate_'
'instruct'
'institute'
'install'
'instability_'
'instabil'
'inspirierende'
'inspections_'
'inspe'
'insight_'
'insert_'
'insel'
'inse'
'innovativen_'
'inm'
'inkl'
'ingung'
'ingli'
'infra'
'infl'
'infecti'
'infant'
'inexp'
'ineffective_'
'industrielle_'
'indices_'
'indicates_'
'incorrect'
'inco'
'inar'
'impro'
'impressed_'
'importiert'
'imply_'
'implant'
'imperialis'
'immunity_'
'immi'
'immens'
'imme'
'imaging_'
'imagination_'
'ima_'
'im'
'ilie'
'igungen_'
'igten_'
'igte_'
'ifying_'
'iff_'
'ierungen_'
'ierende'
'ielen_'
'ieb'
'identification_'
'ideally_'
'ichkeit_'
'iche'
'iale'
'iad_'
'iPhone_'
'hübsch'
'häuser_'
'häufig'
'hängen_'
'humanitäre_'
'humane'
'hrung_'
'house'
'hosts_'
'hostilit'
'hostile_'
'homeland_'
'hochge'
'hm_'
'hinterl'
'hinein_'
'hinein'
'hinausge'
'hina'
'hierfür_'
'hierarchi'
'het_'
'hes'
'herzliche'
'hervorragende'
'hervorr'
'hervorbr'
'herunter_'
'herum_'
'herge'
'herein'
'herausragende'
'hende_'
'hemm'
'hell_'
'heit'
'heir'
'heilig'
'heftige'
'hed'
'heben_'
'heb'
'heav'
'healing_'
'header'
'haushalt'
'hausg'
'hate_'
'hat'
'harvest'
'harmonise_'
'harmonische'
'harmoni'
'happiness_'
'hani'
'handed_'
'ham'
'halt'
'halle'
'hack'
'habt_'
'günstig'
'gym'
'gungen_'
'guitar'
'guidance_'
'gui'
'guest'
'guardian_'
'guard_'
'gua_'
'gründ'
'größt'
'grösste'
'grund'
'groß'
'ground'
'grip'
'grim'
'grid'
'gri'
'grenzüberschreitenden_'
'grenze_'
'greift_'
'gravi'
'gratis_'
'gration_'
'graph_'
'grain'
'gog'
'goa'
'gma_'
'globalis'
'gliche'
'glei'
'gische_'
'gin_'
'gifts_'
'geäußerten_'
'gewicht_'
'geting_'
'gesundheitliche'
'gestü'
'gestellten_'
'geste'
'gesorgt_'
'geschützte'
'geschätzten_'
'geschwächt'
'geschi'
'gescheiterte'
'geschafft_'
'gerü'
'gerichtete_'
'gerichte'
'gerei'
'gerechtfertigt_'
'gerechte_'
'geopolitical_'
'genügt_'
'genießt_'
'gene_'
'gelä'
'geln_'
'gelie'
'gelei'
'gelegene_'
'gelangt_'
'geiz'
'gehe_'
'gegl'
'gegenseitig_'
'gegebenenfalls_'
'gefühl'
'gefährlicher_'
'gefr'
'gefasst_'
'gedrängt_'
'gebühren_'
'gebu'
'gebraucht_'
'gebra'
'gebiete_'
'geber_'
'geber'
'gaming_'
'gall'
'fünfzehn'
'fünfte'
'fügt_'
'fälle_'
'futures_'
'furthermore_'
'funktions'
'funktionierende'
'functionality_'
'func'
'fulfill'
'fts'
'ftig'
'fte'
'frustr'
'front'
'frisch_'
'friedlichen_'
'friedliche_'
'freez'
'französische'
'fragile_'
'fortgesetzt_'
'formulierte_'
'formally_'
'forgi'
'forg'
'foreigners_'
'forci'
'force'
'foods_'
'fond'
'folg'
'fold_'
'fluc'
'fliegen_'
'flicht'
'fizi'
'fires_'
'fired_'
'fire'
'find'
'finanzierten_'
'file'
'fig'
'ffekt'
'fetch'
'festste'
'festiv'
'feren'
'feier'
'fehlenden_'
'feels_'
'federa'
'fear'
'favorable_'
'fatal'
'fasci'
'fare'
'fantas'
'fang'
'fanatic'
'famously_'
'familiengeführte'
'falt'
'faktor'
'fakt'
'fairer'
'fairen_'
'factories_'
'facility_'
'facilitating_'
'fabri'
'eß'
'exzellenten_'
'extraordinarily_'
'extr'
'externe'
'exquisite_'
'expulsion_'
'explo'
'explanations_'
'experiments_'
'experiencing_'
'expe'
'exp'
'exo'
'existen'
'exhaust'
'excuse_'
'excu'
'excess'
'eventuell_'
'evan'
'europaweit_'
'etic_'
'eti'
'ethnische_'
'ethischen_'
'ethical_'
'eternal_'
'etch'
'estimate_'
'ession'
'essen'
'esk'
'erzielten_'
'erzeugen_'
'erzeug'
'ery_'
'erworben'
'erwi'
'erweis'
'erwarte'
'ervi'
'erupted_'
'erungs'
'eru'
'ertrag'
'ertig'
'ertes_'
'erteilt'
'ersuchen_'
'erste'
'erstaunliche'
'ersi'
'erschw'
'errichtete'
'erreich'
'eros'
'ernähr'
'ernste'
'ermutigt_'
'erläutert'
'erläutern_'
'erlern'
'erklärung'
'erie'
'erholsame'
'erhebt_'
'erheb'
'ergibt_'
'ergab'
'eres_'
'erende_'
'erend'
'equa'
'epr'
'eo'
'entwickel'
'entrance_'
'entities_'
'enthusiast'
'enthielt'
'entgegens'
'enten'
'enswerte_'
'enswert'
'ensu'
'enlarged_'
'enjoyable_'
'engaging_'
'engag'
'endorsed_'
'endes_'
'encryption_'
'encouragement_'
'ench'
'enburg_'
'employee_'
'empfinden_'
'empfiehlt_'
'empf'
'emission_'
'embraced_'
'embargo_'
'ema_'
'eln'
'elles_'
'elle'
'ella'
'elf'
'elegan'
'electron'
'elect_'
'ektor'
'eite'
'einzuleiten_'
'einzugehen_'
'einseitige'
'einsa'
'einig_'
'einig'
'einheit'
'einhe'
'eingerichteten_'
'eingeleitet'
'eingeh'
'eindeutige'
'eill'
'eilig'
'eih'
'eigens'
'eigen'
'eichnungen_'
'ehrt_'
'ehr_'
'ehnen_'
'ehmen'
'egu'
'egte'
'effektiver_'
'edl'
'eda'
'ecu'
'ecological_'
'eckte'
'ecke'
'echen_'
'eche'
'ebe'
'earn_'
'eager_'
'eag'
'dür'
'dys'
'dust_'
'dus_'
'durchzusetzen_'
'dumm'
'dt'
'dräng'
'dry'
'drop'
'dritt'
'dres'
'dreh'
'dreams_'
'drau'
'drastic_'
'dramatische_'
'downward_'
'downturn_'
'dou'
'dose_'
'dorf_'
'dogs_'
'document'
'doct'
'dl'
'dividing_'
'divide_'
'dity_'
'distortion_'
'distorti'
'distorted_'
'distin'
'distant_'
'disso'
'disregard'
'displays_'
'disg'
'disen'
'discourage'
'disappointing_'
'diplomatischen_'
'dio'
'dinar'
'dimensions_'
'dikti'
'diesmal_'
'diesjährige'
'diesbezügliche_'
'dien'
'diction'
'dges'
'dg'
'devote_'
'devo'
'developer'
'detr'
'determining_'
'deteriorati'
'detection_'
'despair_'
'deser'
'desde_'
'descent_'
'desa'
'deny_'
'denten_'
'dent_'
'density_'
'demokrati'
'demografische'
'democratization_'
'dema'
'delivering_'
'delightful_'
'delete_'
'dele'
'deko'
'degrees_'
'deg'
'definitions_'
'definite_'
'definierte'
'defend'
'defect'
'deeper_'
'decree'
'decor'
'deci'
'decentrali'
'debated_'
'daz'
'daw'
'dauert_'
'dau'
'dargelegt'
'dance_'
'dacht'
'cycles_'
'custom_'
'cus_'
'curi'
'cultures_'
'ction'
'crush'
'creditor_'
'cozy_'
'court'
'counterfeit'
'couldn_'
'costly_'
'cos'
'corrupt_'
'cooperative_'
'cool_'
'cool'
'conversion_'
'convention_'
'contra'
'contin'
'contest_'
'contend'
'contaminated_'
'consistently_'
'considers_'
'connecting_'
'confronted_'
'confrontation_'
'confo'
'configure_'
'config'
'conciliation_'
'comprise'
'compr'
'compound'
'compliment_'
'completion_'
'complementary_'
'comple'
'complaints_'
'complaint_'
'competence_'
'compell'
'compe'
'commerce_'
'commend'
'collecting_'
'collect'
'cluster_'
'cloth'
'clinic'
'cli'
'clearer_'
'cleane'
'clau'
'cks'
'cker_'
'chtung_'
'chtigkeit'
'chslung'
'chs_'
'chron'
'chli'
'chl'
'chere'
'chemis'
'chemicals_'
'change'
'chan'
'chaft'
'chaff'
'cents_'
'centri'
'censorship_'
'ceme'
'cell'
'ceiling_'
'ced'
'cci'
'catch'
'catastrophe_'
'carries_'
'carrier_'
'came'
'calculated_'
'calamit'
'cafe'
'cac'
'cabin'
'büro'
'bö'
'by'
'buyer'
'butt'
'burning_'
'burn_'
'bungen_'
'bund'
'build'
'buffer'
'buchs'
'brüc'
'browsing_'
'breaks_'
'brea'
'bout'
'borrow_'
'bookings_'
'boil'
'bog'
'bode'
'blue'
'blogs_'
'blocki'
'blocked_'
'bling_'
'blich_'
'bleibende'
'blas'
'bittere'
'bische'
'birthday_'
'biome'
'biologischen_'
'billige'
'bill_'
'bilaterale_'
'bike_'
'bg'
'bezogen'
'bewirkt_'
'bevorzugte'
'bevorstehende'
'beverages_'
'bett_'
'bets_'
'betrug_'
'betrieb_'
'betre'
'betrachte_'
'betra'
'besucht_'
'bestimmungen_'
'besorgniserregend'
'besitzer_'
'besetzten_'
'beschriebene'
'beschreiben_'
'bereitzustellen_'
'bereitgestellt_'
'benchmark'
'bemerken_'
'belt'
'belo'
'beklagen_'
'bekannteste'
'bekannte_'
'beizu'
'beherrschen_'
'begrenzen_'
'begannen_'
'befürwortet_'
'befürworten_'
'beförder'
'befreien_'
'befr'
'befand'
'befa'
'beeinträchtigt_'
'beein'
'bedingten_'
'bedeutendsten_'
'bedeutend'
'bedding_'
'beck_'
'beam'
'beabsichtigt_'
'bay_'
'bares_'
'barem_'
'banned_'
'bankr'
'bankers_'
'banken_'
'banke'
'bands_'
'bade'
'aya_'
'ay'
'awful_'
'awa_'
'aw_'
'aviation_'
'avert'
'avers'
'aver'
'autori'
'automatische'
'automati'
'authorized_'
'authorita'
'auth'
'ausüb'
'auszuge'
'ausser'
'aussehen_'
'auss'
'ausn'
'ausgeübt'
'ausgezeichnet_'
'ausgenommen_'
'ausgel'
'ausgehenden_'
'ausgeben_'
'auseinander'
'ause_'
'ausd'
'auschen_'
'ault_'
'augment'
'aufwe'
'aufsicht_'
'aufs_'
'aufr'
'aufhören_'
'aufhalten_'
'aufgerufen_'
'aufgehoben_'
'aufgeben_'
'aufga'
'aufbauen_'
'auer_'
'attracted_'
'attent'
'attend'
'attach'
'ats_'
'atory_'
'atomaren_'
'atives_'
'ative'
'ath_'
'asto'
'aster'
'assur'
'assung'
'assignment'
'assembl'
'asks_'
'asiatische_'
'asia'
'arro'
'arriving_'
'arrives_'
'arranged_'
'armo'
'arm'
'aris'
'ario'
'arin'
'arf'
'ardo'
'archives_'
'architektonisch'
'architectural_'
'aqua'
'apt'
'approaching_'
'applaud'
'apparently_'
'anzupassen_'
'anzuerkennen_'
'anu'
'antibiotic'
'anta'
'ansprechen_'
'ansetzen_'
'anon'
'annte'
'announcement'
'angesprochene'
'angese'
'angen'
'angekündigte'
'angehöre'
'angegeben_'
'angebliche'
'ane'
'anderweitig'
'andel'
'analy'
'amt'
'ament'
'amen_'
'ambiance_'
'aman'
'altogether_'
'altig'
'alte'
'als'
'allmählich'
'alliances_'
'alk'
'alismus_'
'alism_'
'alige'
'algo'
'aktualisiert'
'aktion'
'aki'
'ais_'
'ains_'
'ail_'
'ail'
'ahren_'
'agung'
'agne_'
'aggressive'
'agg'
'afts'
'afrikanische_'
'afft_'
'afford'
'afflict'
'aero'
'advocate'
'adventure_'
'advan'
'adv'
'adu'
'adore'
'ado'
'admitted'
'adjust_'
'adj'
'ademi'
'add'
'ada_'
'acute_'
'acted_'
'acr'
'acquire_'
'acion'
'acht'
'achst'
'ache_'
'accu'
'accesse'
'accelerating_'
'acced'
'ac_'
'abzuw'
'abste'
'abstain'
'absorb'
'abortion_'
'abolish'
'aboard_'
'ablehnen_'
'abilis'
'abger'
'aber'
'abd'
'abba'
'aban'
'aat'
'Zypern_'
'Zuwa'
'Zusammenfassung_'
'Zun'
'Zul'
'Zuh'
'Zivilisten_'
'Zion'
'Zers'
'Zell'
'Zeilen'
'Zealand_'
'Zan'
'Xe'
'Xa'
'XLS'
'Wüsten'
'Währungsk'
'Wy'
'Worse_'
'Worf_'
'Word_'
'Wollen_'
'Wohnsi'
'Wochen'
'Wissenschaft'
'Wirtschaftsre'
'Wirtschaftsr'
'Wirtschaftskrise_'
'Wirtschaftlich'
'Wirbelst'
'Winds'
'Winde'
'Williams'
'Willi'
'Will'
'Wiener_'
'Wiederg'
'Widerstand'
'Wide'
'Wichtig'
'Werde_'
'Wend'
'Weltkriegs_'
'Welthandels'
'Wellnessbereich_'
'Weiße_'
'Weiterhin_'
'Weisheit_'
'Weis'
'Weihnachten_'
'Wehr'
'Weg'
'Way'
'Watt'
'Wasch'
'Waren'
'Wan'
'Wahlbe'
'WWII_'
'WS'
'WP'
'WHO_'
'Völkern_'
'Völker'
'Vorredner'
'Vorjahr'
'Vorherrschaft_'
'Vorha'
'Voraus_'
'Voraus'
'Vollbeschäftigung_'
'Volkswagen_'
'Vol'
'Vitorino_'
'Visit'
'Vision'
'Vik'
'Viertel'
'Victoria_'
'Via_'
'Veto'
'Verweis'
'Verwand'
'Verv'
'Verteidigungsminister'
'Versuch'
'Versorgungs'
'Versicherungen_'
'Verkehrsnetz'
'Verkehrsa'
'Verhaftung_'
'Vergleich'
'Vergessen'
'Verbraucherschutz'
'Verbrauch_'
'Verantwortlichen_'
'Veran'
'Vera'
'Vent'
'Venez'
'Vas'
'Vari'
'Vall'
'Vac'
'Ursprungs'
'Urheber'
'Updates_'
[...]
